[PAD]
[UNK]
[START]
[END]
!
"
#
$
%
&
'
(
)
*
+
,
-
.
/
0
1
2
3
4
5
6
7
8
9
:
;
<
=
>
?
@
A
B
C
D
E
F
G
H
I
J
K
L
M
N
O
P
Q
R
S
T
U
V
W
X
Y
Z
[
\
]
^
_
`
a
b
c
d
e
f
g
h
i
j
k
l
m
n
o
p
q
r
s
t
u
v
w
x
y
z
{
|
}
~
 
¢
£
§
©
®
°
±
²
³
´
µ
·
¼
½
¾
¿
À
Á
Â
Ã
Å
Æ
Ç
É
Í
Ö
×
Ø
Ü
ß
à
á
â
ã
ä
å
æ
ç
è
é
ê
ë
ì
í
î
ï
ð
ñ
ò
ó
ô
ö
ø
ù
ú
û
ü
ý
ÿ
Ā
ā
ă
ć
Č
č
Đ
đ
ē
ė
ę
ě
ğ
ī
İ
ı
Ł
ł
ń
ŋ
Ō
ō
ő
œ
ř
Ś
ś
Ş
ş
Š
š
ū
ŭ
Ž
ž
ș
ʻ
ʼ
ʽ
ʾ
ʿ
́
̤
Α
Θ
Κ
Μ
Ν
Ο
Π
Σ
Τ
Φ
Ω
ά
έ
ή
ί
α
β
γ
δ
ε
ζ
η
θ
ι
κ
λ
μ
ν
ξ
ο
π
ρ
ς
σ
τ
υ
φ
χ
ω
ό
ύ
ώ
А
Б
В
Г
Д
И
К
М
Н
П
С
Т
Х
а
б
в
г
д
е
з
и
й
к
л
м
н
о
п
р
с
т
у
х
ц
ч
ш
ъ
ы
ь
э
я
ё
і
ј
ө
ְ
ִ
ֵ
ֶ
ַ
ָ
ֹ
ּ
ׁ
א
ב
ג
ד
ה
ו
ז
ח
י
כ
ל
ם
מ
ן
נ
ס
ע
פ
צ
ק
ר
ש
ת
،
ء
آ
أ
ؤ
إ
ئ
ا
ب
ة
ت
ث
ج
ح
خ
د
ذ
ر
ز
س
ش
ص
ض
ط
ظ
ع
غ
ـ
ف
ق
ك
ل
م
ن
ه
و
ى
ي
َ
ُ
ِ
ّ
ْ
ٱ
ٹ
ټ
ٽ
پ
چ
ڈ
ڌ
ڑ
ژ
ڙ
ښ
ک
ڪ
ګ
گ
ں
ھ
ہ
ۇ
ی
ۍ
ې
ے
ە
ँ
ं
ः
अ
आ
इ
ई
उ
ऊ
ऋ
ए
ऐ
ऑ
ओ
औ
क
ख
ग
घ
ङ
च
छ
ज
झ
ञ
ट
ठ
ड
ढ
ण
त
थ
द
ध
न
प
फ
ब
भ
म
य
र
ल
ळ
व
श
ष
स
ह
़
ा
ि
ी
ु
ू
ृ
ॅ
े
ै
ॉ
ो
ौ
्
ॐ
ख़
ज़
ड़
ढ़
फ़
।
॥
०
१
२
४
॰
ঁ
ং
অ
আ
ই
উ
এ
ও
ক
খ
গ
ঘ
ঙ
চ
ছ
জ
ঝ
ঞ
ট
ঠ
ড
ণ
ত
থ
দ
ধ
ন
প
ফ
ব
ভ
ম
য
র
ল
শ
ষ
স
হ
়
া
ি
ী
ু
ূ
ে
ৈ
ো
ৌ
্
ৰ
ਂ
ਕ
ਜ
ਤ
ਦ
ਨ
ਪ
ਬ
ਮ
ਰ
ਲ
ਸ
ਹ
਼
ਾ
ਿ
ੀ
ੁ
ੇ
੍
ੰ
ੱ
ં
ક
ગ
ચ
છ
જ
ટ
ત
દ
ધ
ન
બ
ભ
મ
ર
લ
ળ
વ
શ
સ
ા
િ
ી
ુ
ે
ો
્
ଅ
ଇ
କ
ଗ
ଙ
ଚ
ଜ
ଡ
ଣ
ତ
ଦ
ନ
ପ
ବ
ଭ
ର
ଳ
ଶ
ଷ
ସ
ା
ି
ୀ
ୁ
ୋ
୍
ୟ
அ
ஆ
இ
எ
க
ங
ச
ஜ
ட
ண
த
ந
ன
ப
ம
ய
ர
ற
ல
ள
ழ
வ
ஸ
ா
ி
ீ
ு
ூ
ெ
ே
ை
ொ
ோ
்
ం
ఆ
క
గ
చ
ట
త
న
ప
భ
మ
య
ర
ల
వ
ష
స
ా
ి
ీ
ు
ూ
ే
ో
్
ಂ
ಅ
ಕ
ಗ
ಜ
ಟ
ಡ
ಣ
ತ
ದ
ನ
ಪ
ಬ
ಭ
ಮ
ಯ
ರ
ಲ
ವ
ಶ
ಸ
ಾ
ಿ
ೀ
ು
ೂ
ೆ
ೇ
ೋ
್
ം
ക
ങ
ച
ജ
ട
ണ
ത
ദ
ധ
ന
പ
ബ
മ
യ
ര
റ
ല
ള
വ
ശ
ഷ
സ
ാ
ി
ീ
ു
ൂ
ൃ
െ
േ
ോ
്
ൻ
ർ
ං
ක
ග
ජ
ට
ඩ
ණ
ත
ද
න
ප
ම
ය
ර
ල
ව
ස
හ
්
ා
ි
ී
ු
ො
ก
ข
ค
ง
ช
ด
ต
ถ
ท
น
บ
ป
ผ
พ
ภ
ม
ย
ร
ล
ว
ส
ห
อ
ะ
ั
า
ำ
ิ
ี
ื
ุ
ู
เ
แ
โ
ไ
็
่
้
་
က
ခ
င
ည
န
ပ
မ
ယ
ရ
ိ
ု
း
်
ျ
ြ
ွ
ᴕ
ḍ
Ḥ
ḥ
ḷ
ṁ
ṃ
ṅ
ṇ
Ṛ
ṛ
ṝ
ṟ
Ṣ
ṣ
Ṭ
ṭ
ẓ
ạ
ả
ắ
ệ
ồ
ἀ
Ἀ
‐
‑
–
—
―
‖
‗
‘
’
“
”
„
‟
†
‡
•
…
′
″
⁄
⁰
€
₹
→
−
√
≥
⋯
●
❤
ⵏ
お
き
す
の
び
み
り
る
エ
チ
ッ
ビ
ル
・
七
三
中
京
人
会
元
公
動
北
南
县
取
司
唐
国
地
夕
外
大
天
姫
子
字
学
家
寺
寿
山
岐
島
川
州
巻
帝
式
心
成
手
扎
技
拳
握
新
方
日
星
木
本
東
株
水
江
河
海
湖
漢
灯
王
田
社
神
笛
織
羅
西
読
道
関
️
𝕒
𝕖
𝕘
𝕚
𝕟
𝕠
𝕤
𝕥
𝕦
𝕪
🙏
🤣
🤯
the
of
to
and
in
is
that
on
The
for
by
was
be
as
has
with
not
at
from
it
are
said
have
this
or
which
also
his
an
been
India
had
will
he
Court
Rs
In
were
under
It
per
case
any
its
no
would
such
their
who
cent
there
after
No
other
all
order
against
one
her
but
year
accused
made
He
petitioner
can
two
Delhi
time
Minister
they
only
Indian
out
first
Act
up
This
over
Singh
before
about
crore
same
10
him
if
being
when
evidence
government
State
respondent
court
may
New
into
while
years
more
dated
should
000
so
##s
further
we
law
between
three
state
held
appellant
cannot
Modi
these
them
taken
could
during
filed
than
last
12
new
she
stated
Government
deceased
some
company
present
We
learned
where
given
On
well
film
police
place
people
day
11
BJP
even
shall
then
land
party
take
view
Prime
person
power
However
decision
above
through
part
There
PW
did
15
Kumar
As
period
report
petition
fact
statement
country
matter
second
submitted
High
found
2017
Congress
like
do
Pakistan
passed
set
both
within
20
you
application
right
prosecution
30
2016
Supreme
date
Chief
Bank
record
issued
due
Mumbai
very
upon
now
therefore
including
does
petitioners
judgment
question
used
public
without
suit
Pradesh
down
persons
issue
14
here
based
Narendra
because
since
parties
four
make
plaintiff
trial
whether
next
Mr
market
available
come
13
Police
our
cases
must
writ
five
house
today
basis
If
days
interest
But
work
came
Khan
amount
price
District
16
provisions
having
19
around
most
property
facts
many
get
death
those
witness
25
along
President
appeal
what
back
each
number
She
For
seen
Section
2014
district
lakh
service
considered
team
different
examination
another
witnesses
According
way
After
proceedings
50
authority
2015
family
notice
post
Therefore
months
At
took
offence
18
defendant
month
already
action
regard
chief
name
alleged
meeting
body
show
circumstances
business
Officer
US
2013
17
recorded
required
respondents
off
area
process
high
PM
called
concerned
series
National
respect
charge
ground
far
Judge
incident
members
says
earlier
growth
Union
2012
terms
non
tax
They
various
account
support
aforesaid
just
total
till
24
several
sale
done
investigation
Board
companies
world
percent
pay
possession
former
others
much
claim
2011
reported
final
third
Sabha
Gujarat
clear
following
phone
long
life
known
official
good
21
appellants
told
taking
jurisdiction
financial
making
March
however
2009
go
registered
match
impugned
West
use
officer
agreement
end
six
rate
purpose
received
my
father
information
material
give
effect
December
top
Gandhi
Kashmir
son
every
Friday
directed
got
2010
Sharma
necessary
When
Monday
Test
Ram
hand
World
raised
allowed
though
put
Bihar
Rules
points
need
section
states
complaint
office
consideration
reason
runs
water
city
launched
services
itself
legal
September
nature
22
Sri
old
expected
cause
##a
below
bank
wife
asked
comes
provided
relevant
documents
own
While
Tribunal
form
temple
Thus
100
election
2008
Committee
Central
Tuesday
village
Constitution
General
April
South
million
cross
leader
opinion
That
entire
away
quarter
Thursday
Hon
June
left
ble
side
letter
admitted
minister
appointment
referred
policy
point
favour
contract
Shah
how
Department
Lok
include
All
Jammu
money
private
development
security
course
23
China
committed
July
special
major
exercise
going
led
Tata
paid
spot
among
position
decided
senior
Maharashtra
Wednesday
produced
either
Kapoor
orders
situation
Code
added
January
home
later
examined
share
across
2019
role
prices
president
list
level
Rule
mentioned
placed
went
stage
These
complainant
see
provision
Corporation
group
important
27
May
Ltd
dispute
31
demand
dismissed
again
October
sent
cost
granted
become
26
according
reasons
women
40
August
media
written
subject
higher
few
towards
am
November
manner
started
seats
run
your
won
week
Australia
find
Commission
open
2020
payment
28
sought
income
cricket
hearing
visit
criminal
award
Party
near
act
Rahul
result
Saturday
CBI
working
capital
social
lead
release
Punjab
say
##i
system
national
duty
production
term
University
sector
general
Bench
us
Sunday
too
09
full
Yadav
large
likely
entitled
announced
etc
500
rights
claimed
brought
defence
Company
issues
still
best
hold
01
2007
To
candidates
know
help
elections
Director
With
proved
Commissioner
appointed
member
employees
Dr
play
thus
authorities
So
conditions
political
February
billion
scheme
project
played
FIR
killed
Magistrate
areas
Secretary
behalf
vs
located
current
husband
mother
SCC
MP
rule
attack
countries
justice
net
released
Uttar
certain
close
value
event
29
less
contended
judicial
Vs
me
possible
England
clearly
failed
sub
previous
08
regarding
injured
observed
dead
industry
head
increase
past
small
What
never
common
yet
05
age
injuries
GB
charges
compensation
Karnataka
nor
win
mind
actor
daughter
reference
camera
director
During
thereafter
03
vehicle
smartphone
Bengal
international
loss
Kohli
stand
students
One
07
provide
trade
hit
occurrence
children
largest
hours
Civil
officials
Rajasthan
sales
conducted
specific
rules
times
benefit
local
Even
relief
continue
counsel
IPL
profit
main
established
aside
construction
affidavit
Special
Bollywood
holding
presence
read
brother
arrested
bail
Tamil
words
appears
features
Shri
least
light
original
banks
storage
accepted
coming
capacity
denied
2006
medical
seven
plan
Ministry
died
doubt
performance
lower
Assembly
04
giving
2018
document
defendants
short
particular
investment
injury
himself
United
06
victim
data
together
saying
His
02
once
leaders
similar
direct
front
Authority
appropriate
direction
launch
start
food
Nos
seeking
60
test
became
grant
domestic
Senior
foreign
means
global
rejected
opportunity
station
reached
change
road
condition
building
Since
oil
conclusion
Council
Apex
delay
car
hospital
natural
followed
control
Cup
single
region
management
better
laid
gold
night
Ali
999
finding
free
file
title
committee
additional
able
settled
2005
Division
An
allegations
caused
IPC
informed
2004
town
revenue
economic
filing
review
deal
goods
re
meet
plea
why
petitions
candidate
season
Centre
contention
always
co
Parliament
Cr
lost
note
Station
prove
00
reasonable
compared
Pro
named
involved
blood
prior
conduct
want
shares
related
soon
km
Finance
enquiry
units
decree
otherwise
face
applicant
International
deposed
child
proper
recovery
By
connection
submits
recently
Advocate
big
video
products
early
game
powers
health
look
Further
gave
From
Home
200
situated
declared
Hyderabad
sources
nothing
strong
players
Haryana
##e
offer
return
statements
consider
details
proceeding
includes
35
half
mark
captain
force
increased
challenge
shared
employee
parts
respectively
decisions
absence
accordance
currently
fresh
Group
principle
noted
Justice
herein
Chennai
clause
illegal
##n
notification
sufficient
news
murder
deed
kept
recovered
Ex
worth
complete
2002
copy
sold
think
great
call
Development
gone
Order
ensure
prescribed
firm
shows
RAM
SC
provides
prepared
principles
ago
beyond
doing
treatment
funds
shown
45
low
remain
eight
BCCI
getting
might
statutory
considering
projects
school
owner
bring
Army
average
pending
relied
Kerala
fixed
built
leading
central
namely
Hence
procedure
sheet
Virat
Africa
joint
Sushant
##ing
leave
farmers
movie
category
properties
Under
Kolkata
met
true
ODI
society
Prasad
highest
proposed
future
liable
rise
32
variant
RBI
offered
saw
whose
extent
Nadu
Courts
Andhra
field
Amit
civil
wickets
Will
transfer
rates
entered
Public
Cricket
line
intention
interim
ahead
markets
Respondent
stock
Meanwhile
officers
department
crime
often
80
agency
tonnes
reports
posts
submission
polls
Thereafter
70
using
keep
States
contained
credit
applicable
Deputy
plans
grounds
continued
relating
accordingly
ended
therein
included
outside
unless
needs
Both
fall
Air
claims
marriage
personal
places
Counsel
assessment
Madhya
Hindu
2003
Bangladesh
man
completed
education
##r
closed
wherein
conviction
recent
executed
Patna
courts
sentence
word
Additional
fourth
fell
Limited
##d
separate
serious
meaning
vide
board
plaintiffs
scheduled
whole
instant
class
matches
move
custody
real
thereof
matters
stake
playing
records
Chinese
affected
apply
carried
executive
existing
commission
range
ICC
merely
reply
Reliance
certificate
behind
almost
approval
cut
overs
status
lot
cash
supply
remains
popular
selection
knowledge
language
stands
48
treated
key
offences
makes
Bangalore
expressed
Association
instance
Devi
forces
actress
appear
paragraph
woman
School
permission
fire
stars
aspect
assembly
1st
75
Education
display
looking
air
Though
Temple
First
heard
object
Medical
decide
late
Sub
extended
signed
human
workers
reach
activities
investors
inquiry
Dhoni
economy
findings
Chairman
Some
applied
hence
remained
works
fund
story
Day
created
weeks
North
contrary
House
loan
names
seat
Law
equity
Hospital
Now
morning
Salman
awarded
framed
nation
follows
operation
You
Of
allegedly
assets
obtained
phase
inside
para
independent
accounts
posted
Nifty
declaration
mobile
Apart
history
2000
applications
90
gets
immediately
admission
COVID
unit
speed
despite
counter
rear
costs
things
Zealand
##ed
registration
Pakistani
supra
limited
benefits
Lanka
stood
version
Such
Petitioner
distance
agreed
stay
premises
Lord
addition
model
opposite
laws
occasion
Its
huge
Vijay
appearing
Chhattisgarh
upcoming
Maruti
questions
steps
eye
films
engine
operations
book
site
Criminal
annual
identified
commercial
acquired
positive
neither
British
Raj
minimum
districts
individual
forward
Boss
request
especially
Power
specifically
Rajput
particularly
Rohit
whereas
technology
nearly
chairman
except
64
acquisition
submit
results
approved
appellate
Patel
arrest
men
relationship
plant
ever
debt
nine
community
vehicles
inch
Asia
discussed
river
Bill
fiscal
opening
challenged
product
alone
Bigg
College
requirement
Earlier
seized
quite
tried
Indias
difficult
primary
produce
Trial
pass
arbitration
Redmi
passing
Lal
execution
300
materials
litre
kg
TV
whom
testimony
violation
imposed
competent
guilty
Hindi
address
Mahindra
sum
American
becomes
##l
entry
East
subsequent
century
##y
institutions
lodged
##t
Assam
sister
London
pointed
Assistant
Also
Exchange
wicket
returned
scale
moved
regular
context
rape
served
false
roles
Village
approach
respective
hands
quality
Indies
establish
bid
parents
tender
directions
room
accident
Tax
prosecutrix
Sessions
Jharkhand
Nagar
fair
Sensex
heavy
developed
55
believe
33
argued
daily
2001
disease
pressure
League
confirmed
Gupta
Single
owned
Road
base
experience
impact
ex
diesel
Sanjay
design
response
search
##ly
Affairs
amendment
don
1996
Health
option
merit
34
music
terrorists
takes
talks
prime
AIR
Annexure
examine
objection
gas
source
correct
liability
Besides
target
And
priced
Defence
Inspector
teams
session
employment
border
rather
Janata
care
fast
English
Similarly
ministry
arrived
pre
Instagram
normal
Executive
battery
industrial
Appeal
resolution
Writ
Petition
fine
##o
innings
promotion
tournament
live
Smt
options
Two
example
anti
discussion
preferred
research
supported
balance
love
noticed
remaining
disposed
suicide
Clause
religious
Service
probe
wrong
anything
Indians
card
handed
setting
ball
estimated
36
themselves
Accordingly
little
space
informant
permitted
Services
drawn
Learned
instead
explanation
wide
providing
significant
Suzuki
rendered
proof
girl
joined
valid
purchase
terror
worked
City
punishment
Bharat
Bombay
rest
statute
rose
wanted
allow
manufacturing
sustained
raise
Election
responsible
kind
petrol
fully
majority
Governor
latest
receipt
published
secretary
fee
Office
ready
resident
2nd
campaign
famous
seek
problem
Bachchan
Former
Railway
coal
running
segment
proposal
USD
purchased
Institute
keeping
revision
votes
brand
infrastructure
1999
exchange
enough
Shiv
cities
device
initial
sell
##m
42
military
400
mean
insurance
marks
trading
pm
##er
biggest
round
internal
poor
wrote
44
appeared
turned
Anil
How
visited
managing
attention
birth
37
finance
player
scope
Other
relation
adopted
lands
argument
until
administration
apart
representation
energy
expression
ordered
specified
goes
News
create
selling
1998
Control
Investigating
star
imprisonment
Budget
groups
refused
purposes
Vice
convicted
introduced
Rao
writing
compliance
Case
covered
self
institution
yesterday
DNA
offers
de
married
Odisha
character
ICICI
lease
opened
study
assessee
T20
index
Steel
shot
39
really
exercised
65
Panchayat
declined
north
happened
turn
appeals
Business
Note
penalty
ratio
facie
completely
personnel
Collector
career
mere
thereby
began
initiated
Procedure
jail
paper
population
online
Nath
portion
railway
UP
Motors
judgments
numbers
accept
evening
couple
transaction
elected
plaint
Jain
licence
protection
minutes
sensor
deposit
residence
retail
CEO
existence
Krishna
addressed
consent
risk
fight
ought
attempt
physical
changes
violence
although
efforts
practice
scored
Registrar
Industries
described
Ahmedabad
bill
centre
stop
pension
recruitment
schedule
Management
Reserve
1995
47
events
levels
maximum
bus
Scheme
effective
perusal
bound
south
active
colour
fit
Prakash
minor
settlement
black
injunction
training
carrying
balls
reliance
CM
something
charged
substantial
Force
function
revealed
inter
Here
allegation
overall
check
strike
38
satisfied
successful
reduced
staff
suffered
communication
administrative
collected
panel
Honda
cover
stating
disputed
schools
Co
living
war
submissions
Another
essential
carry
BSE
recording
HD
agricultural
beat
investigating
programme
job
3rd
Telangana
Revenue
houses
starting
Muslim
auction
heart
opposition
51
Rajya
confidence
directly
prima
technical
young
Rajnath
trying
reading
disclosed
governments
hard
customers
Award
Bharatiya
growing
failure
batsman
Park
bench
Watch
driver
observations
marked
##h
picture
urged
basic
believed
facilities
thing
transferred
listed
screen
Cabinet
tour
49
1997
duly
Many
born
Ajay
punishable
rupee
changed
feel
lives
operating
premium
problems
43
core
Appellate
partnership
spread
Pune
movement
Standard
formed
inflation
processor
150
Research
Sunil
actually
standard
Kejriwal
buy
Security
via
Before
answer
victory
oral
concluded
connected
requires
Lucknow
iPhone
Japan
strength
employer
corporate
indicated
Ashok
HDFC
degree
Arun
error
vice
winning
Goa
duties
1994
completion
difference
doctor
Manmohan
advocate
acts
maintain
sides
GST
ministers
quoted
Penal
permanent
##u
loans
gives
Super
coach
41
Exhibit
intended
Pandey
conferred
Chandra
actual
demanded
salary
train
IT
maintained
sanction
exports
engaged
Most
standing
Although
deemed
aspects
dealing
subsequently
aircraft
motorcycle
prayer
Galaxy
Thakur
skipper
challenging
signature
burden
shop
Principal
attended
approached
determined
fraud
Ext
activity
Bengaluru
fans
Asian
Foreign
Sena
feature
users
Class
rally
step
pleaded
52
judge
requested
Reddy
discharge
evident
bad
Trump
sports
planning
trust
factors
holds
Land
guidelines
coronavirus
discretion
Tendulkar
detailed
eligible
steel
constructed
success
rural
proviso
measures
retirement
Arvind
presented
defined
needed
wants
Last
bodies
merits
environment
objections
adverse
Sinha
remedy
grew
disciplinary
focus
require
website
returns
rent
structure
assaulted
limit
crores
Fund
Snapdragon
lack
equal
prevent
page
starts
managed
delivery
finally
Akshay
detention
Municipal
Sachin
breach
corruption
unable
UK
peace
Once
begin
46
Ms
SUV
ruled
800
fifth
access
mandatory
enter
score
ten
Mishra
constituency
double
refer
Afghanistan
Android
silver
600
Our
iron
simple
banking
continues
amounts
arbitrator
sense
beginning
explained
thought
responsibility
tourists
arise
collection
generally
sexual
Society
encounter
interference
analysis
tonne
partner
Banerjee
54
facility
Her
##A
dollar
revised
definition
patients
aware
aggrieved
Moreover
usually
games
conspiracy
white
validity
Royal
substance
sitting
rightly
Report
bearing
beautiful
debut
decline
follow
claimant
GDP
firms
corresponding
pictures
relations
York
forms
none
feet
Appellant
quashed
reads
Amitabh
receive
investments
alternative
Russia
network
proceed
powered
notes
suggested
constituted
SBI
Washington
##0
Uttarakhand
Labour
interfere
electric
Anand
People
##pur
removed
interview
press
conference
Judicial
qualification
mention
granting
showed
join
interpretation
style
53
politics
Insurance
fundamental
college
performed
prayed
##an
articles
showing
advanced
contest
85
agriculture
arguments
increasing
possibility
travel
plants
protest
importance
limitation
America
box
128GB
Games
modern
preliminary
deals
Mohammad
Priyanka
2021
Himachal
currency
friends
rival
European
applicants
safety
1992
##es
Twitter
falls
highly
Ahmed
Dhawan
justified
type
1993
raising
stone
assistance
patient
views
Das
Industrial
export
properly
Among
Evidence
concept
Auto
secured
grow
middle
Today
indicate
method
Bharti
Jaitley
distribution
apex
airport
offering
advertisement
legislature
determination
pursuant
Managing
OnePlus
suggestion
initially
constitutional
expenditure
marketing
facing
99
claiming
families
headed
stocks
ancient
crisis
killing
associated
cars
250
seizure
transactions
belonging
arbitrary
attend
legislation
recommended
selected
guilt
television
cancelled
Bhatt
citizens
sugar
negative
Income
Sonia
ongoing
58
fuel
ruling
principal
leadership
calls
##al
save
suspension
red
mainly
size
survey
Nepal
platform
Stock
mAh
army
controversy
proceeded
requirements
attacks
friend
MLAs
issuance
maintenance
obligation
Samsung
bilateral
register
expect
student
dropped
pleadings
educational
owners
Europe
venture
vacancies
liberty
books
throughout
Their
megapixel
56
Shankar
forest
teachers
estate
Application
Ors
vote
maintainable
potential
larger
truth
amended
gross
park
revenues
Jagran
concern
My
Rai
helped
terrorism
seems
causing
let
rain
establishment
interested
consumer
villages
extremely
happy
reservation
chance
understand
batting
papers
witnessed
reduce
reporters
leaving
lying
route
Bajaj
dedicated
sectors
deficit
IST
John
perform
squad
items
soldiers
Ravi
Rukh
spokesperson
hour
regards
affairs
deposited
servant
Regulations
competition
Rajesh
background
nomination
Railways
default
Kings
felt
Govt
Realme
Chidambaram
culture
##2
1991
Information
labour
questioned
alliance
assault
dismissal
recommendations
57
acting
Mukherjee
import
issuing
Then
acquittal
complex
motive
multiple
track
##1
agencies
avoid
cognizance
occurred
expenses
II
terrorist
Premier
External
Verma
generation
contentions
east
improve
retired
finds
calling
thousand
functions
send
scene
transport
##ra
arising
Singapore
Motor
immediate
vested
Raja
##k
Women
consumption
Schedule
missing
67
700
constitute
Srinagar
foundation
lies
Amazon
discuss
Olympic
festival
payable
Qualcomm
telecom
variants
advance
traditional
Shukla
cited
sentenced
Having
Manager
moment
Over
factual
Suresh
drug
4th
sections
More
green
invest
poll
delivered
host
indicates
watch
Trust
disputes
progress
art
division
clothes
adding
pain
##5
Australian
Chopra
guarantee
suspended
rains
totally
crop
receiving
David
Sports
whereby
schemes
temples
termination
tested
Financial
Investigation
electricity
protect
Later
Stadium
Oil
##4
Deepika
Hyundai
determine
hope
72
letters
Three
affect
birthday
litigation
Olympics
certainly
species
allowing
cheque
scam
Science
dealt
invited
block
systems
directing
sometimes
1988
Technology
mid
59
Roy
happen
ban
voice
63
besides
floor
virtue
spent
Block
Despite
Where
nos
sea
celebrated
implementation
mining
##3
acres
95
choice
founder
concerns
temporary
Accused
NSE
acted
apparent
circumstance
tenure
extend
Ramesh
Ministers
professional
advantage
contents
earnings
monthly
latter
medium
cast
notified
weight
Nitish
threat
Rajiv
categories
seniority
freedom
tests
Economic
presumption
allotted
asking
budget
damage
extension
Trophy
norms
interests
partition
aid
tomorrow
Actor
defeat
models
gained
Desk
anniversary
Only
falling
tenant
Sharif
sound
allotment
ceremony
crucial
headquarters
west
payments
SP
attached
Black
attacked
shooting
enable
filled
stopped
Chand
individuals
achieve
instructions
##ya
62
eyes
acquitted
Currently
moving
sharing
memo
permit
arises
ordinary
sample
Capital
speaking
##7
1989
quantity
song
bar
portfolio
achieved
hereby
Pvt
mortem
becoming
slated
Chandigarh
referring
try
Regulation
absolutely
herself
plot
Jaipur
Superintendent
regional
tribunal
safe
reserved
dying
legislative
defeated
France
margin
chain
Kareena
feels
door
organised
##8
Arjun
T20I
spectrum
Express
MLA
66
longer
PTI
commerce
flat
Agreement
equipment
extra
involving
French
passengers
Not
edition
weapon
8GB
NDA
manufacturer
AAP
suggest
Mahendra
sole
River
female
arm
identification
permissible
disposal
residential
opposed
Valley
discharged
disclose
weapons
Allahabad
CPC
Muslims
experts
White
holder
lake
criteria
eastern
employed
nuclear
build
ends
Kovind
break
influence
operative
drive
mental
anyone
Mohan
massive
69
bringing
Transport
sanctioned
trains
western
binding
Engineer
traffic
128
Bureau
Head
easy
wages
temperature
Swaraj
length
paying
urban
UPA
speech
cards
imports
roads
61
Price
excess
gain
##S
medal
rising
profits
serve
Entertainment
Flipkart
Global
##6
draft
participate
reality
strategy
Mohammed
accompanied
expert
notices
rupees
dance
meant
120
cricketer
fixing
resulted
hostile
idea
driving
channel
clean
deciding
contracts
King
Vivo
armed
cold
Dev
Shiva
Why
exercising
else
68
Advani
passenger
constituencies
draw
removal
dual
earned
troops
bowling
operate
Private
dates
meetings
digital
losses
Airtel
pendency
Amendment
83
Arbitrator
conducting
resources
Alia
ways
Telugu
Team
departmental
wholly
ad
amongst
disclosure
memory
mode
1990
Food
primarily
maker
rainfall
Raipur
Ranveer
Kapil
Zee
contain
Korea
dues
74
contribution
deep
message
abuse
hotel
Mamata
adjudication
mutual
types
Is
dowry
remarks
Several
effort
sign
900
Joint
add
reiterated
damages
represented
Consequently
companys
degrees
nearby
gains
kill
Scheduled
debate
estimates
involvement
Post
scrutiny
73
easily
setup
6GB
identity
Companies
satisfaction
termed
doctors
liquor
About
contains
detail
Securities
critical
Obama
caught
journey
location
seeing
secure
bear
exclusive
UN
deaths
sons
Karan
talk
agree
categorically
fired
Japanese
milk
Recently
kilometres
multi
youth
figures
lines
developing
prejudice
sharp
sealed
Article
##na
documentary
hear
participated
simply
supplied
Assessee
Manoj
soil
ultimately
caste
##9
partners
viz
looked
putting
125
commit
leaves
alia
discount
medicine
voters
verdict
cancellation
diseases
policies
Russian
Abdul
invested
1956
qualified
undertaken
percentage
firing
table
observation
express
vis
Islamabad
creating
examining
absolute
trend
Second
union
supporting
stipulated
Rio
formal
78
everyone
faced
promoted
regulations
touch
Gold
religion
Every
Full
Smith
cooperation
warrant
Respondents
contempt
stayed
deserves
benchmark
cancer
necessarily
victims
academic
undertaking
##on
List
battle
understood
suffering
band
speak
visiting
Iran
designed
figure
##L
Gautam
forced
weak
Best
Due
consequence
regions
consumers
recommendation
northern
leg
output
Ranbir
colleges
Guru
appointments
lakhs
performing
southern
standards
amid
buying
thereto
happens
expansion
Indore
science
containing
consequences
stations
appearance
comment
cultural
Islamic
Sebi
volume
arbitral
subsidiary
theory
71
consistent
engineering
hereinafter
limits
obtaining
refers
Tests
approximately
1984
chemical
picked
faith
planned
skin
Max
adequate
bought
triple
animals
greater
seeks
factor
struck
Family
Google
Hero
manager
paragraphs
Narayan
demanding
association
capable
Life
fees
valuation
monsoon
Any
Western
bat
resulting
##C
discussions
residing
understanding
Crime
sq
Ashwin
BSP
proposition
undergo
admittedly
agreements
combined
demands
article
reveals
opportunities
Jadeja
asset
develop
formation
license
explain
Let
semi
finished
Ka
equipped
subjected
Agarwal
Because
War
Policy
ODIs
tourist
Aditya
barred
bonds
minority
producer
jobs
mostly
Apple
Dinesh
lowest
sure
##la
directors
Tiwari
ties
1973
990
JD
PW1
availability
brothers
unique
assigned
Open
ask
neck
void
Orissa
cadre
deposition
flood
Ravindra
announcement
Swami
claimants
elements
allocation
tell
Notification
distinction
classes
Blue
upto
answered
representatives
contractor
pertaining
piece
enjoy
recognized
resignation
God
al
begins
improved
rejection
grown
weather
projected
factory
Following
Naidu
auto
alongwith
clarified
compassionate
height
incidents
severe
variety
##ri
contemplated
farm
furnished
languages
Abhishek
Whether
lockdown
averments
drop
producing
certified
quota
square
Non
powerful
serving
levy
withdrawn
76
instrument
tweeted
##ar
assured
committing
judgement
ones
Donald
Dubai
deposits
plus
didn
appreciation
comments
illegality
remove
vacant
advised
MD
threatened
toll
XI
cruelty
welfare
teacher
content
Metro
actions
shifted
user
bowlers
spoke
German
applying
polling
shareholders
signatures
exception
external
plays
Excise
analysts
fort
lawyer
objective
NCP
abroad
compromise
exist
newly
rice
buildings
drugs
emerged
wheat
77
Coal
copies
upheld
testing
trees
bowler
workman
Year
doctrine
obtain
Noida
Opposition
YEARS
implemented
Provided
Out
tea
construed
reaching
Sushma
looks
centres
exemption
ability
harassment
beauty
Varanasi
mandate
nations
Line
functioning
stories
Pawar
contend
fear
metres
Prosecutor
adduced
Dal
reliable
workmen
84
Resident
ore
12th
Directors
THE
oath
upper
rich
motor
newspaper
5th
girls
Dutt
Those
frame
Madras
countrys
measure
Sara
acceptance
entertainment
rescue
10th
350
Directorate
RSS
Aamir
Bai
conflict
Al
sixth
Town
branch
Facebook
complaints
publication
Arbitration
prominent
selfie
someone
Mw
broke
recover
1987
cap
organisation
pace
suggests
whatever
Deepak
Articles
DW
Axis
territory
institute
relates
suffer
Others
flight
ED
ministerial
MPs
challenges
strategic
channels
decades
govt
sets
songs
wake
Agriculture
Ayodhya
Infosys
Pandya
Launch
rank
81
96
lay
92
Arora
hereinabove
straight
Star
raw
98
chosen
Federation
originally
reduction
circular
representative
zone
Agency
Speaking
ownership
university
voting
wedding
arrangement
Samajwadi
MS
Red
everything
honour
Joshi
Ladakh
withdrawal
Pal
identify
cotton
monetary
avail
entering
divided
governed
normally
twice
97
Sales
Sun
Judgment
airline
flow
province
grievance
Rhea
Chakraborty
Trade
82
healthy
industries
Actress
awards
boy
comprising
empowered
spoken
mistake
incorporated
shape
Imran
automatic
historic
mixed
computer
contesting
software
smartphones
RJD
actors
Ranchi
equally
losing
Judges
Sushil
blue
bond
linked
CPI
brief
inasmuch
##ness
Officers
arms
fields
wall
charging
code
successfully
Padukone
controlled
NO
lose
vital
Germany
79
promote
bag
appreciated
package
driven
reportedly
Ganguly
Islam
cell
historical
Ajit
summit
Mukesh
aged
conversation
Hindustan
transmission
seal
wish
1986
Bhopal
Chaudhary
participation
quarters
attract
instituted
leads
panchayat
fake
peak
tough
##g
89
Manish
makers
Rakesh
consecutive
hike
Varun
constitution
fails
samples
program
Kanpur
Plus
ignored
showroom
willing
Vikas
Branch
Do
NIA
fide
waiting
Airport
crude
quashing
solution
##I
appoint
bit
founded
Ford
knife
cheques
inference
relatives
alleging
falsely
crossed
Lake
knew
separately
teaching
arrive
devotees
singer
taxes
Canada
motion
reforms
Pulwama
goal
suitable
86
Ambani
Mehta
format
ft
inquest
##ji
causes
crops
definitely
inherent
requisite
campus
distinct
strongly
previously
91
HC
boost
enforcement
gang
batsmen
fighting
gap
inaugurated
manual
modified
sustainable
Survey
determining
image
IAF
club
framing
inspection
Republic
WP
underway
villagers
infection
annum
AM
restricted
spirit
Muhammad
margins
estimate
pandemic
94
citizen
male
Raju
confession
eligibility
entries
87
intent
misconduct
creation
cum
hundred
octa
strictly
extracted
holders
younger
returning
internet
##ni
Energy
Nehru
RIL
entertain
port
##ia
Jio
Part
Pranab
task
Commerce
III
Kumari
entity
Lahore
Yogi
hill
changing
grand
Commercial
Plan
comparison
eventually
legally
ve
banned
positions
climate
Chapter
Member
commencement
rail
##ta
Project
smaller
deduction
narrated
turnover
decade
Series
shock
surface
audience
outstanding
Planning
Manohar
Para
African
Dist
contractual
depend
fallen
th
Forest
bills
deployed
JNU
Legislature
1961
enacted
expiry
ingredients
negligence
studies
whatsoever
rare
Vodafone
contested
continuing
regulator
##E
corporation
centuries
cells
Petitioners
expanded
numerous
commenced
Grand
race
starrer
suspicion
sites
center
Bengali
Sections
Vishnu
gearbox
terminated
Selection
businesses
nominated
particulars
shops
specifications
virus
Credit
Nitin
Welfare
alive
emerging
opener
surrounding
depending
substantive
Street
heads
ill
museum
Prices
prayers
Launched
blow
brands
drama
pivotal
summons
Film
attracted
agent
flights
restrictions
Constable
Industry
Kuldeep
gun
residents
Puri
author
stores
council
deeds
increases
overseas
Saif
contact
Certificate
Sharad
entities
PO
improvement
protests
conscious
grade
jointly
subsidy
88
TCS
batch
depends
featured
ranked
aim
arose
customer
regularly
asserted
entirely
relative
##in
Indo
Man
likes
wound
##man
Taking
consists
democracy
Each
installed
probably
Ganga
cabinet
forum
opined
Asked
intelligence
Engineering
brain
effects
bids
delayed
mission
parliamentary
Standing
tobacco
Malik
Guwahati
postmortem
vaccine
##R
recognised
regime
secondary
1985
Suit
Gopal
classification
continuous
perspective
tune
Chris
Secondary
St
coupled
courses
element
Diwali
Shikhar
occur
Mahesh
operators
sport
stomach
seriously
Mahatma
link
Champions
DELHI
housing
largely
Goyal
Fort
delegation
spend
NEW
futures
camp
photographs
purchaser
110
alias
architecture
broad
forwarded
strict
Administration
admissible
appreciate
93
Thackeray
Toyota
accepting
operational
Sandeep
Birla
electronic
withdraw
joining
objects
##bhai
occurs
Defendant
Shahid
competitive
##ers
Telecom
execute
plain
trillion
##ka
Reference
deliver
CRPF
bronze
methods
pollution
offices
uncle
invoked
scientific
Housing
Parliamentary
controversial
quintal
riots
4GB
advice
dry
tied
hectares
mountain
Five
files
enactment
passage
##us
Assessing
James
birds
identical
mouth
significance
BMW
clash
occasions
Summit
circumstantial
demise
Sh
choose
satisfy
traders
widely
Page
Rajendra
organization
regarded
representing
Nawaz
acquire
talking
uses
Pawan
Anushka
feeling
Banks
hospitals
protected
row
unknown
equivalent
incurred
minute
Edition
Top
heat
king
gathered
spite
origin
Mandal
elder
Doctor
Rana
sending
1983
depth
doesn
14th
Four
declare
rivers
situations
convict
prepare
winner
Eastern
belief
island
ticket
Shetty
store
wins
##ng
Highlights
believes
consolidated
differences
grams
tree
ultra
##T
Late
Sidharth
phones
relying
visitors
Sec
foot
obligations
preparation
unveiled
sit
violated
Bhushan
Patil
acceptable
chest
grave
militants
Media
judges
ran
Through
shrine
collect
metal
Times
spinner
Baba
reflected
cinema
angle
titled
Petroleum
erroneous
immovable
Administrative
Celsius
Human
authorized
confirmation
bed
Enquiry
Internet
Nirmala
Schools
institutional
Infrastructure
commitment
municipal
priority
imported
learnt
wait
Speaker
Upon
raped
replaced
thousands
Car
Divisional
impose
kinds
quash
rushed
volumes
manufacture
statue
Hardik
Rural
radio
Talking
Tech
heirs
hot
ascertain
supports
1000
Akhilesh
Are
amendments
exists
remand
1982
Kaur
waste
Admittedly
authorised
color
enhanced
exit
fruits
##ha
Higher
Xiaomi
annually
investigate
useful
7th
Considering
sudden
15th
CrPC
Mission
Nations
audit
funding
pursuance
Academy
Royals
jewellery
questioning
videos
spending
Session
Chancellor
photo
##am
Sea
quantum
truck
1980
Ahead
departments
resolve
clauses
fighter
suspected
1981
LED
emergency
measuring
Jail
counting
Calcutta
Hussain
Jet
Mallya
earning
voluntary
Settlement
legitimate
landlord
shift
typically
bridge
illegally
reliefs
slow
Adityanath
Warner
pick
significantly
stamp
vacancy
verification
wearing
PW2
Steve
hair
Junior
cogent
recognition
viral
Hasan
Sitharaman
Subsequently
maintaining
OF
cement
cycle
genuine
levelled
lie
ordinarily
reputation
beneficial
bowled
deputy
Foundation
attributed
closely
manufacturers
resolved
Vinod
perhaps
alongside
membership
remember
symptoms
1971
daughters
mechanism
wishes
Gadkari
busy
murdered
Mobile
lapse
##ma
chipset
starred
64GB
era
impression
retained
supposed
blast
item
Johar
carefully
dealer
map
prevailing
worst
arrangements
path
##P
Italy
Rama
memorandum
qualifications
##da
Michael
comply
covering
indicating
##b
Water
Green
Navy
belongs
reveal
governance
Market
Plaintiff
Surat
attempts
furnish
forth
perverse
wealth
allows
investor
complied
danger
spokesman
addressing
dialogue
resigned
ONGC
Urban
quarrel
stable
Legislative
booked
manufactured
regulation
repeated
sessions
visible
Big
agenda
proceeds
consequently
inflicted
reproduced
select
Church
bidder
refund
370
confined
territorial
##li
cleared
gift
regulatory
##en
Malaysia
diary
franchise
implement
independence
partly
summer
warning
Club
PS
Sahib
careful
escape
expects
impossible
seeds
palace
Along
Sikh
Son
corroborated
incorrect
##ur
AO
Rishi
Sanskrit
machine
solar
Om
Around
Hotel
Democratic
Sindhu
pertinent
resistance
Indonesia
Kamal
Pay
converted
evaluation
programmes
veteran
Authorities
convenience
vegetables
FDI
description
fairly
stages
promoter
##te
Brazil
Nagpur
obviously
Supra
applies
baby
rooms
##M
Indira
Saudi
fitness
kms
considerations
denial
tourism
travelling
KL
Mohd
blocks
football
whenever
##th
11th
Chauhan
Organisation
beating
Date
assessed
promise
ambit
disability
Pacific
acid
flows
Lakh
borne
composed
Details
arrears
indeed
similarly
valley
lodging
Shankaracharya
coast
considerable
episode
surgery
backdrop
entrance
mills
unreasonable
winding
Durga
ending
initiative
omission
covers
designated
staying
Hindus
consultation
excluded
expectations
failing
highway
earliest
entertained
exclusively
subordinate
tank
Distt
broken
touched
wage
Agra
Be
Kangana
characters
innocent
machinery
preparing
se
meets
Awards
passes
proving
31st
Right
micro
producers
Britain
Professor
completing
consequential
lady
Ahmad
Entry
Sheikh
TVS
dependent
organisations
thinking
valued
Ranjan
Mercedes
##D
180
Official
discrimination
roll
Breaking
Rashtriya
necessity
##able
Pratap
pro
write
Mandir
medicines
tweet
winter
Shinde
detained
locations
Investment
obvious
relaxation
surrender
##kar
Jai
mortgage
sex
worship
album
parent
rejecting
20th
beaten
owing
risen
summoned
tie
literature
occupied
fail
inform
scenario
intervention
Kingdom
commence
eviction
suits
K20
forthwith
happening
rock
communicated
interesting
Zone
attraction
boys
yield
Independence
governing
initiate
valuable
Gas
drawing
pair
Electricity
bomb
commodity
MG
engines
participating
IV
Roshan
electoral
peaceful
proposals
relatively
retrospective
thereon
Dubey
Great
Italian
aimed
clearance
commonly
rating
cutting
perused
Prevention
drinking
reducing
dangerous
unbeaten
Ji
PC
Rajan
discovered
handle
hoc
involves
promised
visa
Arunachal
Registration
Social
attending
league
Acquisition
burnt
excise
garden
hundreds
##le
17th
NCR
Regional
Anr
extreme
giant
irrespective
superior
branches
farming
fatal
render
Being
belonged
outcome
A1
app
Urdu
fault
possesses
smart
stones
thereunder
tradition
6th
Kishore
continuously
contributed
doubtful
pattern
quickly
seem
seventh
suggestions
##hi
movies
Airways
George
Ke
fill
invoking
keeps
Pradhan
attorney
forecast
rankings
8th
introduce
Bumrah
chargesheet
destination
destroyed
inclined
represent
targeted
buyers
count
alcohol
tickets
##p
13th
Ireland
effected
marry
transportation
Amar
finals
operated
Alliance
devices
Airlines
Devendra
knows
observe
Palace
afternoon
formula
processing
animal
conclude
confident
rely
buses
floods
Elections
Metropolitan
Pension
brings
communities
mated
sixes
Port
contraband
mines
scoring
Tiger
expand
tells
##ti
Rani
Yuvraj
combination
forests
contradictions
incriminating
replied
reserve
learn
Ghosh
Knight
Rajeev
Shimla
expired
RCB
bidders
hits
infirmity
writer
appealed
duo
telephone
wheeler
pleading
Akhtar
Paul
calendar
earth
manage
Till
bona
church
influenced
signs
substantially
notwithstanding
retain
treat
Championship
Rawat
defend
finger
Gurgaon
difficulty
boundaries
bribe
environmental
mm
practices
Beijing
Jadhav
Just
effectively
imposition
16th
Lalu
Sardar
Sources
fashion
vitiated
Highway
PWs
Pujara
vision
regularization
slightly
exceptional
quit
Total
occupation
Challengers
Like
Spain
backed
belong
cricketers
hosts
presently
values
Recovery
inviting
lending
licences
Members
coalition
savings
axe
140
mt
recall
reject
Twenty20
eating
walls
Earth
appointing
assumed
earn
establishing
heavily
procurement
sensitive
assist
derived
entrusted
expressly
generated
processes
9th
IIT
rigorous
treating
unfair
wrongly
learning
railways
Aam
Champaran
Form
admissions
admit
expecting
irrigation
placing
strengthen
##B
130
USA
justification
Umesh
creditors
poverty
rallies
skills
ABOUT
envisaged
insurer
mass
surrounded
के
##z
160
Anti
ROAD
pleased
Conference
Expo
ensuring
globally
adjourned
comprehensive
560
Karachi
investigated
worldwide
atmosphere
boundary
certificates
improving
helps
hopes
satellite
arrival
reverse
Desai
colours
implicated
procedural
provisional
Major
SMS
exchanges
promoters
Attorney
CBSE
Kotak
equality
1976
BS
affidavits
lived
push
begun
communal
stained
warned
Technical
counterpart
renewal
extending
forged
remanded
30th
Sen
TMC
amounting
laundering
personally
Based
aims
apparently
chose
experienced
incumbent
Kannada
Sunrisers
imposing
Protection
Yes
applicability
forthcoming
stability
undue
750
instruments
pieces
Festival
Musharraf
Prakhand
Sudhir
erstwhile
essentially
##rs
Heavy
bigger
client
qualifying
Enforcement
Goddess
Subhash
alert
compete
slowdown
studied
2022
Northern
comprises
expensive
reaches
AMOLED
Show
finish
lifted
Devgn
settle
speaks
Contract
Korean
components
divorce
trip
Anurag
aforementioned
merger
presumed
concerning
fastest
reasoning
650
closing
adoption
hardly
mosque
Time
bagged
behaviour
permits
superstar
adds
correctness
serial
##O
KKR
Ki
attempted
denying
forming
investing
roof
sort
Lankan
cognizable
medals
seed
testator
IMD
Master
Notice
Shami
extract
fought
shut
DMK
barrel
cashback
extensive
Sir
Hong
invalid
lens
repeatedly
18th
champion
damaged
reasonably
street
trailer
BSNL
System
consensus
followers
onwards
Adv
LoC
Manipur
Thailand
criticism
deity
refusal
stadium
Live
closure
super
Christian
Enterprises
PDD
blasts
cr
solely
Captain
Ganesh
booking
chaired
dream
faces
facilitate
hotels
kerosene
narrow
sun
wild
##ic
Furthermore
Srinivasan
discovery
maiden
operates
theatres
thrown
FSL
adopt
luxury
scooter
wave
LPG
purchasing
rivals
BS6
analyst
domain
engagement
web
##N
clarification
desire
introduction
meters
paise
versus
Amid
Arabia
celebrations
fan
sleep
Bhawan
pricing
registering
Bahadur
admits
##di
1972
connect
frequently
vendor
attained
hockey
Pak
Taliban
farmer
justify
watching
Khanna
prison
Dilip
audio
segments
sight
awaited
coastal
extraordinary
produces
proud
supplementary
utility
cylinder
fingerprint
missile
owns
respond
rounder
servants
hills
Gram
Nokia
Sr
reviewed
Rights
annexed
goals
quad
quo
structures
##F
##is
attractive
interpreted
legend
Cross
Shastri
recalled
virtually
Essar
Space
Syria
consisting
corroboration
Pandit
compulsory
focused
trained
towns
Mahto
NSEL
Thomas
creditor
integrated
irregularities
pressed
text
Paswan
fulfilled
launches
UAE
profile
specs
tension
tribute
##c
Consumer
Start
allocated
cameras
caution
fix
ideal
reserves
restriction
##or
Barack
Review
Riders
Taal
Venkaiah
implication
snow
wind
CSK
EMI
Rahane
arisen
subjects
tariff
Katrina
Museum
creates
hosted
knock
tribal
unlawful
Bihari
knowing
purely
stress
Nissan
announce
hurt
junior
oldest
Abdullah
Irani
Jodhpur
Kabir
Resolution
distributed
supporters
surprise
Bansal
Whereas
corrupt
novel
plastic
qualify
routes
succeed
talked
21st
22nd
Aadmi
Atal
bags
emphasis
jumped
launching
specially
Sikkim
Sons
automatically
possibly
sleeping
assuming
fever
helmed
insisted
possess
presidential
warm
Your
governor
450
ceasefire
contribute
unlimited
Sector
fled
instances
Left
NCB
Pant
Tripathi
erred
monitoring
neighbouring
welcome
Kong
tenancy
celebrate
credibility
expectation
praised
represents
2G
complained
parameters
politician
requiring
answers
idol
secret
sugarcane
sworn
Ghaziabad
Instead
Unit
twin
ITC
Mysore
Shyam
carrier
efficiency
hall
Queen
Thok
burning
deprived
duration
performances
preceding
Bhubaneswar
Letters
Syed
bare
conveyed
crimes
resort
Index
Vajpayee
dismissing
reporting
Ansari
Ashish
Soon
VAT
Vigilance
assessing
dividend
CR
bowl
handling
jump
newspapers
scientists
strikes
Addl
allowance
matrimonial
Pathankot
journalist
Raina
homes
mala
modification
mountains
256
Corruption
Estate
Natural
champions
phases
##ism
Anna
Meteorological
SIT
dt
enhance
excellent
operator
Rahman
census
clients
deny
irregularity
root
Region
friendly
parade
patent
pilgrims
purview
conclusions
trouble
Gaya
Shraddha
consortium
deliberately
endorsement
inspired
##ne
maintainability
tendered
Helio
Morning
exactly
parking
Highways
Mayawati
None
anticipatory
contends
declaring
hitting
inconsistent
lender
precedent
unfortunate
Mitchell
contrast
dispose
native
officially
1979
Next
Rashid
chances
flagship
pool
Again
Pankaj
accommodation
bone
camps
holy
19th
administered
anywhere
delinquent
flowers
prohibited
Robert
Trinamool
bears
crowd
Azad
airlines
burn
intercourse
laying
pulled
105
Amritsar
CD
awarding
5G
Rafale
negotiations
posting
Body
Staff
confer
democratic
gate
108
Abu
exact
exhibited
organized
pointing
securities
##ch
Arab
Old
bye
commodities
dark
doubts
executing
magazine
master
Afghan
demonstrate
doubles
perfect
silent
suspicious
venue
Naik
Sale
levied
programs
Javadekar
lesser
plane
pure
sand
underlying
Border
Meeting
Morgan
inclusion
pistol
presentation
ship
Bhavan
Bhuvneshwar
Hazare
IPO
Parrikar
activist
advertising
beneficiaries
liabilities
quick
Commonwealth
Jawaharlal
Malhotra
Marathi
Mark
lenders
successor
helping
vessel
1978
anybody
examinations
Babu
Israel
Match
Piyush
Sunny
promoting
qua
spotted
universities
##x
Kingfisher
connectivity
revisional
bottle
defect
hanging
lock
satisfactory
##ry
Center
athletes
encourage
Aishwarya
SoC
developments
discipline
highlighted
undertake
viewed
Employees
Greater
Punjabi
ST
Societies
Tripura
deserve
discretionary
organizations
petroleum
Gwalior
efficient
exposure
interrogation
reaction
Jayalalithaa
royal
affirmed
dam
drink
Environment
Gambhir
Paris
bleeding
flag
household
stressed
Dravid
Vishal
remote
Arabic
classified
refuse
rounds
scales
simultaneously
AIIMS
Buddhist
Smriti
Technologies
cable
intra
Enfield
Jha
corner
interfered
securing
surplus
ABS
cultivation
fish
gram
images
nearest
pregnancy
##ity
lawyers
punished
singles
Examination
NTPC
Chahal
PW3
Range
borrower
integrity
saved
storm
Bazar
Patent
Customs
Dhaka
Garg
plots
shoot
undergoing
MediaTek
Original
Press
WhatsApp
stretch
welcomed
Statute
Video
accounting
citing
enforced
existed
walk
##sh
BSF
ISRO
Vadra
Who
Yet
arriving
awareness
confusion
pages
slammed
succeeded
transparent
Electric
aggressive
assailants
attitude
consistently
script
serves
paddy
versions
wing
filling
glass
trials
Hari
prohibition
worker
Mulayam
cancel
correctly
definite
filmmaker
liquid
relate
Memorial
UGC
meanwhile
ranking
scenes
enjoyed
outlook
reform
supplies
4G
Agricultural
Kaif
Sahara
affecting
constant
coverage
decides
Advisory
Bar
input
involve
reflect
shortage
spiritual
##um
Rail
See
ease
pushed
stream
1974
Ibrahim
agents
eat
equities
metro
scandal
teeth
voluntarily
Jasprit
Uddhav
bottom
finality
par
Jindal
acre
bidding
twenty
1975
Hrithik
PW4
Prem
Teacher
consumed
heading
searched
ultimate
Joe
appreciating
compelled
generate
zero
Jaish
Srivastava
campaigning
chart
moves
tenders
PIL
Saina
adjacent
ascertained
diplomatic
harm
sheets
substantiate
injustice
pilot
superannuation
tenants
499
Ranaut
Sony
assaulting
bike
childhood
Petrol
Small
dealers
Bluetooth
Choudhary
IPS
Persian
framework
physically
quasi
Sagar
assess
breaking
ideas
links
mega
receipts
##wa
Sanjeev
nominee
starring
sustain
Laboratory
Revision
attendance
diabetes
guest
prevented
sisters
suffers
momentum
Fadnavis
clock
column
combat
deficiency
disqualification
drivers
excessive
tally
101
enmity
talent
thumb
assurance
initiation
replace
104
Farmers
Mary
Satish
accorded
lawful
passport
##G
Aviation
CIT
Kochi
Radha
Works
acquiring
dont
excluding
irrelevant
targets
unlikely
JSW
Laxman
parte
sovereign
addresses
innocence
Explanation
Likewise
apprehended
signal
wise
1894
Lokpal
component
greatest
wear
Final
contending
designs
earthquake
exceeding
ornaments
representations
soft
Benz
screens
stick
Middle
Sehwag
Sultan
Bose
IOC
Local
Malayalam
Masjid
Regulatory
cheating
legs
onus
vast
violent
Gen
Shweta
Six
Without
associate
fruit
observing
turns
Advocates
LIC
Swamy
flowing
praying
split
Jagdish
graduate
inputs
preference
turning
exams
guidance
pitch
substitute
Island
compact
moral
platforms
remark
threats
Addressing
Circle
Kabaddi
MHz
Rajkot
Shroff
Volkswagen
affiliated
com
formally
investigations
locality
probability
AD
Charge
Forum
Idea
aviation
AGED
Leader
Santosh
Vivek
availed
calculated
drew
initiatives
nobody
sees
5000
constable
traded
verified
1962
Hanuman
Point
asks
fours
spots
AT
Area
DLF
Primary
Silver
conversion
guaranteed
pacer
sequence
violative
Nair
PMLA
Sciences
attachment
bulk
evidences
keen
machines
opted
Stop
empty
releasing
restored
toss
vendors
Gandhinagar
Jan
Melbourne
Muzaffarpur
Read
deliveries
mine
practical
submitting
Similar
usage
worlds
saving
25th
Nigam
Saraswati
Secondly
amend
invoke
Engineers
Forensic
Peter
apprehension
1970
ITAT
artists
solutions
1977
Ben
KTM
Lt
Muzaffarnagar
Roman
prefer
transparency
Parishad
nephew
paras
Card
Initially
Keeping
Referring
Third
motorcycles
successive
Neither
Promotion
automobile
cumulative
insofar
res
solid
Building
Kiran
PE
dismiss
flying
infringement
ll
loved
older
zones
Gill
Marketing
Ws
economies
lift
pregnant
Audi
Martin
die
popularity
rehabilitation
removing
risks
1963
Aurangabad
supervision
##v
Communications
Kartik
predicted
pursue
reflects
requesting
supremo
theme
ul
Pooja
exclusion
recourse
Darbhanga
Federal
Sourav
emerge
emotional
hatchback
lodge
meantime
offender
procedures
visits
MW
carved
emerges
folk
prospects
undergone
256GB
Circular
Dikshit
carbon
catch
faster
musical
scores
##j
115
Asif
Ratan
agitation
beach
##U
170
adjoining
judiciary
techniques
Bhutan
Chouhan
JP
Main
Nagaland
Zimbabwe
arranged
broadcast
communications
enterprises
Pleader
SHO
Sport
heritage
sake
sedan
trades
Covid
Intelligence
Legal
Mittal
Siddharth
financing
Appeals
Azhar
Deshhit
Front
Hill
Laxmi
Mahal
fellow
policemen
societies
yellow
##as
Against
Capitals
mail
pleas
resorted
Construction
Grade
Kailash
Ocean
airports
correction
load
municipality
sanctuary
usual
AK
Adani
Vikram
deadline
ride
shirt
taxation
##de
Kashyap
drought
odd
unnecessary
violations
##va
1947
restraining
Ravichandran
impressive
retire
##ment
Educational
Iraq
adversely
participants
की
Kanhaiya
gathering
photograph
routine
thinks
activists
enforce
kids
nowhere
thoughts
##war
De
Meghalaya
Memorandum
Sangh
command
condolences
counted
fray
illness
weekly
Afridi
Cases
Controller
Mandi
assistant
liquidity
pretty
Naresh
Turkey
cheaper
civilian
discharging
Renault
healthcare
releases
reviews
wholesale
BY
California
Iyer
Property
Tourists
classical
email
exam
hub
smooth
IAS
Ishant
Mrs
Students
factum
responded
trademark
Baroda
Los
Shakti
Tourism
Working
afresh
contravention
exhibit
philosophy
struggle
240
ASI
celebrating
discrepancies
festivals
legendary
shopping
advertisements
closer
intense
politicians
purported
shareholding
winners
Ajinkya
Narzo
Skoda
bullet
escaped
essence
28th
Cooperative
EV
assume
marginal
meal
possessed
है
##re
Institutions
Interest
Paragraph
conferencing
independently
managers
resume
riding
tennis
Wipro
crew
renowned
ring
uniform
##f
23rd
302
absent
backward
Mills
Prior
cane
coffee
detenue
electrical
inaugurate
integral
permitting
Islands
Lokayukta
Rishabh
hereunder
interaction
Deed
Netherlands
Teachers
YouTube
cousin
elaborate
medallist
missed
rejoinder
remembered
sidelines
Antony
Arms
Yamaha
borders
commissioner
enabling
magnitude
praise
Kishan
Leela
Ranji
Rent
cattle
cuts
ice
inserted
notifications
relevance
requisition
thirty
##ram
Bandra
Mother
adopting
contributions
onion
Net
enhancement
gratuity
humans
refusing
##ki
Appellants
Eid
Sai
editor
shoulder
territories
##ba
Ground
Mizoram
carries
contradiction
29th
Begum
Harish
Harsh
Maharaj
condemned
engage
formerly
separated
circles
detected
profession
Sugar
aided
arbitrariness
bailable
conclusive
myself
technique
varieties
##H
Santro
casual
considers
deadly
elevation
exported
subscribers
targeting
testatrix
Arbitral
Khurshid
Nation
ceiling
colleagues
favourable
federal
legality
reinstatement
safely
Hemant
PCB
Pharma
associates
comfortable
periods
unlike
MCX
Organization
accounted
diet
fare
girlfriend
infected
invitation
walking
Chartered
Looking
Online
Radio
Statement
institutes
interior
spin
vacated
vary
##tion
Inc
Institution
absorption
blamed
gradually
guard
meter
seconds
suspect
24th
ANI
Inquiry
Vadodara
abandoned
expanding
nominations
##garh
##ul
Disciplinary
Registry
assisted
golden
guide
indication
labourers
objected
sometime
tower
Holdings
consonance
fixation
fold
pipeline
premier
wheel
OS
artificial
beneficiary
privilege
repo
shed
touching
Iqbal
instruction
interlocutory
FC
Hollywood
Nothing
Pradeep
exceed
juice
query
window
Bay
Buddha
IDBI
Insofar
furtherance
shelter
shortly
shots
slipped
##ation
##sa
PNB
Yamuna
acknowledged
altogether
clinical
islands
landed
networks
peculiar
Analysts
Corp
Harbhajan
Thoughts
furnishing
neighbours
outfit
signing
singing
terminal
Direct
Kumble
affects
comedy
compound
devoid
statutes
succumbed
DD
Omar
confirm
debit
receives
regulate
replacement
wood
Angeles
Don
Kedarnath
Madan
Make
Merely
Raman
Retail
adjusted
chase
corridor
critics
millions
poet
weekend
##ge
Azam
Egypt
Padma
RS
Yojana
approaching
fate
ji
locked
144
151
Dehradun
Hall
Sahu
Spanish
mix
predecessor
tracks
wasn
Given
Hockey
Ordinance
Yoga
credited
restraint
studying
torque
102
avoided
guarantees
mutation
wheels
में
1966
continuation
decreed
defending
departure
indices
juncture
photos
prospective
sharply
travellers
vires
Corporate
Lecturer
Mufti
Samaj
cave
hectare
nexus
throw
Gulf
corpus
puts
shareholder
Amir
Mirza
Nanda
grain
instructed
lights
pilgrimage
27th
Clinton
Happy
Mann
Sy
affiliation
realised
Akbar
Vinay
Virender
rises
109
Asaram
Gazette
Real
mechanical
occurring
26th
Constitutional
Dutta
Shekhar
Tomar
argue
assignment
subsection
suddenly
violating
Himalayan
Pursuant
Tokyo
celebrities
fraudulent
miles
personality
prestigious
provider
symbol
voted
##at
Yatra
collecting
criticised
fly
lieu
organic
powder
professor
upset
138
Karthik
Lordships
Sydney
accrued
doors
everyday
expressing
installation
1965
Sadar
controlling
edge
poster
slogans
thanks
EU
credible
entitlement
isolated
naturally
raises
revival
stakeholders
##ist
103
Bagh
Coming
Hills
constitutes
crash
equitable
insured
Greek
Lakshmi
Southern
Vehicles
Yuzvendra
convicting
moderate
pack
ups
vehemently
##ted
convicts
cooking
enumerated
flash
functional
inability
postponed
promises
pulses
vague
AND
Americans
Gayle
Had
NDRF
affordable
comeback
updated
Model
Ratna
customs
exhibits
forcibly
pays
ranging
stuck
tributes
uncertainty
##el
Kargil
Prince
Production
Transfer
bars
cluster
dip
inferred
restructuring
Abbas
Caste
Children
Mexico
Oppo
Smart
attractions
businessman
contacted
featuring
movements
stepped
weakness
122
1960
buyer
coaches
concession
fleet
inclusive
taught
waters
Corona
Tom
artist
collections
commander
exposed
formulated
resign
responsibilities
robust
Can
San
T20Is
amazing
conscience
handwriting
opponent
penal
pronounced
sowing
1957
announces
clashes
deliberate
interfering
martyred
metals
miss
rapid
sacred
threatening
vessels
Mitra
Nick
lays
print
relies
substituted
1951
Arts
BRICS
Cheteshwar
Indica
Resources
paintings
##ting
Bhagwan
Thiruvananthapuram
apps
implementing
messages
AC
BENGALURU
Maldives
Moscow
Shivraj
collective
sentiment
traditions
Broadcasting
Johnson
Nadda
Relief
Subramanian
advisory
ally
discussing
disproportionate
proportion
technologies
3GB
FIIs
debtor
examples
improper
indirect
obliged
theft
Annual
Crores
Kim
Letter
Provident
dominant
tools
##V
Data
Shashi
Sita
holdings
informing
opposing
rubber
Championships
SRI
maternal
probation
ruler
Jitendra
Tender
behavior
consequent
dies
diverse
outer
prisoners
restrained
twelve
##ion
Level
Maharaja
Men
Within
elicited
marginally
175
3G
Bhagalpur
Indeed
Mata
Misc
Vietnam
bird
conceded
executives
firstly
mandamus
mob
oxygen
succession
unsustainable
wider
1950
BDA
Goel
Kia
Music
Political
Prabhu
Programme
Samastipur
abused
afford
assertion
chit
convert
crossing
finalised
hesitation
##ling
Forces
Pie
constantly
packets
speculation
1967
Mehbooba
Mohali
broader
collapse
rapidly
theatre
##lal
1969
FIRs
PPP
Shane
ambitious
cured
dominated
fiction
remedies
AY
displayed
eighth
enjoying
impressed
parallel
taxable
waiver
Dam
Digital
Sonam
deleted
ensured
Aggarwal
CNG
Naveen
Scotland
altered
assailed
comprised
fun
garnered
liver
soldier
torture
whip
worn
Cairn
SIM
boat
exceptions
jurisprudence
lyrics
survive
undisputed
wished
Cook
Garden
Poonch
Ray
easier
moon
stronger
surrendered
Art
Boeing
Hindalco
PW5
Sibal
differently
exporters
ignoring
jack
mentioning
ounce
productivity
tractor
Chowk
Govind
Kiara
attracts
difficulties
explore
magistrate
speedy
AB
Ambedkar
Duke
Jason
Vidya
Xi
adjudicated
connecting
testified
##ga
##iya
##mm
Additionally
Lodha
Mathura
Soni
Vedanta
achieving
captured
cloth
collaboration
forget
notable
remake
unauthorized
voter
##nagar
Aggrieved
Crl
Vardhan
contestants
convinced
parliament
rational
skill
141
Disha
Sometimes
Unitech
Watson
arts
deem
dignity
discriminatory
lathi
mentally
strengthening
whereof
106
Films
Finally
defines
fishermen
forensic
intimation
metre
ninth
probing
unconscious
1955
Territory
conformity
developers
homicidal
increasingly
outlets
telling
Mutual
Sania
ante
congratulated
partially
sad
suppressed
Leave
NIT
Switzerland
bps
destruction
encouraged
fulfill
grief
packed
royalty
somewhat
survived
unions
virtual
Armed
CAG
Complex
Latin
Money
Petitions
William
cow
grains
honest
invite
shocking
tag
Nexon
Stokes
aggregate
competence
depression
discarded
distinguished
guided
hiked
roughly
truly
vacate
wisdom
Cars
Common
advocates
convened
declining
detaining
impermissible
outset
pronouncement
proves
Country
Moto
Unless
Vihar
advances
cargo
circle
copper
ethnic
hardship
rendering
sexually
stains
Orders
Rover
Saha
apology
enquired
noise
summary
##K
147
149
Voting
clarity
defamation
defeating
exercises
militant
renewed
streets
trap
Ayushmann
Gogoi
Good
Sonakshi
discounts
innovation
paired
slowly
unusual
GPS
Gate
Up
ordinance
surged
variation
Coast
Gavaskar
Kane
Lee
Municipality
anticipated
breaks
desired
dynasty
fracture
judicata
offending
southwest
tainted
1952
Paras
Umar
excited
fifty
inducted
licensee
logical
misuse
neighbourhood
promotions
##raj
124
Sam
faculty
livelihood
preparations
restoration
Badal
Cement
Neha
Province
alternate
baseless
calculation
entirety
prevail
Chatterjee
DC
Patiala
commissioned
divisions
pleasure
possessing
raid
226
AGE
Advisor
ammunition
clarify
consuming
favourite
kitchen
meat
prisoner
spinners
triggered
##ian
Alok
Anderson
Javed
OBC
adult
concrete
errors
northeast
stipulation
therapy
##less
depose
honoured
proximity
requests
steady
surprised
Bhagat
Citizenship
Hooda
Swift
elsewhere
flats
hailed
indigenous
jets
shifting
verify
Per
concealed
handset
lessee
listing
phrase
premise
Joseph
chair
eyewitness
fielded
unconstitutional
##ous
665
fifteen
intact
introducing
purchases
researchers
seller
tensions
yourself
107
135
Ankit
Cuttack
Employment
Issue
Saxena
VI
answering
blows
bonus
discloses
establishes
expressions
happiness
ignore
indirectly
jurisdictional
panch
slip
Future
MTNL
Markets
PV
controls
demolition
protecting
spreading
220
Agrawal
Patnaik
Republican
Youth
measured
occupants
trustworthy
Kapur
Masood
assumption
minds
undoubtedly
Degree
Plant
Sidhu
allowances
averred
belt
depreciation
disposing
enclosed
LPA
Officials
architectural
bias
captaincy
confirming
disqualified
entertaining
impleaded
unprecedented
112
Meerut
Myanmar
Taluka
Universities
Vehicle
Wakf
concluding
enterprise
holiday
lifestyle
ocular
worse
##ble
145
Jaishankar
Kashmiri
Keep
Recruitment
impacted
likelihood
partial
sponsored
550
599
Check
Empire
Fire
Register
badly
enables
exempted
hired
intends
manifest
salt
thanked
Abraham
actively
exclude
label
scholars
showcased
sword
unchanged
126
Bilaspur
Domestic
Kalyan
Overall
Puducherry
Users
achievements
associations
brilliant
hybrid
lifting
professionals
ranks
ratings
repayment
vicinity
IMF
Neeraj
Swiss
Visakhapatnam
fat
genuineness
pharmaceutical
Deshmukh
EC
P1
cooperative
dense
keeper
trucks
##nt
230
Digvijay
Guarantee
ISI
Putin
Williamson
appended
lifetime
merged
prosecutor
को
##ganj
Aadhaar
Daredevils
Wales
swing
tend
DISTRICT
Death
Janhvi
Yeddyurappa
allies
expeditiously
gravity
imperative
regularized
widow
BANGALORE
Chavan
Gardens
Know
Sonu
dating
deferred
freight
illicit
screening
wicketkeeper
##pa
118
chemicals
defense
dinner
generic
intend
locus
rolled
MotoCorp
Taluk
Various
microSD
monitor
objectives
pertains
propose
providers
restore
romantic
sticks
worry
114
512GB
Diesel
Governments
Henry
Irrfan
Satyam
Tyagi
prepaid
salaries
un
Bhai
Book
Nearly
corrected
haven
jawans
Colleges
Narain
Philippines
evolved
frequent
legislators
litres
mentions
nationwide
protein
travelled
##ies
310
Ministerial
RPC
RR
amidst
capabilities
photography
sky
wherever
Castes
FTIL
Gorakhpur
Kant
Mantri
Tehsil
dumping
expense
intervene
jet
pegged
prescribe
regulated
stamps
warrants
##bai
1968
Howrah
Mayank
Seven
Which
amalgamation
bottles
buried
realise
weighed
173
Golden
Jeep
circulation
competing
deeply
dollars
fabricated
fairness
formats
grass
kilometers
locals
parity
##ce
Afzal
Gehlot
Goswami
admitting
destroy
globe
mounted
spare
striking
1959
A2
CWJC
Inter
cm
explains
laboratory
mahazar
rumours
sentences
surge
surveillance
widespread
NDPS
Sah
homicide
lacs
stance
tall
withdrew
Take
Tribes
alarm
curb
fardbeyan
imagination
immense
retailers
sentiments
Action
Bhattacharya
Presidential
RTI
approve
denies
picking
probate
ships
##han
512
Iranian
Mere
alter
ample
kidney
portions
threshold
Polling
circuit
establishments
gaining
silence
specify
stranded
Aaron
Colony
Ed
Ghulam
Jonas
Shree
Training
Unlike
bearers
disc
landing
noon
resumed
tight
tries
##Y
##pura
123
7T
Interestingly
Squad
affirmative
collapsed
culpable
enjoyment
layer
ray
worried
##ts
119
SI
amending
grandfather
ignorance
protesting
Coronavirus
Independent
MT
Malaika
knot
sacrifice
sells
therefrom
towers
##ja
Basu
Reports
Villiers
bones
capability
contemporary
procured
stringent
4000
Between
Coimbatore
MSP
Md
Network
Pics
Puja
Solicitor
Tahsildar
delegated
endeavour
hire
households
immunity
infections
respects
somebody
wounded
yoga
121
Deol
Lower
Oval
Records
Shreyas
drops
logic
minus
processed
visual
wounds
wrongful
1908
1964
County
Jahan
Meena
biopic
continuance
disaster
god
hoped
miscarriage
poetry
portal
precious
pull
rated
roots
update
weaker
Accounts
Consultancy
Lalit
encroachment
engineer
eve
fishing
pursuing
shaped
wooden
113
190
Williams
achievement
conventional
decrease
ear
implied
incidental
intervening
minerals
parcel
soul
terminate
Canadian
Catholic
Daily
broadband
committees
festive
hopeful
idols
relationships
substances
trophy
##ppa
12GB
Jayant
Mosque
Raghunath
USB
beds
chapter
charitable
composition
AICTE
Ambassador
MF
NIC
Saeed
Sheila
angry
climbed
contracted
developer
mandated
proprietor
Dutch
EPFO
HCL
Investors
Murali
adventure
contradictory
custom
disappointed
enters
formalities
highways
literary
ministries
nose
shoes
##ee
##nath
Amethi
Chandrayaan
Christmas
Dy
Madhubani
Mistry
Regarding
Siwan
affair
colors
consolidation
construct
dragged
weighing
FY14
Haq
Vicky
adjudicating
hidden
implications
liquidation
longest
promotional
suspects
142
Equity
Gowda
Netflix
Phase
Record
boards
extends
guntas
preserved
safeguard
span
unnatural
Laws
Saini
attacking
calm
convincing
demonstrated
diamond
forgery
helpful
oppose
regularisation
reversed
selectors
Amin
Love
Winter
crushing
greetings
incomplete
Bhatia
Cellular
JUDGMENT
Qureshi
Taj
Warriors
coloured
corporations
demonetisation
educated
generating
journalists
pocket
spell
sweet
##se
Chawla
Dalit
FY15
Iron
Otherwise
Sanctuary
cough
enforceable
initiating
profitability
vegetable
wire
##har
APP
Kedar
Pramod
absconding
betting
contra
desirable
doubled
foregoing
iconic
kidnapped
pilots
posed
rests
rulers
secular
tournaments
willingness
##ve
absorbed
approx
clubs
engineers
reward
##ck
ISIS
PMO
arbitrarily
behest
expertise
recoveries
rescued
thermal
tone
1958
Balochistan
Defendants
Mujahideen
adjudicate
balanced
horse
limitations
milestone
ranges
recruited
##st
Bedi
Prashant
afraid
delivering
fares
lovers
preventing
smoking
Argentina
Corridor
Dharmendra
Disney
Liquidator
Nabi
Ranbaxy
debts
mineral
probable
repair
van
Amicus
Safety
Ward
Wing
enjoys
inaugural
proposes
##vi
Bus
Choudhury
Nand
Ranjit
Shivaji
Surender
Veteran
misleading
subjective
supplying
Dec
Dixit
Except
Poonam
Tim
dress
elect
lists
negligent
##ke
Firstly
Tara
Unfortunately
compelling
constructions
describe
hero
memorial
modes
tool
tyres
veracity
youths
##ter
Presiding
Taylor
accessible
defended
handled
perversity
signals
temperatures
textile
##mi
850
Sawant
fluid
footage
gardens
inner
mistakes
pink
surgical
teaser
universal
urgent
1948
Acharya
Chairperson
Commander
Convention
Huawei
MoU
NSG
PDP
Ramdev
SEZ
Secretariat
Tihar
enabled
exchanged
interacted
profitable
repay
structural
surely
##ro
AIADMK
Bahujan
FMCG
Kartarpur
NEET
Tibetan
borrowing
brake
conservation
digit
hole
Competent
JeM
Rather
capitalisation
grants
handing
implicate
nagar
planted
poison
protesters
transferee
valuations
Alam
Obviously
Saurashtra
accidents
cautious
confronted
deducted
evil
factories
nationals
printed
testimonies
washed
whereupon
1872
Bhagwat
Child
Free
Jhansi
Limitation
Pink
adduce
draws
inspire
ourselves
prints
prize
thank
threw
urine
148
Accountant
Jamshedpur
MI
Talwar
characteristics
cyclone
grey
inflows
timing
ward
##os
##ty
270
arrives
bacteria
defects
fortnight
incentive
telephonic
thick
##ton
Ashram
Chemicals
HLEC
Naya
Supply
Vilas
Yash
adjustment
crashed
disturbed
eliminate
facto
highlights
joins
waterfall
yields
111
PML
Pervez
accusing
aluminium
couldn
geographical
loose
midnight
misconceived
preventive
stipulates
subdivision
transferring
Goods
Harry
ambassador
collectively
concurrent
corona
disorder
earmarked
fulfil
indulged
manifesto
pushing
420
Distribution
Madurai
Tea
biological
invocation
lunch
pillars
pretext
unauthorised
veil
Age
Aziz
Created
GAIL
Hector
LAC
Located
Tibet
ancestral
guru
knee
ports
pride
sequel
tragedy
##pal
Mauritius
Praveen
V17
charas
severely
strengthened
BPCL
Box
Charan
Disaster
Nehwal
Presently
branded
cry
malafide
tackle
trail
wildlife
##ah
116
Gauri
IN
Pulsar
SCR
averment
fame
gender
harmony
parks
prays
remuneration
restrict
struggling
tehsil
traced
227
Account
Colombo
Farhan
Going
Surendra
everybody
matrix
opponents
planes
reception
united
Communist
Hamid
Mount
Tarun
advisor
fog
funded
loaded
march
plate
reopening
swelling
utilized
width
##ai
Long
Saint
Territories
VII
abetment
briefly
brown
decorated
eminent
extensively
helicopters
jungle
prescribes
squarely
Jagannath
Owaisi
Rehman
coconut
constituting
declarations
grievous
influential
northwest
reduces
reign
statues
trends
Godrej
Kali
Kaushal
Manu
Tribe
cool
feed
friendship
helicopter
interpreting
litigant
measurement
speaker
updates
143
Associates
BHEL
Gaurav
Jabalpur
Mohit
Rathore
Raut
bankers
dozen
liberal
pecuniary
styles
unsuccessful
117
Hai
Nirav
SCA
Statistical
altitude
breathing
composite
insufficient
null
presenting
prosecuted
recovering
reservations
titles
Gujarati
Miss
Television
Unilever
citizenship
coins
courage
disclosing
economically
ki
pledged
##gi
137
Bhumi
Instruments
canal
captive
emphasized
invoices
ordering
oriented
perceived
shadow
##ana
##ani
Eden
Guard
Hotels
IA
Mughal
Rajouri
Wildlife
Yusuf
challan
derivatives
dropping
implies
lashed
snowfall
somewhere
suo
vaginal
161
Motion
Richard
Streaming
convey
endorsed
finishing
indulging
prejudicial
refuses
rider
typical
##W
Cell
GMR
GT
IIM
Nayak
Parties
Raghuram
blocked
celebration
communicate
preserve
prosperity
Charles
Disputes
Dwivedi
Nawab
Sushilkumar
blessings
chairperson
complying
contingent
destinations
frequency
magnificent
outbreak
pond
stored
trekking
undertakings
vulnerable
##co
Banking
CCTV
DRT
Drugs
Exports
Governing
Manufacturers
Maulana
Menon
Nanak
Uri
accord
badminton
inspiration
kick
library
quote
uncertain
unity
whichever
132
Chicago
Oman
Rohan
Vijender
Young
chased
comprise
grievances
hoping
hosting
improvements
leaked
mini
mood
perception
scholar
thin
Basic
Kaul
Kirti
Paper
Sterlite
acquisitions
clothing
enemy
haul
jawan
omissions
prevalent
restaurant
supervisory
utmost
##ey
Harrier
History
Jaya
PW7
Sarabjit
Sindh
Taxes
acute
beer
borrowed
breath
civilians
precise
resource
Acts
Bharati
Conduct
Reforms
aide
apartment
delays
firmly
literally
loses
pharma
revoked
153
Lashkar
Oxford
SEBI
SRH
Shanghai
attempting
designer
indefinite
reproduce
seasons
##wan
Expert
Marg
bodily
bonafide
encouraging
inadequate
prolonged
recommend
subsidiaries
subsidies
127
Arthur
Care
Holder
Jinping
Kawasaki
Mahajan
Multi
Rashtrapati
Shaw
Years
mediation
opt
popularly
premature
scientist
##ns
139
Electronics
Export
Heard
Naval
Products
homage
leased
misrepresentation
raids
rebel
recruits
taste
temporarily
Bridge
Emirates
Filmfare
Mines
Waqf
approvals
bookings
bright
comparable
curfew
deputation
exciting
gather
heir
mill
prescription
restaurants
urge
wheelers
wireless
##km
165
ASEAN
Apollo
Haridwar
Lieutenant
Motilal
Overseas
autonomous
breast
emphasised
juvenile
minorities
palm
printing
quarterly
reasoned
smoke
studio
witnessing
1953
Abhinav
Copy
La
Lastly
Light
Tahsil
anger
chamber
confers
disbelieve
muscles
prosecute
thereupon
D1
Football
SAIL
Whatever
Zilla
brutal
discrepancy
empowers
facelift
landmark
youngest
Aligarh
Ashraf
Dil
Himalayas
Saran
SpiceJet
Sreesanth
connections
exempt
fetch
floated
gauge
rifle
tribes
##ful
Asset
Kisan
NCLT
Sarkar
fighters
organs
purportedly
tribe
trustees
Dabangg
Directed
Lions
Motorcycle
PSUs
Tribunals
backing
bn
collateral
creative
exhaustive
harmful
incentives
missiles
overcome
rocks
sporting
translated
varied
360
Analysis
Madhu
Type
conveyance
footing
infotainment
websites
390
Amarnath
Hillary
Miscellaneous
Misra
Pollution
Soviet
Syrian
accidental
candidature
categorical
maturity
repeat
sick
treaty
##ally
##et
134
CA
Computer
FM
Shopian
Trent
blame
correspondence
elevated
frivolous
highlight
inspected
politically
standalone
umpire
unidentified
201
Curiae
MLC
Store
amenities
attesting
describes
describing
exporter
fingers
hostel
suppliers
tech
topic
tracking
upholding
wrestler
Aaryan
Bhojpuri
Complainant
Kumbh
LK
Negotiable
Rising
Thane
Victoria
Wasim
abusing
compare
computation
diversity
euro
exhibition
funeral
goddess
intellectual
mathematics
outskirts
proven
taxi
260
Biden
Design
Moon
Pathan
Reno
Whenever
accompanying
agrees
announcing
bin
confessed
dipped
economics
eyewitnesses
noting
pray
shocked
unjust
warranted
##gaon
##ised
855
Generally
Rock
Trading
audiences
convenient
county
dairy
divorced
feelings
heinous
secondly
timely
trapped
viewers
##ie
Connectivity
Justices
Much
NPAs
Re
Trivedi
culprits
detenu
devoted
edged
exchequer
genetic
kings
presume
respected
volatility
walked
##ad
155
Aged
Chaturvedi
Clauses
Cooperation
Fair
Khalid
Pathak
artistic
economist
isolation
psychological
tremendous
viable
154
Beach
Fast
Madhuri
Nano
Notably
diligence
isn
purchasers
Classic
Dass
Dictionary
Expected
Kher
Movement
Oberoi
Thank
Zardari
confessional
exceeded
goodwill
insist
lungs
miscellaneous
oils
panchnama
smashed
##to
225
Darjeeling
IndiGo
Ludhiana
Marshal
centers
coaching
explaining
headquartered
intimated
offerings
orange
spouse
Aug
Dhar
Mohanty
Tq
cultures
governmental
intentionally
projection
realisation
revive
rough
vacation
writers
Emperor
Munda
NASA
Pictures
RC
Shares
Sunita
analyse
canvassed
certification
neighbour
publicly
rope
undivided
wet
158
195
Community
Father
Monsoon
S21
carriers
decent
privacy
rituals
worshipped
Finch
Mathur
Mike
arbitrators
autopsy
computing
greeted
permanently
placement
tampering
wash
withheld
##ine
##w
Belgium
Leh
Shriram
burns
irrational
pan
renewable
searches
summon
unconditional
##X
Anupam
Cameron
Course
Eight
MBBS
Pilot
Stone
Suraj
altercation
cheap
chopper
decisive
dig
edible
flower
gratification
inferior
revolution
sensation
urgency
yes
Healthcare
Ishrat
NHAI
Projects
TDP
Taiwan
Tehsildar
Wifi
constrained
govern
irregular
limb
opens
reside
strategies
tail
Ajmer
Cause
DGP
Glass
Goenka
Kulkarni
NPA
Near
Nepali
Nirmal
Oswal
PW6
Prohibition
Shatrughan
cigarettes
contractors
deer
muscle
pronouncements
provinces
trace
utilisation
##il
Arabian
Assessment
Current
ITR
Khurrana
Kochhar
Krishan
Kullu
condonation
consulting
engaging
prudent
supplier
surprising
tenable
transfers
Pearl
Suman
Uma
bath
defective
detection
fides
kills
mixing
notch
plunged
steep
tropical
weightage
##gar
1949
1954
Andrew
Bhansali
Hassan
Jaguar
Kunal
MFA
Personnel
Sikhs
advertised
capture
directorial
kidnapping
overnight
prevention
ration
suppression
throat
Economics
Growth
Microsoft
Neetu
arrests
auspicious
electronics
meaningful
nullity
onto
pump
sedition
sequentially
trite
Baat
Clerk
Laboratories
LeT
Russell
Starting
Sweden
accusation
ashram
cess
comfort
copyright
greatly
guns
seemed
stays
suggesting
toward
watched
Rampur
Solar
floating
jeep
lacks
rites
solve
tabled
upside
##si
Category
Claims
Glenn
Mangal
Studies
cancelling
casualties
collusion
dancing
exploration
interact
lane
panchanama
pursued
unacceptable
waves
136
Boston
KXIP
Military
Sanju
Vaishali
consultant
ineligible
mandates
nod
orbit
religions
tanks
therewith
##wal
162
Adam
Anantnag
JV
Vladimir
classic
consist
consisted
continuity
enhancing
estoppel
improbable
lots
mortgaged
neutral
reasonableness
sanctions
stopping
traditionally
trustee
32GB
Exhibits
Jones
KG
Medicine
Rajkummar
Traders
autonomy
drinks
eleven
enshrined
passion
wonderful
BC
Dhabi
Jyoti
Videocon
accommodate
blind
caves
disinvestment
inception
lakes
legacy
pant
queries
recognize
slapped
stolen
tape
##isation
##ization
Jaiswal
Lady
Peace
blank
carmaker
climbing
commented
compliant
dreams
laches
maintains
plead
quoting
thrice
Corporations
Notwithstanding
Surya
Vidarbha
blunt
celebrates
recognise
regulating
rickshaw
rolling
##ari
OCC
Tejpal
Yogesh
allied
approaches
attracting
auctions
connivance
differ
dubbed
experiences
marking
opinions
overlooked
painting
sentencing
swimming
##son
##tic
Bobby
Buddhism
Dawood
Farooq
Holding
Mandela
NH
PSU
Senate
Siddiqui
automotive
checking
cream
enunciated
liked
patterns
prompted
sufficiently
unfortunately
##kumar
AI
Ankita
Elizabeth
FY13
Hemraj
ID
Karunanidhi
Mamlatdar
Superstar
VIII
attested
basically
borrowers
checked
hiring
immune
separation
utilised
writes
##der
##ized
Almost
App
Blood
Contractor
Larsen
NRC
Prithviraj
Prosecution
demolished
elephant
fined
grab
harsh
insolvency
modify
naming
restrain
slight
##uddin
6000
AgustaWestland
Ghat
Rajkumar
Seth
constructing
gearing
hunger
incapable
inherited
kin
mi
motivated
refinery
scrap
skilled
wrestling
##dar
555
Customers
DA
Panel
Parmar
Sisodia
abdomen
ascertaining
assumes
boats
confiscation
inventory
omitted
remarkable
resolutions
tendency
turnout
whopping
##ate
##men
Apache
Graduate
Kaushik
Kerry
Manchester
Nobel
Saradha
attaining
fodder
i20
picnic
satisfactorily
specialist
sung
thriller
withdrawing
से
Adelaide
Boards
Clarke
Godavari
Have
argues
banner
bore
innovative
inspector
intensity
lasted
meals
refrain
remitted
Asim
Colin
Commodities
Kenya
Mirzapur
Player
Prithvi
arrange
competitors
compiled
coordination
lend
mercy
steering
upgraded
youngsters
##wala
Adhiniyam
Alto
BB
Brezza
Exs
IANS
Needless
ORDER
Reporter
Rohtas
Rupees
Testing
apprised
arch
habit
pop
teach
yatra
##land
Amrita
Ashwani
Experts
Jamaat
Nagendra
Sakshi
Sky
boxing
dog
fulfilling
importantly
nominal
obligatory
scorer
shooter
210
CNX
Canara
HUL
JEE
Nathan
Rakhi
Specifications
Tahir
Vaidya
adults
banker
bio
carriage
extraneous
focusing
grandson
hiding
inevitable
realty
tyre
winds
280
Crore
FIFA
Manali
Maxwell
Purnea
Says
Upper
assigning
charts
explosion
identifying
leather
mature
texts
720
Bravo
Commodity
Does
Lite
PCR
Said
Usha
Volvo
airbags
availing
bombs
ceased
civic
colleague
layout
moments
mutually
saint
transition
unreliable
##esh
A5
Jackie
Monetary
Naxal
Operation
Resource
Value
Vidhan
cloud
concepts
counterparts
fantastic
forcing
induced
peacefully
precisely
spec
switch
varies
1940
Bala
Bopanna
Doctors
Indus
Udaipur
consultations
counts
diagnosis
dissolution
humanity
inconvenience
interrogated
maize
spring
statistics
sweep
CIL
DDCA
Holi
Samiti
Well
XII
awaiting
consume
disbursed
hate
hereinbefore
pressing
southeast
##ley
AMT
Academic
Debt
Jairam
Manual
Mir
Nanavati
Revealed
Suhana
alloy
cooperate
desert
directs
enquire
familiar
halted
hat
headlamps
inaction
lapsed
legislator
motu
presents
procure
stops
tweets
undisclosed
330
Dhanbad
Grant
NOC
Or
Popular
Score
Vrs
afforded
complicated
fears
hypothesis
inquired
quiet
satellites
slot
subsidised
talented
vesting
Command
Jordan
Modern
PW8
Tilak
Work
consciousness
evaluating
manages
quantities
reacted
saffron
untenable
##kg
Anita
Creta
Honourable
ITS
Normally
Stanley
Veer
directive
equated
evasion
lawmakers
mild
pen
realized
stumps
summoning
wine
Buttler
Corps
Cyclone
D2
IB
PoK
Ramnath
Rome
Saurabh
Savita
Sridevi
Tiago
attributable
bifurcation
drone
enormous
insisting
justifiable
logo
networking
rays
searching
subscription
tissue
320
340
699
Asst
Irfan
Kashi
Rubina
connects
depicted
gear
gratitude
harassed
intake
medically
monument
precedents
wrapped
का
##ive
Debts
Features
Maoist
Nationalist
Nuclear
Progressive
Scindia
Shaikh
Tewari
cure
hilly
impaired
kingdom
merchant
replacing
responding
scuffle
sovereignty
streaming
topped
##ol
Audit
Chautala
DG
Expressway
FCI
LG
Sao
harvesting
occupy
purity
thorough
vitiate
##led
129
Ashutosh
Days
Kamlesh
Mani
Navjot
PW9
Qaeda
Starc
accepts
amounted
cartridges
contributing
deviation
divide
doubted
kilometre
naval
sat
supreme
Activa
Andaman
Compensation
Dean
Ever
Fi
Portuguese
Stuart
Vivekananda
Wankhede
capacities
cease
considerably
cruise
cultivated
depositing
entrepreneurs
foods
halt
hasn
lapses
narration
peaks
penalties
prescribing
respiratory
standi
Backward
DIST
Deccan
Dharma
El
Ind
Kathmandu
MR
Nevertheless
Question
Quran
Santa
Scott
Should
computers
disabled
eldest
experiment
fertiliser
kharif
lighting
misappropriation
paramount
ransom
regulators
repeal
rocket
roster
sponsorship
stunning
syndrome
taxed
variations
##yan
Bal
HAL
Pappu
Vitara
admissibility
advise
assembled
aunt
belated
casting
contemplates
employers
graduation
guardian
interviews
linking
personalities
reflecting
tragic
unaided
workforce
172
Brahma
Crown
FMC
Maidan
Manjrekar
Panchnama
Secretaries
Tahasildar
Ultimately
chargeable
counselling
distinctive
pics
prosecuting
reinstated
Doval
Jack
Qatar
Units
Versus
booth
castes
competitions
convoy
deprive
ideology
locally
packet
possibilities
poured
repetition
touchscreen
uploaded
##and
##ara
##tha
1500
185
Babar
CCI
Centres
Early
Hizbul
INS
Mars
Navi
Oct
Realty
Ten
WHO
cameo
championship
indulge
recipient
reviewing
semifinals
166
AP
Committees
Ekta
Hathras
Pillai
Privy
VRS
Vijayawada
athlete
cardiac
combine
contestant
cricketing
diverted
evaluated
leveled
macro
marital
movable
organ
##ben
164
Bipin
Drug
Kumaraswamy
MPV
Mall
Morcha
Stamp
Story
Succession
affixed
certiorari
deficiencies
define
distant
patta
rush
scared
tiger
tribunals
violates
winters
##ी
Edward
Jat
Kota
Mukul
Nanded
Nor
Toubro
cater
chains
conditional
cyber
dishonest
generations
incorporation
plausible
references
speeches
stabbed
surfaced
underground
050
146
167
662
Competition
Jagat
Rashami
Riaz
Shanti
Still
True
abide
accurate
aiming
benefited
clinch
convince
inmates
predominantly
realm
relaxed
secretaries
shell
staged
ton
313
ACC
Associate
Lewis
Madhav
Maha
NCTE
Parvati
TRS
Walmart
alleges
cleaning
comic
conceived
mischief
offshore
overwhelming
publishing
refuted
satisfying
vest
wives
##bi
177
Mini
Operations
PUBG
SE
Sethi
Title
broadly
chasing
compensate
deployment
distress
emission
enactments
martyrs
persuaded
reassessment
validly
violate
131
Ashes
Immediately
Israeli
Journal
OTT
Personal
Prize
SUVs
Singhal
container
evaluate
holidays
judged
mainstream
ousted
panic
racing
revocation
sellers
skull
tonight
torn
upazila
uphold
157
203
Kriti
MA
Mangalore
Van
accumulated
density
disbelieved
feat
ibn
inadmissible
integration
lis
litigants
specimen
throwing
182
199
3500
482
950
Adi
Batra
GM
Karur
Nov
PWD
Tower
disorders
irreparable
qualities
ruins
shore
smuggling
solitary
subscriber
transmitted
waterfalls
##ak
675
865
Adarsh
CAA
CMD
Pass
Teleservices
certainty
disappointing
disrupted
guests
licensing
lowered
numbered
promptly
transformation
wards
Anthony
Plessis
Sameer
Subordinate
beings
corners
escalation
monastery
negotiation
openly
potato
shipping
##cha
375
Ananya
Baramulla
Czech
HIV
Investments
Jewish
Leone
Oriental
Priya
Root
Shoaib
Turkish
beliefs
finances
positively
relax
seeded
underwent
writings
Auditor
Bloomberg
Bookings
CID
Constituency
Girish
IO
Junction
Kabul
Performance
Tharoor
Unnao
accusations
ambiguity
criminals
gates
gifted
thoroughly
trigger
##cc
##nd
Begusarai
HSBC
Hotstar
Medium
Motorcycles
SLP
Specific
boyfriend
brick
circulated
climb
consignment
crystal
elephants
packages
shrines
stint
textiles
156
AMG
Admission
DSP
Davis
Imam
Sarpanch
barely
commits
cows
deities
incidence
particles
rarely
seals
Bijapur
Bye
DoT
Ertiga
Freedom
Mining
Mohalla
affording
differential
forex
joy
nervous
punish
reopen
shorter
strange
string
stroke
telecast
transported
unwarranted
ventures
vocal
waived
##bhp
3000
376
Fernandes
Marsh
Nobody
Rankings
infructuous
naked
pole
rental
rotation
streams
tomb
yard
5000mAh
577
Bahrain
CII
Developers
Hope
Narsingh
Square
Tulsi
UTs
Venture
cabin
clearing
donated
expelled
physics
rid
windows
और
Balaji
CAD
Dayal
EPF
FY
Jamnagar
LJP
MMTC
Operators
P3
Race
Sher
Vol
adhere
architect
arrayed
automaker
brave
choosing
clocked
du
emissions
enacting
freely
grandmother
hide
icon
misused
rolls
succeeds
trader
unanimously
yards
##das
##ising
2GB
Interim
Khasra
MOU
Polo
SMEs
Tandon
bind
dissolved
furniture
migrant
monitored
runner
tap
##ru
133
Bareilly
Counting
Elementary
Jayanti
Maoists
Panaji
Panchayats
Randeep
S1
Sitaram
Systems
bounce
chat
complications
deliberations
displays
dynamic
evolution
floors
founding
hai
hearsay
nevertheless
yearly
##eshwar
306
Cummins
Districts
Karisma
NDTV
Nashik
Netaji
Rekha
Renuka
Ross
Season
Vill
apt
enforcing
infiltration
paramilitary
repairs
setback
tasks
throwback
toilet
touring
##abad
620
A3
Ahluwalia
Atul
Daman
MIUI
Narayana
Wi
diagnosed
earnest
enlarged
headlines
journal
notably
planet
propriety
safeguards
shouting
slams
spectacular
sue
suspend
theories
AAI
Channel
Confederation
Doordarshan
Negi
Pharmaceuticals
Satya
Sood
accompany
aerial
concurrently
constraints
courtyard
dancer
depositions
instrumental
ladies
menace
mustard
occupancy
paint
practically
roped
strain
substitution
whereabouts
worthy
##du
275
Departmental
ICMR
INR
Jalandhar
Pednekar
TDS
Tagore
Trai
chemistry
complainants
dose
evicted
harvest
informal
nitrogen
rejects
unemployment
washing
##ir
##mal
##sar
Azerbaijan
Ban
Chanda
IOA
Plaintiffs
Prudential
SA
Statutes
Sufi
Sundar
accountability
ace
analysed
bridges
broadcasting
condoned
objectionable
persuade
phenomenon
premiere
rectified
redemption
stem
transit
turbo
urging
##un
AMC
CBDT
G20
HP
HRD
INX
Kevin
Krishnan
Paes
blessed
cadres
capita
commencing
constructive
contributes
envisages
gm
grim
guards
listen
outgoing
presiding
unclear
unexplained
volatile
##ise
204
FY16
IDFC
MEA
RBIs
Rehabilitation
Seventh
colony
concentration
dedication
developmental
dust
eliminated
intimate
judicially
lacking
pact
peers
pronounce
signatory
sized
tablet
universe
vagina
205
325
Bazaar
Bhavnagar
Bibi
Cotton
Hafiz
JMM
Sumit
batted
blockbuster
cooling
distinguishable
epic
joints
licensed
lung
procession
provident
rash
reactions
riot
seater
sends
unambiguous
vitamin
##line
2A
498
Balan
Bhardwaj
Caribbean
Defense
Hinduism
Houses
Jyotishpeeth
Malinga
Masters
Math
Mela
NMDC
Play
Sajid
Sanjiv
Sunni
TRANSPORT
attackers
authorization
critically
crown
doesnt
elite
females
increment
individually
ingredient
inordinate
posters
promising
publicity
renamed
resides
similarity
stakes
totality
BIFR
Faridabad
Rohtak
assent
bases
brass
contraction
glimpse
indicative
mud
perfectly
retiring
sciences
socio
specification
suffice
treasury
unjustified
001
323
DRDO
Narmada
Permanent
Prof
Q3
Regular
Sarma
Travellers
Zila
adjournment
appropriately
bikes
boycott
devotion
finale
internationally
occasionally
parked
pensionary
refunded
technological
vertical
##ging
243
Alex
Cements
Jagan
MCI
Munna
NCT
Players
RERA
Sharan
Tour
VHP
bitter
campaigns
choices
compounded
conversations
diversified
drafted
erected
imply
ocean
parental
provocation
receiver
reconsider
suburban
##hu
##id
##rao
Cinema
MCA
Rubber
Student
bounds
bunch
composer
deposing
doubling
dressing
elderly
emotions
frustrated
gifts
pepper
pressures
protested
sanctioning
shifts
spices
survival
technically
upgrade
##lu
##ran
Anup
Cauvery
Chahar
Forbes
HPCL
Making
Nawada
Ponting
Rahim
SCO
Statistics
carvings
chronic
consistency
counsels
cylinders
decreased
honey
inspite
lit
overt
packaging
please
probabilities
quake
##ists
##ot
189
Bali
Commissioners
Fourth
Jyotirmath
Nine
Panch
Sl
Zafar
compel
expandable
financially
heights
queen
1860
Boxing
ColorOS
Everyone
Glacier
Globally
Greece
Harmanpreet
Jos
NGO
STATE
Seema
Situated
Stephen
Ultra
assassination
catena
conclusively
conferring
confirms
convention
dealership
entitle
fitted
intending
terminating
unrest
visas
##it
1990s
304
491
Aryan
Dhanush
Falls
Florida
Kutch
Milan
Operating
Playing
Religious
Ricky
Tenancy
Una
Use
Yesterday
additions
alteration
aspirations
businessmen
canteen
complicity
didnt
eggs
erroneously
hearts
hunting
insurers
postal
prompt
trio
##ary
##sha
Christians
Gazetted
Jay
Kangra
Keshav
Khattar
Kupwara
Marriage
NCC
Productions
concert
empower
faulted
foul
fraudulently
intervened
lauded
optional
posing
retrospectively
scooters
290
Actually
Cipla
HR
Manjhi
Murthy
NRI
Priced
Room
Shehnaaz
Track
anxiety
believing
commitments
grows
midst
parting
publish
readily
settling
showcase
vaccines
1200
251
Aarushi
Baleno
CE
Honble
Number
Somnath
UTI
administer
arguing
authorisation
cigarette
ganja
grateful
inches
magic
marine
sculptures
semen
##ls
Altroz
Applying
Chamber
Deceased
Entrance
Geeta
Heritage
Kock
Nalanda
Results
Studios
TO
Variant
Ventures
adequately
authenticity
bumper
colonial
disbursement
exploitation
guys
hails
inaugurates
inconsistency
intentions
literal
logistics
losers
nerve
obstruction
priorities
resorting
rested
sanitation
ulterior
unfit
##nce
Adventure
Ducati
Editor
Ganges
Madhepura
Miller
Partners
Plot
Pollard
S20
Scientific
celebrity
compensated
disappointment
kicked
offline
optimistic
portrayed
provincial
relieved
revenge
trick
##q
##ura
##ा
2030
Amarinder
Dave
Infra
PW10
Please
Reacting
Shashank
Uday
Upadhyay
albeit
charity
clinched
detrimental
fierce
genre
portrait
resisted
semifinal
smell
storey
surviving
tactics
tariffs
twitter
varying
venues
##ish
Bhasin
Coffee
Denmark
Hina
Patani
Patient
Usman
Vijaya
brokerage
comparative
concurrence
disregard
dramatic
enquiries
excuse
historically
indicators
interpret
medieval
multinational
nutrition
originated
readiness
richest
saints
spends
submarine
substantiated
tunnel
APMC
Claimant
Cold
Gloria
Hearing
Identification
Phil
Purchase
Ujjain
abducted
brokers
conciliation
cop
landscape
letting
masks
openers
organisms
packing
thrilling
##ria
AirAsia
BBC
Bapu
Conditions
Egyptian
Ld
Memo
Mi
Mohamed
Nigeria
Peshawar
Tejas
apple
discontinued
finalized
misplaced
mystery
plains
pose
remainder
repealed
spelt
spreads
subsistence
##Nm
152
174
Electrical
Gurudwara
Harvard
Jaisalmer
NBFCs
Prabhas
Scooter
Shardul
Triple
actresses
adorable
diplomat
ears
imparting
massage
penned
slogan
sponsors
warranting
##ite
Battle
Cape
Godhra
Li
Met
Partnership
Texas
Tony
VK
archaeological
array
authors
berth
bribery
coin
consultancy
cup
ethics
extradition
mathematical
mixture
offensive
potentially
strip
therefor
Bangkok
MiG
Ph
Ravinder
Sajjan
Standards
Thanjavur
YSR
Zero
agreeing
fledged
harass
hereafter
infusion
outlet
pipe
reluctant
sketch
stamped
translation
215
Atlantic
Bikaner
Commenting
Emergency
Establishment
FOR
Jim
Niranjan
Relying
Until
Virendra
Yashwant
akin
commences
confidential
couples
demarcation
designation
dictum
explosive
foreigners
forever
golf
grabbed
mortality
mutated
noticing
organising
populations
prerogative
programming
reiterate
sequential
tours
widening
##ize
10A
Filmmaker
Item
JDS
Kuwait
MSMEs
Navratri
PAN
Shakib
basin
churches
clearances
defamatory
denomination
horizontal
lightly
preferring
revise
slowed
tier
171
Asha
Bhojpur
CRR
Little
Narasimha
Thai
Traffic
VVIP
Varma
Wani
accessories
asserts
briefing
bullion
cereals
complaining
dogs
fielding
honours
hospitalised
lamps
maritime
patently
scrutinized
sponsor
vests
224
Faf
Girl
JPC
Made
Peeth
Piramal
ensuing
evacuated
finalise
forgotten
grid
journalism
liquidator
lunar
marble
perpetrators
picks
slide
swept
tons
upward
##ang
##oo
##ov
##ries
169
245
BMC
Buxar
Cruz
Daniel
Funds
Pat
Perera
Perusal
Rayudu
Salim
Solutions
attain
bread
equipments
fatalities
incredible
ink
lesson
medicinal
memorable
modifications
regardless
retention
##chi
##ham
188
Ambala
Applications
Chandrababu
Declaration
Internationals
JDU
Jaswant
Kushwaha
Mahanadi
Subject
Syndicate
Workers
acclaimed
ancillary
boxer
conflicting
contentious
distribute
feedback
grille
iOS
infirmities
injection
licenses
merchandise
mis
penetration
propounder
roaming
systematic
tablets
unilaterally
utter
visibility
##J
207
Ayurveda
Chadha
Did
Irrigation
Kulgam
Mineral
NSA
Short
condone
constituent
continent
demonstrates
empire
intermediate
megastar
pensioners
slowing
swearing
tip
tube
##ll
##ua
2025
Gorilla
Indonesian
Institutes
Kakkar
Kathua
Oscar
Southeast
Swedish
Twenty
basket
casts
clinching
cues
custodial
deputed
drum
genes
halls
inspect
intensified
lessons
lien
preservation
progressive
reservoir
scenic
seriousness
tenderer
wrist
##est
##hip
159
Adalat
Akali
Andre
Ashwini
Babri
Badrinath
DTH
Heart
KK
Kishtwar
Response
Week
apiece
apposite
bladder
bold
breached
concentrated
criticized
drawings
elementary
experiments
incorporating
moisture
nominees
noteworthy
positioned
quarterfinals
redressal
wilful
##ca
##ial
163
249
Aircel
Bairstow
Columbia
Compass
Fox
Louis
MBA
Rapid
Triumph
Very
avoiding
bathing
complain
desires
enrolled
erupted
explicit
foremost
gene
meritorious
misconception
prohibits
raided
retaining
176
Adil
Airbus
Chaudhry
Classes
Concession
Dharamshala
Elite
Fiat
Gurdwara
Has
IBM
Irish
MNS
Mukerji
Night
Ramayana
Zaheer
bales
barring
disciplines
distinguish
earns
liquidated
nice
norm
quarantine
township
zoo
##ner
##ze
AG
ATM
Claim
Contempt
Departments
Divya
Francisco
Govinda
Porsche
Veena
absurd
advancement
bands
budgetary
disobedience
dispatched
expose
flee
frozen
maybe
trailing
umpires
verbal
##ant
##shi
##thi
AICC
Dental
Ola
Soren
Stand
XT
atleast
atrocities
audited
caveat
charter
closest
commissioning
compromised
cot
deems
explosives
fateful
havoc
illiterate
installment
lush
methodology
modest
monuments
practicing
prohibit
prohibitory
realistic
recession
reflection
rented
retrenchment
somehow
specialized
sting
weigh
whilst
Angel
Born
Jackson
Lata
Parineeti
Shrivastava
anchor
characteristic
commercially
cooled
flexibility
gallery
lengthy
lone
mindset
module
mothers
outrage
prejudiced
rationale
stiff
subdued
Advanced
Applicant
CEOs
Dalits
Dilaik
Key
Meal
Mukund
Raje
Rath
SARFAESI
Singhvi
Thousands
Vitamin
assert
bundle
crying
dealerships
depositors
discard
dividends
donation
embassy
fed
fetched
miscreants
preferably
preparedness
probed
sensors
slain
tenth
vigilance
150th
202
Bhat
CW
Girls
Go
ISL
Manesar
Relevant
Snapdeal
Tejashwi
advancing
aired
asserting
bungalow
clarifications
confused
crossexamination
defeats
deprivation
exploring
eyeing
glaring
majors
mosques
pulling
resolving
sacked
slower
superintendence
thrust
valleys
पर
##do
425
Austin
Campaigning
Chowdhury
Gurdaspur
Maya
Towers
Vide
Zonal
caps
dimension
fibre
guiding
hereditary
insult
luck
males
metric
narrative
procuring
regret
ritual
235
Arjuna
Broad
Harris
Indiabulls
Lecturers
P2
Paresh
Preview
Tikla
Undoubtedly
beside
citation
cruel
enthusiasm
feared
filming
fulfillment
glucose
legends
masses
meted
navigation
nominate
productive
styled
sums
thirds
withholding
##bar
##ping
178
307
Alexander
Bakshi
Din
Duty
ESI
HUF
Harley
Kozhikode
Lakhs
Large
Nicobar
Returning
Shillong
Thar
affection
ballot
brutally
compulsorily
curtailed
dimensions
disturb
divine
kmph
metropolitan
parcels
reimbursement
sixty
stimulus
sustaining
vaccination
##les
192
198
Acting
Chander
Charas
Dibrugarh
Electoral
Etihad
Innova
Lala
Mian
Nehra
Raza
ambulance
bogus
ceremonies
disruption
drove
easing
encroached
gods
hatched
incorporate
indicator
injuring
magazines
megapixels
murders
pg
puja
rallied
tiny
traveling
typed
288
Affidavit
Bachelor
Bid
Euro
Exclusive
Gurugram
Hindustani
KARNATAKA
Mahavir
Paytm
Portugal
Saroj
Treasury
appraisal
asthma
booths
converting
credence
declares
dwelling
feeding
fleeing
gesture
imposes
materially
mechanisms
missions
offenders
recruit
reopened
sanctity
sodium
taxpayers
##lo
##tor
##van
184
1B
449
570
Bhim
Complaint
Embassy
Headquarters
IRCTC
Inflation
Mehra
Metal
Pokhriyal
Saharsa
Siddaramaiah
Train
WPI
arrear
automobiles
boasts
concealment
coordinate
ethanol
habits
hardware
impartial
loading
merge
miserably
northeastern
radical
selecting
sheer
silk
##izing
710
Bastar
Geneva
Hardeep
Jesus
Kotla
Litigation
Madhukar
Nature
Nora
Principles
Radhakrishnan
aftermath
captioned
cooked
crease
excellence
forehead
jute
memories
obesity
publications
rarest
responses
tendering
terrace
upwards
##bad
##no
168
299
399
Brown
Feb
Floor
Giri
Kendra
Morris
Ordinarily
SWP
Seltos
Srinivas
TALUK
alienation
cautioned
explicitly
hue
justifying
keys
lastly
refining
sounds
struggled
toilets
tolerance
victorious
voltage
##ent
##hat
ATS
Akash
Chinas
Cyrus
DPC
EcoSport
Figo
Look
Malaysian
Manufacturing
Moody
Objection
Panday
Religare
Result
STATION
Self
Seoul
Venugopal
Wang
ablaze
adhered
bullets
drives
expedient
exterior
installments
interval
knocked
organise
prone
sown
tongue
toxic
truthful
228
765G
Back
Brazilian
Forward
Jamia
NDMC
PIN
Payment
RSA
Unity
apartments
attendant
butter
coercion
cultivating
database
drag
fewer
increments
ka
lined
mall
manipulation
minimal
multiplier
occupying
pouring
surety
216
Actual
Environmental
Eoin
FY09
Factory
Jersey
Navdeep
Os
POST
Pushpa
Robin
TB
Vyas
abortion
allot
apparel
biased
commentary
dispensation
empowerment
hazardous
historians
inhabitants
manifestly
plantation
plenty
preponderance
raping
siblings
stranger
switched
theater
##ko
380
440
Arya
Broking
Culture
Dera
Diploma
IPOs
Maratha
R1
RFP
Rawal
Roger
Rupani
Wimbledon
acquitting
approving
bicycle
bushes
cart
commemorate
cubic
encashment
hikes
hrs
intensive
lucky
optical
owes
peoples
rebels
renders
shortfall
soundtrack
subcontinent
surroundings
tantamount
Badminton
Chemical
Dream
Dwarka
EBD
Kannur
Khatoon
Madrid
Nelson
Parkash
Scale
Shilpa
Typically
approves
briefed
conservative
gainers
killings
lasting
measurements
recharge
stall
tissues
##dhar
##iah
##para
##sing
196
Assets
Bills
Bob
Coolie
Diljit
Headley
Holy
Jr
Language
Mill
Minimum
Rampal
Responding
Suri
Terming
agri
backup
boxes
disposition
jewellers
outsourcing
performs
preceded
reliability
seated
spacecraft
st
tears
unaware
wakf
##jan
737
Drive
Jorhat
Karun
Library
Lupin
Milk
Ryan
Zakir
anonymity
cents
conducive
currencies
decrees
dental
donations
effecting
everywhere
fertilizers
flu
genesis
inauguration
monopoly
pillar
retailer
speciality
triumph
##न
211
222
Abe
Brothers
Dabur
Facelift
Gates
Hafeez
Incidentally
LNG
Mahabharata
Marcus
Naqvi
Pre
Ramachandra
SR
Terrorism
Tigor
Turner
boss
chiefs
chip
colonies
functionaries
grace
implicit
inheritance
instrumentalities
lab
panels
radiation
shuttler
skiing
spaces
steadily
tortured
##rd
194
237
Davidson
Dwayne
Hashmi
Kajal
Lab
MUMBAI
Micro
Narcotics
Nawazuddin
Oli
Shipping
Sohail
Venkatesh
Venue
agitated
attributes
banning
dealings
deductions
displaced
fabric
fauna
insects
labor
mysterious
persistent
remotely
replies
symbols
tigers
unassailable
victories
##tu
##ye
##za
Amla
Araria
Ashoka
Dance
Ebitda
Eventually
Field
Hazaribagh
Kalam
Kamrup
Katihar
Kishanganj
Parthiv
Prabhakar
Radhe
Reasons
Resultantly
SD
Shivpal
Trustees
Wall
Wriddhiman
bureaucrats
culprit
defaulter
defining
eased
episodes
guy
heated
impediment
pairs
poems
recommending
returnable
rivalry
statutorily
taxing
tooth
tri
हैं
##ala
##per
##tes
##way
193
BPO
Bhaskar
Birmingham
Communication
Franklin
GSM
HDR
HUBLI
Lords
Male
Malkhana
Panipat
Parade
Rice
Samba
Tirunelveli
Titans
afore
casualty
commanding
employ
fixtures
grip
invariably
mishap
picturesque
scripts
shoulders
tends
triable
trim
##giri
##go
##puram
186
265
365
A4
Automobile
CDR
Clearly
Dipak
FS
Gixxer
Hasina
Kazakhstan
Mathews
SHOP
Siraj
Slum
assailant
bout
completes
crosses
derives
discover
enact
estopped
flagged
hanged
heroes
horses
insecticides
lecturer
mentor
performer
presided
proposing
ramp
recalling
remit
riders
sparingly
spike
stalled
swang
taluka
taxis
##puri
640
Bangladeshi
Boult
Col
Colonel
DTAA
Forests
GPU
MO
Mithali
RCom
Web
abundant
bearer
comparing
competed
damaging
destroying
fortified
inappropriate
instrumentality
lent
resumption
sphere
wealthy
##uli
##ों
AS
BJD
Birthday
CP
DVD
Electronic
FBI
IITs
LAKSHMI
Mahadev
Sandhu
Sharing
Spot
Tej
ages
auditor
beneath
breakthrough
buys
contemplate
drain
efficacy
legislations
limbs
needless
partnerships
progressed
propounded
resided
sympathy
CB
Dussehra
ER
FDA
Johannesburg
MC
Mecca
Naxals
Nursing
Place
Presso
Quinton
Rangarajan
Samson
Woman
amenable
button
clip
concessions
cordial
debris
embark
en
enemies
flora
handover
headache
inscriptions
revived
rod
shades
spy
terming
unregistered
unveil
weighs
##gan
##me
##sm
197
223
Advisors
Anwar
Berlin
CoA
Dharam
Emraan
Hind
IL
Inspectors
Integrated
Intel
Jacqueline
Kavita
Meenakshi
Peninsula
Peoples
Punia
RAB
Rohini
Rose
allottees
columns
confinement
deliberation
farms
firearm
formulation
highs
investigators
meditation
pertain
prohibiting
punitive
registers
reiterating
revolutionary
touchstone
volunteers
##wood
Appointment
Brahmastra
Chandan
Chowdamma
Indra
Leyland
MCD
ROM
Wilson
adverting
aggression
concludes
forcible
gratia
inspiring
migration
mobility
mythology
painted
payee
speakers
woke
430
ATMs
Challenge
Essential
Giving
Gross
Hashim
Lara
Norway
POCSO
Relations
SRK
Sat
Vysya
abduction
abrogation
airbase
assign
avatar
bracket
exporting
flown
fore
forwarding
honor
jailed
mn
prevailed
pumps
purport
safer
settlements
topics
212
315
Access
Coca
Dharamsala
Dosanjh
Exception
Ganesha
Jaiprakash
Josh
Magistrates
Nizam
Perhaps
Significantly
Universal
V15
Wrestling
assure
battling
captains
clerk
favoured
hydrogen
intercepted
leaf
malice
mechanically
packs
proprietary
remarked
resting
separatist
throne
warnings
whereafter
##dra
Abhay
Allen
FY12
Guinea
Houston
IS
Inside
Lyon
Mandeep
Salem
Sonveer
Things
Vision
adhoc
capped
consult
contacts
directory
dispensed
economists
elaborately
fertilisers
laboratories
lineup
maps
membrane
mirror
promissory
screenplay
thrashed
##Z
272
480
Allah
Alwar
BNP
CWC
DB
Diary
Expressing
Farm
Hindutva
Jimmy
Maheshwari
Q1
Rest
Seva
Software
Solanki
abated
accountable
adapted
bamboo
bounded
characterized
circulars
conducts
critic
delegate
incomes
inconsistencies
induction
instalments
landslides
mango
manpower
mask
nationalism
notion
orally
pesticides
poem
proforma
protective
reminded
secrecy
tear
travels
wings
##ger
##ल
206
460
660
Adreno
Boy
Cola
Demand
Deo
Driver
FII
FIPB
Grover
Imphal
Murli
Panchayati
Steyn
TIP
UPSC
appearances
coercive
corroborates
criterion
dependence
deteriorated
eco
flew
hurdles
illustration
interactions
jury
nationalist
patrolling
pleasant
practitioner
prompting
rebut
rides
roadshow
socially
stab
waist
##age
##singh
213
229
720G
Bulls
Deoghar
Edelweiss
Karim
Mahmood
Mohapatra
Patanjali
Quality
Statutory
Table
WTO
Wayanad
academy
appointees
brushed
compulsion
corollary
cries
descent
distributors
disturbing
exceeds
extinguished
fictional
formality
harassing
importers
influences
inquire
labs
lamp
neglect
plates
polled
proportionate
spelled
tenanted
urges
##cy
##ku
183
1A
Apparently
Complete
IND
Lokhande
Mountain
NBCC
Offences
P6
Parveen
Racing
Safari
Satellite
Showik
Usually
VC
advantages
analogy
attach
brevity
culled
dacoity
derogatory
designate
dictionary
drawer
erosion
facilitating
flexible
loves
onboard
panchayats
precautionary
recurring
sits
speeds
tangible
timings
traction
##tan
##र
Conciliation
ETFs
Ernakulam
Finale
ITBP
Ishan
Juvenile
Philip
Presidency
Proceedings
Rate
Reservation
Via
adverted
alike
analyzing
borrowings
breeding
definitions
directives
emanating
entrepreneur
hacked
landslide
leverage
mileage
notify
realize
resignations
rocked
romance
solidarity
strongest
surprisingly
tract
transformed
verifying
voices
wars
##sinh
##ut
2024
221
Ace
Brahmaputra
Brian
DR
Down
GS
Haasan
Hospitals
Kallu
Minority
Nandan
Poland
Professional
SQUARE
Sahni
Search
Side
Tehelka
afterwards
arena
auctioned
computed
deficient
detect
disciple
drainage
envoy
extracts
forfeited
gunned
jumping
reminder
seize
selector
sensitivity
sing
stepping
strangulation
suited
torch
weakened
##ability
Axar
Balasore
Breweries
Brussels
Certain
Chhabra
Comptroller
Groups
Interior
Jung
LA
Marxist
Naib
Pushkar
Rajinder
Ranjeet
SECRETARY
TRAI
Taxation
apologise
assertions
discredit
donor
ecosystem
factually
feasible
foodgrain
jurisdictions
occasioned
passive
precluded
relatable
revered
sensational
themes
transpires
upfront
##bal
##ler
295
5mm
BALAKRISHNA
BG
Benjamin
Brij
D6
Diwas
Fortis
IndusInd
Jonny
Pompeo
RK
Rain
Sabarmati
Samir
Sarfaraz
Steven
T20s
Tatas
Vande
befitting
calculations
confluence
dried
heartfelt
martial
matching
onset
performers
policeman
projections
situate
summers
variable
##ali
##ini
Auction
Average
BANKA
Deep
Gir
Guptill
Insolvency
Khyber
MRP
Often
P4
Peak
Rabada
Randhir
Samuel
Visitors
antecedents
beaches
beverages
catches
cavity
clutch
constipation
culminated
curriculum
disturbance
emergence
helpless
introduces
marines
privileges
refugees
resist
restricting
shutdown
slashed
spur
succeeding
sweeping
vegetation
##DA
##ities
##nda
Annexures
Cancer
Fresh
Goldman
Lasith
Maa
Mahender
Mantralaya
Nupur
OMCs
Perth
Prix
Rajinikanth
Shia
Support
ancestors
ash
blog
complexity
consolidate
controversies
editions
fixture
fraternity
horns
litigations
locate
malls
notional
overruled
plying
propositions
sanctum
shelling
wonder
##ff
377
AYs
Archaeological
BPL
Change
Frank
Guntur
Hisar
IIP
Kamla
Liberation
Marine
Matt
Nadal
Thirdly
allege
attestation
breakfast
cholesterol
concentrate
dire
dispossessed
immigration
incharge
industrialist
lessees
necessitated
overriding
scanner
slips
soap
steam
summarized
surcharge
transform
trips
tuition
zinc
##chand
##ring
2023
257
Benches
Cambridge
Chaddha
Conservation
Counter
Dark
Dead
Dey
Fashion
GVK
Gilgit
Grey
Km
LCD
Mahira
NGT
Nishank
Pixel
Pondicherry
Rajapaksa
Richardson
Sitamarhi
Treaty
abundantly
adherence
charming
crowned
desperate
diploma
evidently
figured
fines
forty
nepotism
outfits
pic
proteins
renew
slots
turmeric
waited
##mma
Akhil
Anniversary
Baghdad
Bashir
Curran
Datsun
Gajendra
Ganja
Khawaja
Lathi
Lordship
Mamta
Q2
RFA
TikTok
Vellore
Visa
abundance
abuses
accuracy
adjust
analogous
basmati
cant
employs
fiber
foodgrains
gunshot
jacket
rigid
streak
suggestive
terrain
##ber
244
305
Arif
Bokaro
Core
Cultural
Discovery
Fifth
Karishma
Kom
McMahon
PW12
Prescribed
Singer
Udhampur
Viren
analyzed
auditors
balancing
breathed
chunk
derive
efficacious
entail
excitement
favor
improves
intestine
kindly
lowering
onions
outcomes
phased
pixels
prevents
priest
recorder
replying
revolves
specialty
surgeon
trajectory
transpired
turnaround
unbelievable
unnecessarily
##mani
##sana
Badhir
Bond
Continental
Copper
DTC
Jal
Kieron
MV
Mate
NGOs
Notary
Revolution
Sushmita
accomplished
anguish
ballistic
calculating
closes
federation
founders
guess
guise
invention
junction
mounting
musicians
practiced
precision
respectfully
sizes
stir
unsafe
##he
187
636
Administrators
Cave
Formula
Magic
Moradabad
PhD
Professors
SSP
Scrutiny
Summer
Swayamsevak
Theatre
bull
cheated
colored
commissions
cyclonic
deeper
departed
deponent
downward
exemptions
hierarchy
hip
holes
magnetic
mercury
negotiate
pharmaceuticals
presidents
prudence
psychology
realization
reeling
rumoured
scattered
specifying
undertook
untoward
wrongfully
##ps
Ahmednagar
Bellary
Bhandari
Bhupinder
DMRC
Guidelines
Jamaica
Nikhil
Ninja
Parganas
Physical
Pragya
Warne
abilities
abnormal
abstract
amply
contemnor
coordinated
corroborative
cuisine
delighted
dissatisfied
emperor
excavation
fictitious
immigrants
laden
loving
partitioned
wore
wouldn
##bari
324
490
Adviser
Anant
Andy
Babbar
Century
Different
Ishwar
Maurya
Mayor
Mountains
Mukhtar
Nicholas
PSBs
Protest
Riddhima
absorb
administrator
assessments
budgeted
dominate
eclipse
formidable
grossly
honorary
immaterial
infer
labels
nets
polar
promulgated
react
sealing
sheeted
suburb
trusts
uterus
##10
311
471
Arshad
CAGR
Darren
Diu
Dzire
Francis
Mangeshkar
Neil
Properties
SLR
Shaheen
Shivam
Stage
Taiba
Xinhua
chrome
constables
consulted
dams
doses
elicit
filmed
flick
franchises
incised
listening
merchants
morality
patrol
photocopy
proclaimed
provisioning
pursuit
whereunder
##ated
##hara
##ina
##ties
##ure
179
AIMIM
Added
Bangla
Candidates
Hossain
KIAD
Kajol
Kothari
Kotwali
Miami
PF
Pietersen
Steels
accelerate
adjudged
bullish
circumspection
corporates
exhausted
helm
hinted
migrants
pipes
pneumonia
prospect
quashment
removes
schooling
sham
specialised
suitability
vain
weakening
##MA
##by
191
Consortium
Deutsche
Diamond
Governors
Meera
Parekh
Puneri
Radhika
Representatives
Ring
Saharanpur
Sesa
Shahbaz
Skipper
Uber
abeyance
abolished
avenues
disagreement
duplicate
eventuality
indications
lemon
mortal
negotiated
photographer
practicable
preferential
robbery
satisfies
seasonal
stationed
tentative
triggering
umbrella
unequivocally
unilateral
urinary
##ab
##ds
##ide
##io
##var
303
335
790
ACB
Bhutto
Champa
Dalmia
Devotees
Ek
Flood
Galwan
Nirbhaya
PLA
Phone
Sabarimala
Srikanth
Stars
Strategic
Subbarao
Ukraine
Uttam
boosting
borrow
bypolls
chartered
conform
continental
cook
dishonoured
encumbrances
expedite
impressions
install
malicious
offset
pitched
plenary
rectification
reversing
scribe
spanning
sparked
tributary
troubled
undergraduate
voiced
##PL
Ambati
Animal
Danish
Katra
LRs
Leaders
MSME
Moily
Paltan
Roads
SME
Vasundhara
aggressively
attribute
broker
builders
crunch
demonstration
distributor
evolve
garner
giants
growers
historian
impleadment
indulgence
lawfully
leak
marketed
nutrients
realisations
revelation
scaled
shield
viability
##red
##sed
Archer
Asaduddin
Bell
Bhartiya
Brahmanand
CISF
CSR
Cricketer
DAVANAGERE
Dairy
Durg
Gilani
Janmabhoomi
Jawahar
Kanyakumari
Lakshman
Maintenance
Maria
Matthew
Meiyappan
Narine
Select
Sooryavanshi
Sunder
acreage
authenticated
burst
convene
dishonestly
download
focuses
formulate
hunt
jetty
kgs
looted
mainland
occupant
outing
painful
pills
predecessors
rainy
revealing
scrutinize
sophisticated
sunset
surveys
trusted
ud
unequivocal
workshop
248
730
Active
Airports
Biotech
CJI
Cri
Hamirpur
KMC
Manju
Nikki
Raksha
Ramgarh
Sachs
Set
Vedic
Vishwanath
accessed
adaptation
builder
contingency
conveniently
corridors
cutoff
declines
excerpts
fourteen
inequality
interiors
mountainous
pledge
symbolic
tops
utilities
viewing
woo
##endra
##mer
342
Avenue
Bodh
CC
Citizens
GA
Narayanan
Originally
Persons
Present
SDM
Sheffield
Tehran
Thanks
UB
appetite
blocking
bordered
catering
crack
egg
equation
fertilizer
floral
gazetted
gorgeous
greenery
grinding
hospitality
iPad
inscription
kit
lump
ouster
promotees
realities
regularised
scathing
spectators
tired
vicarious
yielding
##dev
181
1882
234
Aayog
Abolition
Barcelona
Benelli
Ciaz
End
F1
Kishor
Moeen
Northeast
Panda
Pannu
Powers
Prajapati
Ratings
Sharda
Shirdi
Sultanpur
Transmission
chooses
clubbed
gangster
graduated
hatred
imagine
interacting
invoice
lap
mastermind
parlance
pitches
precautions
propaganda
refined
stairs
static
timeline
trauma
underlined
untimely
utilise
walks
wee
ने
##ology
##tal
Advertisement
Assurance
Austria
Belgaum
CarPlay
Chambers
Cochin
Collection
Dharwad
FA
Fundamental
Game
Ian
Jong
Kabirdham
Kolhapur
Naga
Ojha
Rameshwar
Same
Sawai
Verna
Z1
acknowledgment
armies
assailing
cartridge
clan
convertible
distancing
eaten
fights
heroin
invites
lion
livestock
manipulated
paternal
protocol
reconstruction
reproduction
revoke
singers
skeleton
sluggish
standoff
understands
##ors
##pati
##wara
10W
254
349
415
465
Akram
Albert
Anuj
Bajpai
Baltistan
Christianity
Cuba
DGCA
Gaon
KP
Mediterranean
Nagpal
Name
PW11
RTR
Reco
Slam
Snowden
Sodhi
VS
compilation
delegates
gazette
guideline
humanitarian
justices
landowners
lovely
observers
perusing
plug
pound
reporter
showers
vegetarian
##ny
Bhola
Camp
Cash
Charitable
Climate
Intermediate
Jignesh
Mandhana
Nainital
Sahai
Sep
UBHL
UNESCO
Venezuela
arthritis
battles
boarding
bowls
catchment
commands
dressed
ensures
expresses
hurry
intelligent
interactive
nursing
retains
taker
trivial
vigil
wells
##tra
##ullah
##yya
209
262
AIDS
Aditi
Babulal
Balakot
Courses
Curfew
Djokovic
Himanshu
Ispat
Jama
Kala
Laal
Lakhan
Misbah
Neena
Provisions
Rangers
Rewa
SS
Sant
Subsequent
Together
UT
Uzbekistan
Was
authentic
cab
concocted
conspirators
demolish
deserted
digging
diversion
fence
footprint
instalment
lacuna
molecules
pelting
predict
subsisting
tide
##hari
214
233
AUM
Basti
Burhan
Dhirubhai
Dialogue
Faculty
Janeiro
Kollam
Krunal
L1
Leading
MVC
Native
Nile
PPF
Rajat
Sudhakar
bald
bay
bombing
commuters
crowded
crushed
darkness
delaying
drastic
erection
executor
exemplary
fractured
freezing
heating
hut
ie
intermediary
la
lacerated
leases
lighter
rabi
random
readers
rectify
scrapped
speculations
stipulations
teammate
truthfulness
worthwhile
yarn
##00
##hal
##que
##sis
##े
208
326
Aarti
Avinash
Behera
Built
Chirag
Colors
Dargah
GE
GR
Ghats
Gibraltar
Hegde
Housefull
ITA
JSPL
LTE
Lokesh
Mahila
NATO
Paragraphs
Pravin
Rathod
Ritesh
Taapsee
adducing
admeasuring
adviser
ailing
assessees
beatings
celebs
congratulate
credentials
depriving
effectiveness
evidentiary
exonerated
finest
forums
ha
housed
illegalities
importing
inherently
insistence
intentional
killer
matched
outdoor
poisoning
resultant
unscrupulous
upgradation
warranty
##ER
##ding
##uri
Arbaaz
CWP
Chandrasekhar
DW1
Flat
Haveli
Lama
Leeds
Mushtaq
Natarajan
PDS
Pending
Preet
SAARC
Sayeed
Shiksha
Tola
Yasin
abolition
affiliate
anxious
batteries
counters
deploy
develops
diameter
disciples
dock
editorial
emails
farewell
fugitive
groundnut
horror
impliedly
ineffective
inspires
invasion
mitigating
obstante
tale
verses
##riya
##ss
217
470
ADVOCATE
AGM
Abhiyan
Anjali
Areas
Automotive
BP
Balrampur
DIG
Designated
Estates
G9
Gulbarga
Hazira
Montek
OP
Pura
Rally
Saikia
Sanjana
Selling
Serial
Tushar
Warrior
Wealth
acquires
allottee
bedroom
conglomerate
credits
delivers
depressed
electorate
elimination
embargo
envelope
impress
incremental
lessor
limelight
messaging
moratorium
neglected
outlay
pardon
parted
pit
potable
protects
repaid
ridden
scams
sided
structured
unaccounted
vigilant
##em
##field
##king
##ms
##ora
##ron
##ula
273
Akbaruddin
Christ
Corning
DRLs
Dham
Engine
Evaluation
Female
Incharge
Kunj
LATE
Modis
Nepalese
Pakhtunkhwa
Patra
Pool
Ramnagar
Vallabhbhai
accommodated
asphyxia
bandh
carpet
deserved
filmmakers
fuels
gases
incidentally
incur
infant
inflicting
infringed
lows
marriages
migrated
newer
outright
owning
sect
smallest
thatched
unified
variance
401
506
Bird
Brahmin
Brand
CNN
Describing
Eligibility
Fee
JK
Karti
Lakhimpur
McDonald
Orange
Panama
Pirates
Preeti
RTE
Reena
SX
Travancore
Understanding
Upendra
ailments
alcoholic
autobiography
beautifully
capricious
clinic
conductor
corroborate
dearness
differs
disclosures
dissent
donate
dramatically
fertile
forcefully
generates
gland
hailing
heaven
layers
lorry
memos
oppression
ordinate
punch
referee
restitution
sacrificed
slew
unofficial
woes
##up
298
ArcelorMittal
Assuming
Bolero
Builders
Doda
Execution
Gangotri
Get
Kapadia
Kharge
Lakshadweep
Lalita
Mid
Mine
Moti
PMI
RI
Rae
SEC
Shahi
Spotted
Tennis
Terminal
allocations
amicably
analysing
basing
bypass
cc
collector
deception
deletion
descendants
eagerly
examiner
explanations
flooded
handles
modifying
notches
polluted
reputed
retrial
seniors
server
testamentary
unanimous
unpaid
unprovoked
versa
wanting
##appa
##ay
252
406
Bajpayee
Base
Carlos
ICU
MoUs
Naravane
Noor
Product
Ramlila
Reddys
Shakeel
Shakuntala
Turi
abetted
ailment
animated
appealing
companion
configuration
constituents
disabilities
ethical
fatality
franchisee
isnt
nail
nerves
portfolios
poultry
redundant
sounded
sued
tables
underwear
vending
vouchers
##kha
100th
1800
Alastair
Amul
Appendix
Birendra
Brisbane
Chandy
Choksi
DCP
DRS
Defending
Dhananjay
FY17
GoM
Guest
Gulab
M51
Ma
Maritime
Mathematics
Pali
Pharmaceutical
Producer
Site
Unions
acquainted
alibi
aren
centric
consciously
derivative
diamonds
discounted
drastically
dug
durables
ferry
glory
hurdle
idle
intestines
judgements
levying
maxim
migratory
novels
nutritious
prey
regain
relieve
reversal
sacrifices
scriptures
shouted
tense
treatments
##devi
285
353
354
Advance
Ahuja
Angelo
BR
Bhatkal
Bulandshahr
Dhruv
Fernandez
Gulzar
IM
Khare
Motorola
Mundra
Nadeem
Santner
Shortly
Silva
Tribal
Vidyalaya
Yogendra
apologised
collision
commanders
conflicts
counseling
diplomats
disadvantage
disappearance
fabrication
festivities
garb
graduates
headphone
itching
negatived
postpone
potatoes
racket
robin
shortlisted
snatched
stern
synthetic
##ped
##tar
258
397
Accident
Anglo
Balwant
Bhagwati
Decision
Document
Ferrari
JUSTICE
Jehanabad
Komal
LIMITED
Limkheda
Minor
Narender
Picture
Polls
Refinery
Strong
Surgeon
TQ
Thereupon
Tiwary
UCO
WWE
abusive
acknowledgement
cops
defaulted
deg
designing
dictated
falsehood
financed
happily
laptop
musician
pot
rebuttal
reconciliation
reinstate
relegated
revelations
slum
sooner
sorry
survivor
tort
transporting
tuberculosis
vibrant
vomiting
wasted
219
255
Aaradhya
Aman
Armenia
Arti
Bahuguna
Brief
COURT
Call
Dale
EPS
Generation
Grid
Hansda
KPCC
KPCL
Lloyd
Mass
Movie
Murugan
Oraon
Qualifier
Riteish
SIP
Safdarjung
Sana
Souza
Thana
VIP
basketball
bestowed
bow
costlier
deduct
dishes
dispossession
emoluments
experimental
grapes
habeas
habitat
i10
imminent
incurring
insertion
oversee
preamble
premiums
ratios
rebutted
slaughter
slumped
sweets
vexatious
viruses
##ning
239
2500
341
364
Bhargava
Colour
Darshan
Deb
Double
ECB
Gita
Jawa
KBC
Laundering
MCC
Meet
Munger
Municipalities
Nisha
Raymond
SAP
STAR
Subrata
Superintending
Tirupati
Violence
Workmen
YES
alien
announcements
authored
cardinal
cheapest
consultants
coup
dependents
devastating
disallowed
dominance
dumped
grouping
inflow
officiating
pitted
reader
responsive
solved
squads
stuff
suspending
thigh
warns
##ford
##ks
218
232
Baloch
Banaras
Bidder
Bindra
CS
Hema
Jupiter
Kund
Le
Pan
Rawalpindi
Scientists
Toronto
Vijayan
adjustable
bhp
boating
conjunction
defaulting
defensive
dispatch
distributing
drums
embedded
embodied
evolving
exhaust
exited
headquarter
likewise
literacy
mitigate
retaliation
shaken
sir
splendid
sporty
strained
transferor
##dy
##wadi
246
630
Amidst
Ashton
Biswas
Brathwaite
Camera
Fortuner
Grants
Hamilton
Ibn
Jakarta
Khaitan
Lane
Mangalam
Peer
Replying
Shruti
Sonowal
Spokesperson
Swarup
Treatment
VILLAGE
Vineet
bean
bomber
catching
defaulters
deteriorating
devised
earphones
endangered
ensued
inimical
legitimately
mammals
organisers
pale
patents
perpetual
photoshoot
recital
reconsideration
suppressing
teammates
tread
##AL
##TH
##ath
##lla
1939
1946
241
264
520
Balram
Bora
Extension
Exynos
Feroz
Haji
Hubli
Kundra
Mandamus
Medina
NCDEX
Niwas
PG
Prayagraj
RLD
SSR
Seeking
Tajikistan
Telegraph
Thereby
administrators
believable
bi
chairmanship
checks
commenting
constitutionality
cord
courtesy
documentation
documented
exile
extraction
failures
fires
fundamentals
incompetent
kilometer
lacked
originates
palaces
patented
polythene
pounds
resigns
retiral
roadmap
slept
solo
tampered
unmarried
unsecured
weaken
##é
263
Admiral
Agro
Azamgarh
Band
Chetan
Chile
Close
Commandant
DDA
Darbar
Fatehpur
GO
Moore
P40
P5
PP
Panthers
Pentagon
Presidents
Rakul
Saheb
Shanker
Sharjah
Shirke
Shubman
Suffice
Sundaram
Supaul
Tamils
Zia
bachelor
backlash
bathroom
ceremonial
cleanliness
cordoned
discernible
dividing
doping
foray
frustration
gradual
hammer
inflammation
ld
liberalisation
manufactures
marketplace
niece
override
planting
playback
radar
refresh
shipments
statistical
telecommunications
warming
##ue
625
A6
Accountants
Aircraft
Ancient
Aprilia
Beer
Brent
CHITRADURGA
Challenging
Cooper
Dhan
Enron
Hart
Homes
Jazz
Liquor
MMRDA
Mono
NADA
NZ
Nasir
PA
Reuters
Sanon
Sexual
Vohra
advert
anymore
assail
beans
conception
containment
craft
debates
extremists
fatigue
favourites
forts
guitar
honesty
loud
marrying
meanings
mortgagee
notched
runway
sang
scrip
shores
stormed
strenuously
surname
surpassed
tribals
twins
unemployed
##dha
##ft
##zi
10m
274
610
Americas
Athletics
Ayan
Azmi
Ct
Fed
Gopinath
Hz
Issues
Jaganmohan
Jewellery
Khajuraho
Khurana
LC
Mal
Michel
Milind
SAD
Sasaram
VVS
Vishwa
Windows
Zayed
agitating
authoritative
blues
brakes
cake
calcium
candy
capex
chewing
construing
contingencies
dancers
fertility
hovering
iota
lucrative
patience
restrictive
separatists
surfaces
threaten
touches
tussle
whoever
wont
##ban
##chandra
##one
##palli
301
389
463
APIIC
Bail
Basant
Bhuj
Deposit
Deshpande
Diocese
Gauhati
Hot
JNUSU
Khagaria
Kottayam
Low
Malabar
Me
Narang
Nazir
OI
Payal
Pepsi
Preliminary
Rattan
Shinzo
Sudan
Yousuf
abdominal
bighas
bricks
burial
chaos
comfortably
dear
decreasing
depicts
downside
explored
faulty
favorite
fruitful
frustrate
indoor
infectious
insider
lenses
mails
negligible
nights
oozing
panoramic
periodically
preclude
publisher
shouldn
solemnized
styling
subscribed
sustainability
tenor
traces
unsatisfactory
whisper
##gram
##house
##out
##pet
##well
##zed
266
271
322
409
AGA
Borough
CDMA
Chasing
Draft
EMD
Exh
Garhwal
Gopalganj
Literature
M30s
Motihari
Posco
Prison
Ramji
Rohanpreet
Sapna
Shikha
Simon
Stalin
Stores
Using
Ved
Vir
agriculturists
bite
cellular
chicken
chocolate
click
coldest
counterfeit
crowds
destructive
dialogues
diluted
drafting
dragging
efficiently
exploit
facial
flour
grazing
herewith
highlighting
macroeconomic
nab
occupies
phenomenal
posture
praising
regained
takeover
translates
verge
भी
##ED
##her
1600
269
ASG
Aslam
CVT
Cathedral
Dawn
Diana
Edge
Jasmin
Jinnah
Kar
Lines
MHA
Malini
Milkha
PB
Partner
Poddar
Premium
Rupee
Seeing
Spy
Textiles
Whats
ZS
accidentally
alignment
anomaly
atomic
barriers
beats
biodiversity
birthplace
boosted
boot
boxers
capt
clay
compounds
confidentiality
cremation
definitive
gaming
granddaughter
grocery
grounded
investigative
irrevocable
ml
monies
negotiating
placements
rulings
selective
soared
##bility
##ged
319
345
580
Arundhati
Commissions
Dabang
Dispute
Faizabad
Gems
Ho
Janjgir
Kulbhushan
Mahant
Murmu
NPS
Nathu
Nm
Noon
Palghar
Pujan
Tobacco
Wade
Way
Witness
abatement
airspace
anytime
blanket
chairs
conjoint
contracting
dances
dent
dioxide
disappeared
ecological
employing
estates
explosions
fastened
fibers
flags
gangrape
hydro
implicating
intensify
ion
irrigated
landlords
malafides
polio
prosperous
races
reckoned
revolver
slab
strengths
suburbs
synonymous
tanker
turmoil
unhappy
uninterrupted
warriors
willful
##gal
##istic
##ker
##om
##ver
296
334
363
475
504
ABVP
ADD
AGP
Above
Adjudicating
Ambuja
Ayurvedic
Bhatapara
Brunei
CEC
CIA
Chandila
Dar
Farah
Fazal
Frankfurt
Kharagpur
Mumba
Patwari
Prophet
Rifles
Surinder
Tabu
XR
accelerated
actuated
adequacy
angles
anticipation
coarse
companions
conjectures
costly
cropped
cycles
detriment
dispense
elders
existent
finalising
flies
glad
humble
immensely
instigation
insulin
lover
medication
misusing
navy
owed
quest
refunds
supplement
totalling
utensils
writs
##ier
##oli
242
AAG
Associated
Bajrang
Bandh
Bikram
COTPA
Campaign
Enterprise
Gobind
Gulati
Hans
Hundreds
Imperial
KUMAR
Khel
Managers
Maran
Mohinder
Nishad
Nizamuddin
Objects
Pooran
Scottish
Singla
Subodh
Supporting
Suzlon
Undertaking
ambition
ankle
ceases
comparatively
culpability
dome
exploited
fraction
genus
hungry
inhabited
juristic
leviable
lions
mens
mile
nursery
obstacles
privatisation
recalls
recognizes
rings
spared
specialists
stitched
stretches
sureties
tallest
turbocharged
unite
##ess
##ons
261
281
385
Aided
CRA
Dasgupta
Erode
Haider
Jacob
Jwala
Kamala
Lawyer
Mallikarjun
Mental
Minerals
Ministries
Nasik
Nitesh
Octavia
RP
Rafael
Suryakumar
Wanted
accomplice
adjudicatory
allotting
appealable
bacterial
buzz
deducting
empowering
guarantor
impleading
invented
loyalty
nodal
panchas
partnered
pearl
premiered
prince
privately
rents
scan
shade
smoothly
sufficiency
superb
susceptible
token
vacuum
##den
##deo
##ghat
##udi
##yal
##त
860
Ananth
CROSS
CT
Economist
Finland
Gauahar
Inder
Institutional
Jaan
Jon
Kashmiris
Link
Lodhi
Mehul
Mira
Models
Munsiff
Prepaid
Raigad
Shaun
Study
Taimur
Westminster
Wild
Woakes
accountant
barrier
bash
behave
cheat
comedian
competitor
convening
dependency
determines
excludes
experiencing
hedge
importer
knees
mislead
murdering
poisonous
populated
quitting
resorts
restoring
snapped
statehood
supportive
surmises
teachings
tertiary
toured
workplace
##AN
##bo
##jit
##ju
##od
##ola
##tive
1980s
247
283
316
433
Agartala
Aur
Budh
Bull
CST
Compared
Dalal
Everything
Few
JLR
Leander
Lease
Lynch
Monastery
PSI
PW17
Passenger
Pavitra
Provincial
Ranga
Ratnagiri
Reconstruction
Representative
Younis
abode
acknowledge
administering
assisting
bangles
blacklisting
boom
breakdown
brigade
colourful
costing
defaults
encounters
feud
gunfight
heels
lateral
meagre
mess
molestation
offs
originating
poets
presidency
priests
princely
rd
refuge
remembers
showcause
spinal
trainer
tsunami
visitor
##gam
##ho
##ore
200th
294
317
337
3D
Administrator
Assad
Bandhan
Burma
Chhapaak
Chhatrapati
Circuit
Critics
DRI
Durban
GPMC
Gurunath
Heads
Hogan
Justin
Kunwar
Kusal
Marks
Paramjeet
Process
Rajnandgaon
Ramakrishna
Rathi
Savitri
Sharmila
Shrine
Statue
Swachh
Throughout
Wajid
animus
baron
bordering
civilization
congested
countrymen
debtors
eager
graft
hadith
inapplicable
intervals
interviewed
lends
log
misappropriated
novo
risky
runners
scholarship
sculpture
sectoral
slump
stretched
tenderers
thread
traits
trek
unopposed
waive
##lli
##zing
1944
1GB
1ST
293
562
Bankruptcy
Champion
Clearance
DM
Diwan
EPC
Federer
Ice
Injury
JM
Janta
Jews
Jonathan
Kagiso
Launches
Manpreet
OPPO
Operator
Pai
Sadhvi
Sangam
Simultaneously
Stoinis
Thermal
Urmila
Vihari
Volume
Yami
aforestated
amassed
averaged
beta
compounding
delight
dignitaries
disrupt
edited
exposition
feasibility
geometry
honestly
incessant
kits
limiting
oblique
offtake
ours
plight
ravaged
shortest
slabs
sourcing
syllabus
taluk
tumbled
unreasonableness
utilization
##ium
##ric
##ud
309
333
356
ATF
Amaze
Asma
Baloda
Castle
Chandel
ETF
Edgbaston
FY08
FY20
Geelani
Hybrid
Jean
Lifestyle
Mongolia
Na
Off
Politics
Sadhu
Sheet
Trafford
Udupi
adventurous
bankruptcy
biology
codes
compensatory
concessional
desertion
downturn
exaggerated
futile
gay
ghat
gradation
indefinitely
informs
infringing
interface
labourer
meticulously
mourning
muted
reclaimed
solemn
streamed
uniformity
##ance
##ā
Antigua
Bishop
Blair
CAB
Canal
Dynamic
Fuel
Gary
Haldia
Hours
KRL
MCOCA
MTV
Person
Return
Rita
Ronaldo
Sangakkara
Unadkat
acids
annexure
annulled
belatedly
bother
clusters
clutches
cocaine
corn
covenant
defences
diagnostic
dismal
encroachers
espionage
essaying
evade
favours
float
gaps
handful
haste
internationals
lightning
nucleus
observance
packaged
pragmatic
ratified
recordings
resistant
rightful
scarcity
stature
terminals
unexpected
नहीं
##DC
##back
##lan
##nu
016
236
289
4500
502
Aruna
Barmer
Bhoomi
Binod
Bomb
Chappell
Etios
Husain
Jofra
Karnal
Libya
Marvel
Merrill
Nariman
OA
PR
PSLV
Physics
Ramchandra
Sadak
Serena
Taran
Textile
Wood
acquiescence
agony
albums
benami
blend
chambers
committal
conspired
drying
encroachments
facets
ghee
glasses
harder
ke
laser
lite
manure
patron
pillow
presumably
pulse
pumped
scalp
shipment
sourced
sportspersons
staggering
superhero
toto
transporter
widened
yielded
##lia
##ral
##shwar
##wani
259
314
417
510
960
ACP
AQI
Aurangzeb
Balbir
Budgam
CFSL
CRL
Cong
DVAT
Dada
Dying
FY19
Flying
LLP
MSI
Neelam
P8
Panchkula
Pratibha
Sangeet
UTV
afterthought
bereft
billionaire
bloodstained
bothered
broking
choppers
cosmetic
dazzling
debentures
deleting
detain
gunny
herbs
impacts
intrinsic
jumps
multilateral
pathway
physician
ply
postulates
projecting
qualifier
quantified
rifles
saves
severed
thyroid
treason
verse
warfare
wiped
zonal
##lin
##nia
##pat
1945
268
308
366
765
Bajwa
Birth
Detaining
Duster
Etawah
Everest
Fans
Gallery
Gayatri
Har
Headmaster
Hurriyat
Lance
Licence
MPID
Marshall
Mithun
Phoenix
Sansthan
Seemandhra
Shiromani
Telecommunications
VP
Viswanathan
Whoever
alternatively
analog
captained
corrections
dashed
debuted
depot
distinctly
dysentery
elapsed
facilitated
flames
fortune
inferences
inland
locking
mighty
motives
nomenclature
noticeable
partisan
preserving
radius
rea
remind
shake
shooters
sickle
slopes
spouses
stigma
subscribe
supporter
treasurer
utterly
vacating
valuer
##IL
##berg
##dih
##fa
##gy
##wi
AN
Anne
Anoop
Carey
Consulting
Crysta
Dalai
Devaswom
Equipment
Foods
Gagan
Ganjam
Hooghly
Increase
Jaydev
KSRTC
MAIN
Magadh
Munro
Nandi
Nizamabad
Ombudsman
Patan
Ports
Put
Q4
Retirement
Richards
Silchar
Source
Spider
Thakore
Warangal
adjustments
animosity
athletics
bourses
confrontation
connotation
custodian
dad
debutant
deeming
diplomacy
dozens
edges
enlarge
facet
hometown
industrialists
kid
kidneys
loyal
notifying
opting
ordination
organism
outsiders
payout
plasma
portray
quarterfinal
rhythm
sequences
theaters
transmit
twist
unwilling
##board
##ika
##jee
##lly
##pi
355
405
452
910
AR
Analyst
Assamese
Awas
Basin
Chacko
Chakra
Chemistry
Concept
Ferguson
Handwara
Jyotiraditya
Khobragade
Latur
Maken
Messi
Monu
Mysuru
Parikh
Period
Pfizer
Plans
Previously
Puran
Rajdhani
Round
Salt
Sattar
Scorpio
Shabana
Solan
Sridhar
Supervisor
Travel
Trusts
VoLTE
appoints
camping
caption
conspicuous
corrigendum
digestion
elbow
faction
feeder
forfeiture
garbage
godown
grabbing
granite
horizon
hurting
hygiene
lac
lord
optimism
partys
periodic
purporting
scrapping
sincere
trafficking
uproar
##ati
##dan
##wad
231
276
277
410
467
8A
Abhinandan
Activities
Actors
Ayushman
CLB
Calling
Chintoo
Colombia
Exts
HMSI
Innovation
Kanimozhi
Karmakar
Malda
Mehmood
Sopore
TRP
Thrissur
USL
Written
advent
arresting
aspiring
bet
confiscated
convocation
curtail
divert
donors
drunk
entrustment
fossil
hereinbelow
identifies
inflict
insists
juniors
kicks
lean
linear
maid
pin
ponds
portrayal
suppress
vengeance
weighted
##khan
##vati
18W
267
339
ASJ
Alan
Already
Angela
Assocham
Bareli
Bechara
Braking
CFO
Chandrachud
Charity
Dated
Diego
Facts
Haqqani
Herald
Iceland
KC
KPMG
Katju
Larger
Lawrence
MM
Mexican
Minutes
Mutt
NITI
Nidhi
Noting
Paribas
Ponda
Rajpal
Ravana
Satara
Securitisation
Shamim
Vanaspati
WagonR
Waugh
Wireless
advisable
amicable
bans
commensurate
compassion
crackdown
cremated
dengue
depart
digits
dubious
emotion
evidenced
focussed
holistic
imprisoned
knowingly
mayor
novelty
plateau
poses
provisionally
rickshaws
scrupulously
seating
semester
specifies
subtle
theoretical
troubles
uniformly
लिए
##Q
##ik
##tta
1932
282
395
435
Carolina
Certainly
Cities
Congratulations
Deve
EVMs
Edited
Eye
Fani
Ghana
IBC
Kadapa
Loan
Malwa
Manisha
Munde
Navin
PENSION
Princess
Sarovar
Studio
Sukhbir
Thomson
Uthappa
Vienna
Vimal
Would
afflicted
assumptions
automated
bulletin
caretaker
clashed
collaborated
consented
correcting
crackers
defiance
deserving
disciplined
dynamics
encouragement
farmhouse
foiled
footwear
forks
levelling
mandatorily
marathon
mortar
outlined
planets
raging
suitably
tutored
worries
##RA
##dia
##kal
##tti
343
468
670
690
Bruce
Ch
Chamba
Desert
Eco
Hinduja
Mahasamund
Manhattan
Merkel
Networks
PSC
Peru
Pope
R2
Rayalaseema
Registered
Richa
SFIO
Sartaj
Savings
Sengar
Sudha
Sukhna
Uttarkashi
Virbhadra
YS
Yemen
absconded
accuses
apprehensions
cautiously
chipped
clouds
corrective
declarant
dedicate
defunct
denotes
deterrent
dirty
enthusiasts
gateway
grades
grenade
hemorrhage
hood
hopefully
hymen
ligature
middlemen
niche
nurse
onerous
proclamation
prospectus
redress
restructured
rooted
saree
severity
shells
talaq
timber
tips
tolerate
tumor
unfettered
urea
vowed
##be
##logy
##ving
357
540
75th
777
980
BJPs
Better
Brad
Bradman
CAT
Carnival
Carter
Charges
Founder
Inquest
Judiciary
Khata
Khosla
Kirloskar
Malay
Massachusetts
Mehsana
OM
Rane
Reader
Siddhartha
Supergiants
UltraTech
Universe
Wuhan
abetting
accumulation
advising
aids
analyze
budgets
bypoll
campuses
charm
crossover
defer
demon
designers
divulge
elaborated
expeditious
expressway
frames
fronts
fulfilment
haemorrhage
hearings
hefty
impropriety
managerial
massacre
minded
moreover
peninsula
pools
presumptive
recoverable
ruined
shoots
sunlight
teenage
tracked
translate
trespasser
undertakes
vicariously
##oor
##tis
##wati
##क
253
287
414
AA
Ajmal
Bolt
Chamoli
Chandrashekhar
Constables
Deepti
Doing
G70
Impact
PW14
Plateau
Plc
Pran
Raghav
Sengupta
Shahpur
Shobha
Siva
Sreejesh
Su
TVs
Veerappa
Yechury
Yogeshwar
adjusting
agriculturist
bounced
chips
condoled
congestion
containers
creator
deter
disk
distinguishing
embarked
emphasise
ensemble
expire
forecasts
hang
kitty
lethal
nails
origins
ors
parole
poised
prevalence
regularize
residences
scanning
slope
snake
societal
stellar
summarily
tapping
ugly
uncommon
undermine
##pe
537
BDS
Bathinda
Butt
Cantonment
Dhamtari
Durairaj
FIH
FY21
Firm
Flight
Half
Huma
Lanco
Living
Nestle
P10
Raigarh
SL
Shivpuri
Southee
Terrorists
Wheat
accrue
altering
blaming
cognisance
cognitive
condemn
confine
dawn
decreases
depicting
flowering
garlic
grudge
humbly
industrys
instability
legislate
microphone
misled
mosquito
outflows
outsider
owe
plantations
poorly
reshuffle
shocks
springs
wedlock
##era
##jeet
##ung
318
398
Angur
Anju
Batman
Bush
CJM
CPU
Deepa
Gaur
Giriraj
Hanuma
Hazrat
IOCL
Idukki
Internal
Jeff
KM
Knowledge
Legislation
Majhi
Meaning
Offers
P9
Pe
Pennsylvania
Quetta
Remember
Revised
Stay
Taipei
Tipu
Tournament
Vasant
Wikipedia
assurances
blindness
blistering
bravery
cloths
clue
coveted
devotee
encompasses
freeze
gems
gen
generator
handicapped
inadvertently
incoming
innovations
insect
lips
nurses
outgo
overlapping
petty
relinquishment
reproductive
revisions
scribed
secretly
shame
sneak
teenager
undisputedly
##ating
##ees
##ned
##san
##sen
331
367
505
799
Bang
Bhaiya
Bhattacharjee
Bimal
Bobde
Bt
Buddhists
CVPP
Cadila
Equally
FY10
Factories
Fernando
GPSC
Gopi
Hazlewood
Howard
Iraqi
Jeevan
Jerry
Korba
Material
Murray
PVR
Siachen
Snow
Spencer
Term
Thousand
Trinidad
Tyres
Wahab
Wife
backbone
backwages
constitutionally
contributory
dereliction
displeasure
encashed
entails
glacier
grading
hamstring
hectic
ideological
interrupted
joinder
luggage
mechanics
motivation
probationer
promotes
rebate
recruiting
redeem
seamer
secretariat
sorted
summarised
throws
warrior
##bly
##kh
##nga
##pora
027
1100
1925
362
374
438
705
70th
8000
ADB
AMTS
Anirban
Ball
Batting
Bio
Coalfields
Condition
Deepmala
Deshraj
Eric
Fraud
GD
Konkan
Laden
Monitoring
Morocco
Munjal
NAGAR
Owing
Pin
Plate
Plaza
SAT
Save
Speed
Tariff
Telephone
Thalaivas
advocated
atop
boarded
breadth
buffalo
bullock
carving
conceding
crashes
cultivate
debated
dismisses
drones
firearms
folklore
forbidden
freed
fundamentally
glorious
harmonious
infuse
learns
legitimacy
leopard
mortgagor
occasional
recognises
spree
stunned
stylish
tightening
tola
unfounded
unlisted
voidable
withhold
##ct
##ek
1920
1970s
Grasim
Lotus
MRF
Malala
Mali
Matte
Mbps
Megastar
Mustafizur
Palestinian
Pratapgarh
Representation
Sanu
Sixth
Spirit
Sumitra
Superior
Trustee
WWF
abandon
aka
apprentice
careers
centered
complexes
cracked
dish
emphatically
garment
implead
insurgency
journals
lanes
majestic
metros
neighboring
nutshell
oust
pertained
pleads
rebound
recommends
regulates
reservoirs
residuary
rift
serene
sheep
stoppage
stray
suicidal
surveyed
tractors
trespass
utilize
warehouses
##TA
##ably
##cing
##kara
##kin
332
352
543
Adhyaksha
Aly
BETWEEN
Bankers
Brokers
CIC
Chandni
Chittagong
Decree
Desam
Dumka
Eijaz
FFC
Gali
Giridih
Guddu
Hetmyer
Jacques
Juhi
KYC
Kr
Liberty
Mazumdar
Munshi
Mussoorie
NC
Payments
Pithoragarh
Prima
Schemes
Sindhi
Sole
Som
Tamboli
Thapa
Wellington
ads
blown
competitiveness
dishonour
dope
favouring
finalization
fortunes
frontline
germane
ginger
meaningless
multiplicity
municipalities
organize
pp
punishments
selfies
terrible
wagers
waterfront
whims
workout
##ard
##eswar
##halli
##ld
##mo
##म
120B
312
371
590
Ara
Bhupathi
Britannia
CAS
CWG
Cable
Cadre
Christopher
Clean
Dealers
Feeling
Instructions
Jayaram
Junaid
Kot
Kothi
Kurien
Lohia
Medal
Nana
Odia
Ohio
Premji
Program
Rank
Reading
Revisional
Sahoo
Shivakumar
Situation
Sq
Srinivasa
Tanzania
WATCH
Wagon
Waqar
accurately
advantageous
advertisers
bottling
broadcaster
clandestine
convener
creature
cumulatively
curve
customary
evacuation
exploded
flaunting
fortunate
freestyle
installations
intimidation
lyricist
mediator
mulling
mythological
nd
northwestern
pads
pious
poles
raiding
recitals
remedial
remission
resembles
rods
shapes
soybean
studded
trunk
vein
waqf
देश
##12
##che
##des
##gate
##ong
##und
##wari
##ना
1897
379
403
455
495
Bhatnagar
CTC
Com
Confidence
Could
Dowry
Employee
Fit
Georgia
ICAI
ICDS
Jose
Known
Kolar
Krishnamurthy
Legendary
ME
Maxis
Mumtaz
Muralitharan
Najeeb
Panna
PepsiCo
Roll
Sahay
Sambalpur
Sarfraz
Shahjahanpur
Sivan
Subhas
Swan
TS
Tamilnadu
Tesla
Titan
Wills
absolve
anus
avoidance
bats
cables
calculate
colorful
contenders
countenanced
creatures
deceptively
displaying
divisional
epidemic
expires
farsa
gist
guarding
handicrafts
irresponsible
oppressive
oz
pendente
penis
postgraduate
renovation
respectable
sewerage
shoe
shy
sim
spark
spat
thwart
timed
traceable
villager
workshops
##HA
##kan
##po
##rai
386
680
Asad
Banu
Battalion
Bhupesh
Bible
Binny
CO
Chair
Chan
Chiranjeevi
Clark
FEMA
Fatima
Historically
INC
JLF
Jalan
Kohima
MFs
McCullum
Never
Novak
OWP
Parvez
Peon
Powell
Pritam
Savarkar
Secunderabad
Shravan
Status
Teams
Telenor
Tina
Tuticorin
Undertaker
Warsi
Wholesale
Yellow
adorned
aerospace
amplitude
appliances
bargaining
bell
da
decay
embarrassment
fencing
flooding
glance
gruesome
handsets
harvested
healing
informer
jaggery
leakage
lobby
minors
mistaken
modalities
neighborhood
pockets
prestige
protocols
republic
rpm
simultaneous
spearhead
spurt
submarines
telecommunication
temporal
towel
trolled
unlock
unrelated
warranto
##eer
##yam
278
338
347
418
585
Adilabad
Akmal
Aluminium
Bailey
Barclays
CBS
CORPORATION
Cannes
Celerio
Clerks
Diageo
Faisal
Finding
Gordon
ICJ
ITI
Insaf
Jerusalem
Johri
Kanwar
Krishnappa
Kurnool
Liam
Namibia
Nonetheless
Omprakash
Papers
Papua
Prisons
Purnima
Ramachandran
Ramana
Rohith
SIAM
Senator
Shailendra
Step
Tamim
Toiba
Turbo
XV
acquit
annualised
assemblies
authorize
balances
beleaguered
calories
clarifies
contours
crush
digestive
disastrous
distances
educate
embrace
erring
extremism
forefront
headline
impart
injurious
inquiries
insight
judging
kilograms
knockout
leisure
linguistic
loads
negated
onward
quintals
remembering
retreat
routed
sage
sewage
thankful
wasnt
##din
##nand
##su
1941
286
451
476
747
Arshi
Aurora
Bharuch
Books
CPM
Damodar
Datta
Dipa
Dogra
Exchanges
FY11
Fiber
GSK
Ghar
Hukum
Initial
Mahagathbandhan
Meira
Michigan
Rajyavardhan
Raw
Sarita
Shimoga
Sohan
TPO
Uddin
Vemula
Wadhwa
abrasion
antibodies
artillery
beef
bereaved
bookies
charger
condoning
controller
curiae
deaf
debarred
descriptive
emphatic
expiration
expulsion
favorable
fireworks
frontal
garments
grandeur
hesitate
instigated
judicious
lawmaker
leagues
lecture
mist
narrate
pacers
passports
patch
pine
rage
requisitioned
resemblance
sixteen
socialist
thirteen
tying
##aj
##nam
##the
##ville
125cc
291
321
383
530
Bari
Brigade
Chowkidar
Doha
Dow
GoAir
Gunjan
Haj
Hira
Jamal
Jogi
Khaleel
Kinnaur
Kodiaq
Kshetra
MK
Maharana
NHPC
Offence
Presenting
Returns
Ritu
Rolls
Saket
Shambhu
Shantanand
Shimron
Sree
Stating
UNGA
Vento
alliances
amalgamated
animation
arrivals
biography
breed
cope
decoration
dispensing
dominating
economical
fallout
horsepower
hyper
inoperative
insignificant
keynote
kilogram
laptops
levies
mammoth
menstruation
morale
pains
patriarch
pave
peril
reluctance
researcher
retaliated
scripted
sizeable
sorts
spectator
spirits
subjecting
thrashing
turbine
unreserved
villain
##NA
##day
##deep
##dh
##ī
434
501
911
Autonomous
Barabanki
Beverages
Bharatpur
Bin
Click
Coach
Continuing
Cum
Dharmshala
Documents
IG
Imtiaz
Inspection
Jamui
Java
Johnny
Kaimur
Kannauj
Kanti
Kendriya
Lenovo
Metallic
Mona
Patrick
Prabhat
Ratlam
Raveena
Registers
Rijiju
SEZs
SPP
SRO
SSS
Sonet
Song
Statements
Surjewala
Tanhaji
Treasurer
Veda
Zaman
Zinc
ambitions
arteries
bombings
branding
bundled
buttress
caries
centrally
cleaned
cousins
deterioration
environments
exigencies
homeless
ideals
instantly
mafia
meticulous
modesty
modus
monks
monsoons
oversight
parietal
populous
privy
quadcore
recipients
recount
retires
scare
scrutinised
staple
stems
viscera
widest
##18
##ration
002
328
488
Almora
Banka
Bipasha
Bisht
Blake
Brahm
Bronze
Chase
Consequent
DK
FY18
GPA
Gond
HOUSE
IED
ING
Ismail
LS
Mojo
Month
Nellore
Norwegian
Oliver
Opposite
Puneet
RILs
Rinku
Screen
Sutaria
Tehrik
Transportation
actionable
adjournments
conspectus
contradict
demonstrations
depict
dung
geography
gum
induce
jails
leaks
leasing
manifold
miners
pistols
plainly
proportionality
realizing
restive
standings
sunrise
temperate
tranquility
transporters
unchallenged
wondered
##15
##UR
##ans
##has
##hra
##par
##uk
##work
563
760
787
995
Accepting
Amongst
Atomic
CPCB
CRP
Consolidated
Deva
Emerging
Farsa
Ghazipur
Guardian
Haque
Holkar
Irda
Islamist
Joginder
Kalinga
Khalifa
Kicks
Kya
Lynn
MMOPL
Narcotic
Natasha
Opening
Pakistanis
Sikandar
Singur
Sonal
Vaishno
View
abbreviated
bhai
cannabis
circumscribed
commandos
competency
concealing
cordon
disrupting
eliminating
enrichment
exparte
funny
governors
hawkers
imaging
immoral
insulted
logs
malaria
museums
needful
noble
nut
oblivious
obstructed
oilseeds
pari
petitioning
pilgrim
plethora
practised
precaution
principally
protestors
restart
rocky
salwar
sanctorum
screened
secretion
settings
slowest
stealing
storied
substituting
succinctly
supervise
tightened
unearthed
vitiates
worded
wrap
##20
##agar
##kot
##nts
##than
##ves
279
416
485
ATP
Aeronautics
Aid
Alice
Anandiben
Australians
CPF
Citing
Dancer
Dish
FAO
FPIs
Famous
Fatehi
Globe
Golf
Goni
Gulshan
Islami
Jagmohan
Kwid
Lahoria
Lamborghini
Lino
NBC
Nabisa
Nadiadwala
Rescue
Ruia
Saraf
Shop
Sound
Towards
Trauma
affirming
alarming
amicus
arches
arranging
choreographer
clerical
coriander
extant
foundations
gloves
heed
helpline
hormone
imaginary
inflammatory
infraction
interventions
irretrievable
jungles
mantra
muster
nonetheless
organizing
penultimate
purpuse
relaxing
remittance
robbed
saddened
semis
sine
spice
surpass
switching
tagged
tranche
triangular
uncalled
uncertainties
underworld
##cal
##ese
##ily
##sai
##ता
348
351
426
445
525
Aaj
Azharuddin
Bhadra
Boys
CVC
Cane
Conversely
Cups
ECI
Empowerment
Everybody
Examinations
Finals
GPF
Gangtok
Guleria
Judgments
Latham
Lincoln
MANAGING
Maradona
Missouri
Mozambique
Munsif
Mushfiqur
Phogat
Prada
Prasar
SINGH
Sahitya
Shalini
Shops
Sitapur
Superman
Tab
Turning
Unani
Yi
absurdity
adhering
antibiotics
coking
competes
console
deliberated
depiction
discoveries
diving
drunken
estranged
fancy
fringe
graphic
helmet
humidity
inflated
irresistible
martyr
metallic
modernisation
normalcy
observes
opposes
organisational
participant
paste
pause
peaked
permissions
rebellion
repelled
residual
retirees
rigor
spells
stale
survives
usefully
volition
wipe
##11
##40
##ow
##ten
##time
1936
238
284
344
346
35A
391
427
511
Amjad
Baghel
Berhampur
Bhima
Bike
Catherine
Coke
Comedy
Coupe
DIRECTOR
Delivery
Fine
Hopefully
Hungary
INDIA
KN
Kurukshetra
Mallika
Marazzo
Multiple
NBFC
Panchal
Parbhani
Proviso
Queensland
Rajasthani
Regiment
Shaktikanta
Sumeet
Unveiled
acquaintance
aides
ashes
babies
billionaires
breaches
brush
canals
clinics
crises
destroys
discourse
disregarded
divest
enjoined
famine
foothills
godman
graphics
gym
hampered
identities
impacting
infused
intoxication
lading
mountaineering
netizens
officio
pad
paralysis
passionate
paving
peon
prepares
projector
provocative
quarry
quits
salutary
salute
seldom
showcases
submerged
symptom
trans
unturned
warehouse
##az
##bu
##ky
##ved
1934
ADAG
Assistants
Athens
Authorized
Beas
Beat
Benefit
Dantewada
Delay
Deloitte
Dimple
Dube
Dynasty
Failure
Flag
HIGH
Hitting
Huge
Khadi
Majlis
Mubarak
P7
PSL
Potter
Practice
Processing
Pw
RJIL
Ramdas
Raval
Rejecting
Riding
Salve
Satta
Shailesh
Shalimar
Sierra
Sikri
Solapur
Strike
Sultanate
Traditionally
Untold
algorithm
aligned
anthem
attaches
balcony
bride
categorized
centenary
conditioned
conspiring
contaminated
controverted
downloaded
duck
equals
fatty
functionary
fusion
glands
guides
hasnt
incarnation
indiscipline
inflationary
lash
linkage
midway
mute
occupier
okay
orderly
paisa
reciprocal
senses
sensible
separating
similarities
singular
smile
spate
supervised
surround
survivors
telescopic
ulcer
unfilled
unveils
verticals
watches
welcomes
worrying
##YA
##val
##zation
329
40th
421
74th
930
AITA
Agent
Agreements
Allied
Asserting
Auckland
Briefly
Bulgaria
COLLEGE
Cost
DRAT
Dushyant
ESIC
Electricals
Gandhiji
Glenmark
Indiana
Istanbul
Janardan
Las
Magnite
Mala
Mar
Mechanical
Mendis
Mouni
Munich
Nag
Nagarjuna
Parakh
Qadri
Rabri
Raheja
Rajshahi
Sammy
Simmons
Takht
UI
Urvashi
Vidisha
Viewed
Wockhardt
advisors
alterations
alternatives
anonymous
apparatus
apprehending
asylum
castor
communicating
conditioning
congress
convenor
corpse
delete
delicate
diaspora
dilute
downgrade
essay
evict
expansive
fervour
imparted
indispensable
infantry
lawsuit
lectures
minted
mw
narcotic
paved
peruse
praises
purse
reinforced
repeating
ribs
scanned
sharers
shine
shipped
successors
superintendent
supposedly
theatrical
tubes
##apur
##ses
##so
##veer
##wat
1923
4000mAh
521
545
575
595
ABC
Allianz
Attari
Benefits
Bilateral
Bodhashram
Bodies
COO
Campus
Creditor
DEPARTMENT
Deoria
Digvijaya
Directive
ELSS
Economy
Executing
Flash
Give
Gods
Gokhale
Graeme
Jajpur
Jalpaiguri
Krishi
Lahiri
Licensing
ML
Meteor
PETITIONER
Periyar
Phalke
Profit
RFQ
Rajahmundry
Salav
Shadab
Uganda
Undisputedly
Valmiki
Wadia
Weather
Zaveri
affiliates
allocate
anterior
backwardness
ballots
banners
bent
broadcasters
bureaucracy
commentators
concessionaire
confront
contemplating
contradicted
conveying
disagree
downgraded
engagements
fond
hindrance
indiscriminate
libraries
monarch
myth
nationalised
newborn
nil
ninety
obstruct
passages
perfected
potassium
profiles
prominently
raked
reliant
rentals
revising
toe
valour
vendetta
viewership
withdrawals
##hood
##patti
##yar
##zer
327
378
423
457
522
571
9611
ACR
BE
Ballari
Bhagirathi
Biyani
Burman
CAC
Chhota
Clinic
Coastal
Conclave
Coordination
Docomo
Durgapur
Ganj
HHC
Habib
Inzamam
Jagadish
Kalra
Munni
Rabindranath
Researchers
Rizwan
Rohatgi
Sangeeta
Sevak
Shettar
Soumya
Spirits
TN
UIDAI
Vaani
WK
addiction
admired
anyway
ascribed
aspirants
authentication
avalanche
backside
betterment
biotechnology
buttons
capturing
characterised
coil
commentator
compression
concerts
construe
contender
derailed
dilution
discriminated
drowning
escalated
fantasy
favouritism
grossing
grouped
harness
imbalance
infamous
inquiring
intendment
jersey
lecturers
mint
mobiles
mtrs
negatively
omnibus
pensionable
perennial
prolific
purposive
realising
renovated
reserving
secularism
shattered
superseded
tackling
visually
viva
wrestlers
##21
##ence
##gh
##im
##raja
##wise
437
605
BWF
Brien
Bugti
Bundelkhand
CL
Cruise
Cruiser
Darga
Dedicated
Dua
Edn
Getting
Gulmarg
Helmed
ILR
Jahangir
Juhu
Jurisdiction
KECML
Kallis
Kalyanpur
Khwaja
Leaving
Majority
Manikarnika
NI
Nagaon
Package
Palestine
Patni
Poor
Prabhudas
Produce
Purana
STC
Siemens
TVC
Vandana
Viral
Virginia
Zoya
Zuma
abovesaid
activated
barrels
baseball
bigha
blade
boiling
cardiovascular
compromising
conferences
deepen
derogation
dirt
downstream
eMMC
encrypted
facelifted
factions
filter
fragile
heightened
hors
hypothetical
inked
inserting
labelled
manned
mesne
ministrys
obey
rampant
recreational
refineries
resettlement
roam
stripped
trademarks
ultrasound
unaffected
unsound
watchdog
withstand
##ING
##au
##ile
##ndra
##pada
489
7000
770
845
Aurobindo
Azim
Biocon
CDs
Carl
Charlie
Comprehensive
Dealing
Drawing
GSPC
Hardy
Hughes
Important
Jayam
Jitender
Jitu
License
Machine
Mahinda
Malang
Merchant
Mitsubishi
Mughals
NCA
Netanyahu
Nilesh
Onion
Photo
Qualification
Rabi
Rape
Richter
SK
Saw
Shahabuddin
Sheldon
Sriharikota
Tigga
XIV
additionally
apprehend
attains
benefitted
bulls
certifying
combinations
cult
del
dialect
discourage
divisive
electrification
emphasize
entrepreneurship
estimation
frontier
furnace
geographic
ghats
gunmen
headlamp
humiliation
hurled
incumbents
insecticide
knocks
largesse
mate
maternity
mediators
obscene
paternity
pillion
predominant
presuming
reaffirmed
reigning
revolt
roadside
sandstone
signifies
soda
spinning
sponsoring
startup
summed
threatens
vivid
voluminous
wishing
worms
##13
##AR
##bed
##ius
##nder
1653
336
497
780
AIBA
Abbott
Beni
Burns
Buzz
CESTAT
Ceiling
Chandimal
Civic
Cyprus
Dahiya
Dalmiya
Endeavour
ICAR
Independents
Infratech
JMFC
Jagdalpur
Jani
Jatin
Jats
Junagadh
Kesari
MAT
Macron
Malegaon
Mewar
Mhz
MoS
Naina
Orthodox
P22
Paine
Paints
Radhey
Rasool
Rishikesh
SAI
Salunke
Sarbananda
Scrambler
Sonali
Thakkar
Vij
WPC
Zampa
anemia
approximate
beau
benches
breaching
camouflage
chassis
determinative
distorted
encourages
firming
forge
friction
gambling
hilarious
hypertension
laughter
lime
lotus
maestro
periphery
philosophical
referendum
refrained
reiterates
repugnant
rounders
seemingly
shootout
sibling
southwestern
sperm
spleen
standstill
treasure
trims
unduly
weaknesses
एक
##ira
359
412
459
586
920
Archana
Associations
Ather
Bahl
Bhilai
Bigha
Examples
Guyana
Hostel
Jericho
Jethmalani
Kennedy
Lad
Murshidabad
NET
Nord
Opp
Pandavas
R3
Raghu
Rajghat
Run
Sanchar
Subramaniam
Udyog
Vaibhav
ache
ancestor
annulment
appointee
assaults
authorise
bets
biscuits
busiest
cessation
collided
conceal
consignments
costume
departs
downwards
endowment
engulfed
fathers
forging
goats
gorge
guarded
hasten
henceforth
hints
humiliating
impartiality
impetus
inducement
intoxicating
latitude
lavish
magical
mom
mooted
muscular
nicknamed
payer
perpetrated
practising
proxy
saliva
scrutinise
scrutinizing
snakes
stadiums
tasked
taxpayer
ticketing
useless
##16
##tone
##ware
##ने
035mAh
297
408
940
AUTHORITY
Alvi
Approval
BA
Chittoor
Choubey
Citizen
Consolidation
Crisil
Dattatreya
Dhoom
Diwedi
EWS
Fakhar
Fortunegiants
Ghani
Harbour
Indisputably
Inviting
Ira
Jains
Janshakti
Kosi
MIT
Michelle
Nahan
Need
PW18
Parker
Punj
Rashtra
Retd
Rourkela
SSC
Saleem
Southampton
Stability
Stations
Sushila
Tehreek
Temporary
Tinsukia
Venkata
Victim
affluent
anomalies
belly
bubble
colon
converts
cracks
disburse
eighteen
essays
exorbitant
extinct
flawed
fury
goddesses
harbour
havens
honored
horticulture
hubs
impending
inaccurate
inconsequential
infrastructural
insulting
moderation
notorious
nuts
outperformed
patriotic
pet
philosopher
photographed
purple
reacting
remittances
retailing
revisionist
scaling
shallow
sharer
smashing
solvent
solving
speculative
spheres
stampede
straw
supremacy
telephoned
voce
widows
इस
##gu
##pore
##tt
10g
1930
394
50th
890
AFSPA
Anganwadi
Antonio
Ballia
Bangali
Banihal
Bano
Bash
Billion
Cairo
Castro
Chhindwara
Chintu
Delta
Dominar
EVs
Eicher
Empowered
Estimates
Fitr
ISSF
Interceptor
Kayani
LJ
Lebanon
Lenders
Luke
Neesham
Newton
Nomura
Outlook
OxygenOS
Pd
Points
Ramalinga
SDRF
Sino
Spied
Stanford
Turing
Urjit
WA
affirm
chess
coma
conclave
consensual
contributor
dashboard
dis
disruptions
expedition
folded
forceful
fractures
goalkeeper
illustrious
improperly
inaugurating
intelligible
joke
kickbacks
logged
mapping
moneys
observer
permissive
pioneer
planner
prowess
punishing
qualifiers
respite
rioting
rode
southeastern
stockists
struggles
tin
unfolded
updating
viewpoint
volunteered
wagons
womb
##50
##adi
##charya
##don
##een
##rin
382
481
483
ADM
AFC
Aero
Allowance
BrahMos
Bukhari
Cards
Consider
Councils
Dhyan
Dimapur
Discipline
Duggal
Edinburgh
Either
Ekka
Ethics
Fertilisers
Grama
Hopkins
Itanagar
Jaunpur
Kyrgyzstan
Laos
Liverpool
Lockdown
MAJOR
Morrison
Nominated
Normal
Osama
Outside
Polish
Pradip
Ramban
Sanyasi
Satte
Scooters
Shrawan
Subsection
Surprisingly
Tank
UNSC
Virgin
Wherever
antecedent
arrack
artefacts
astronomy
bits
blowing
buffer
deepening
din
electronically
encountered
endorse
epicentre
exuded
finalists
frequencies
gatherings
guarantors
horrific
humid
incorporates
incorrectly
incursion
inevitably
invalidity
lasts
malnutrition
millet
mirrors
needle
overhead
overlooking
prevails
protagonist
regiment
reviving
rounded
simpliciter
sponge
testify
topple
unwell
varients
##17
##IT
##LA
##TC
##aan
##ada
##aya
##ori
##osis
##ship
##ui
292
392
9000
Appropriate
Arctic
Babita
Badi
Bheem
CSO
Column
Comics
Damascus
Del
Depot
Driving
EAM
Extra
FCL
Gul
Haris
Hitesh
Hitler
JJ
Kalaburagi
Kalan
Khas
Koda
MSIL
Maharajganj
Miranda
Mondal
NRIs
Nandini
PW13
Pharmacy
RTO
SECL
Sadanand
Shakespeare
WI
XVI
Xavier
amazed
artery
attaching
augment
automation
barley
cashew
castle
contexts
daytime
declaratory
deficits
degradation
differentiate
disappear
dramas
executant
exhorted
financials
generous
genres
hacking
hell
jam
manuscripts
math
militancy
mount
nabbed
nutritional
obtains
pellets
pensions
phosphorus
prediction
preferences
recycling
redesigned
relevancy
snacks
spelling
stool
strive
stronghold
takers
touted
tremors
tricks
weeping
कि
##ery
##vara
368
413
4V
673
820
90s
Amrit
Anjani
Armenian
Awasthi
Baby
Blackstone
Brahmins
Chain
Chattisgarh
Copyright
Coulter
DCC
Danny
Debut
Dhubri
Fiji
Gang
Geologist
Gorkha
Graduation
Himalaya
Jafri
Jana
KIADB
Kalpana
Karma
Layout
Lodging
MACT
Mathew
Maximum
Mazdoor
Mukti
Nagaur
P95
Pain
Pande
Panwar
Pinarayi
Pine
Postmortem
Rifle
Role
Roop
Saiee
Shahnawaz
Shamli
Steelers
Task
Terms
Terror
Tribune
Undertakings
Venkateswara
Worli
Yoddha
Zaira
abandonment
agitate
alerted
attacker
authorizing
berths
buyback
calamity
citations
colourable
deceive
depreciated
dining
dips
discomfort
ethos
exits
exotic
faithful
fats
fearing
feminist
fifties
flak
hop
hugely
injected
invalidate
lashes
leasehold
lenient
manifested
obstructing
operandi
orientation
petrochemical
practitioners
propelled
prospectively
rake
retails
rewarded
salad
simpler
speeding
strangers
stump
unimpeachable
unloading
unrealistic
validated
vehicular
vocals
volcanic
##SA
##dhi
##mati
##py
##rpm
462
535
551
740
Algeria
Aspire
Banda
Beyond
Bhanwari
BlackBerry
Buddh
Census
Crisis
DIPP
Definitely
Essel
Ficci
Firozabad
GOVERNMENT
Greg
Gujrat
Heat
Imports
Infinity
Interstellar
JuD
Kamath
Kate
Lion
Marico
Mayaram
Meghna
Mohsin
Motorrad
Mumbais
Nasheed
PAC
Pandits
Pattinson
Phool
Platform
Quota
Redressal
Sandhya
Secret
Servant
Share
Sheikhpura
Shooting
Smartphone
Suisse
Temples
Truck
Unique
WR
Zones
acceleration
adapt
bagging
banana
benefiting
byelaws
cat
championships
chanting
clicking
concerted
consignee
deadlock
desist
divested
duress
hammered
hazard
honorarium
husbandry
inched
infra
innumerable
jihad
monasteries
mould
needing
notary
overturned
paltry
perpetrator
phenomena
rationalisation
recognizing
replaces
retd
safari
secrets
soaked
tales
tele
tombs
treats
unconditionally
universally
ventilators
worsened
आज
##nan
100km
1942
381
454
Aforesaid
Andheri
Automatic
Balraj
Baruah
Boarding
CMC
Chandrika
Chatra
Daya
Dhawal
Exporters
FD
FDs
Finger
Fitch
Fortune
Gloster
Import
Indu
Lekhi
Mulla
NAV
Nasscom
Nathuram
Nayar
Notes
Nursery
PK
POI
Pataudi
Philips
Prahlad
Sample
Sept
Shramik
Singhs
Spice
Subedar
Sukhdev
Supplies
Swaroop
Variants
Vector
Victor
Zuari
ambiguous
apprenticeship
blending
braking
breathe
chapters
coat
contemplation
contests
cruiser
deepest
demised
denominations
extracting
fag
finishes
follower
genuinely
handsome
hillock
installing
interacts
intricate
jewels
marquee
mathematician
orthodox
overlap
pesticide
prototype
purports
redeemed
remanding
rollout
shelf
storing
storyline
straightaway
supervisor
swab
therapeutic
toys
traveled
tributaries
tycoon
undesirable
unequal
vans
wary
wax
##light
##ming
##ok
##res
##sky
##una
372
431
432
447
448
875
Abhijit
Across
Anirudh
Arhaan
Asthana
Baldev
Bhadrak
Brother
Buy
CDS
Certificates
Chhetri
Combined
Corbett
Dravida
Equities
Especially
Exercise
Fawad
Frozen
GW
Impugned
JJP
Kal
Kazhagam
Kharbanda
Mahaveer
Maldivian
Mickey
Narwal
Pangong
Patta
Permission
R15
Recent
Rewari
STD
STP
Sadiq
Sarvesh
Secured
Setu
TADA
Unlawful
Vegas
Vikramaditya
artistes
attire
avid
barren
beverage
billing
brotherhood
cantonment
censure
centred
classify
commotion
compatible
correlation
cryptic
cycling
dentist
dimensional
dismissals
ego
fortress
glamorous
graded
indicted
inflexible
influencing
intolerance
lag
lest
liberally
logically
microfinance
misses
narrowly
nationality
podium
presumptions
proliferation
recollect
registry
sensing
separates
shameful
shirts
slipping
surpassing
tallied
tempo
thrash
throng
tomato
transplant
underneath
underwater
uttered
##14
##are
##ata
##hai
##ians
##itis
##rani
##sk
361
402
456
466
494
516
Adhikari
Alternatively
Badshah
Balakrishnan
Belgian
Bharathi
Biology
Boman
Boney
CNY
Cal
Chaturthi
Compact
Da
Dalip
Democracy
Deora
Derivatives
Facility
Far
Gandhian
Guna
Isuzu
Jennifer
Juan
Karzai
Lahiru
MB
Mahato
Mustafa
Nazul
Param
Partition
Praful
Produced
PwC
Romania
SLC
Secular
Singhbhum
Sovereign
Un
Vora
Yorkshire
aboard
abrasions
amateur
anvil
backs
bequeathed
bolster
circuits
circumvent
communist
condemns
conquered
criticising
debacle
delimitation
demonstrating
deprecated
desirous
dreaded
editing
entitles
envisage
excavated
filthy
fisheries
heal
hoardings
humour
impairment
inherit
interrogate
intimacy
jaundice
jibe
judgeship
judiciously
leopards
masala
metabolism
needy
paths
persecution
portraying
professors
referable
ridge
saga
scalped
sour
stabilise
surging
sweat
tougher
unparalleled
unsold
wears
wording
##bs
##ena
##kant
##tech
##ters
##tte
##was
##ی
##ं
1881
373
388
396
407
477
515
542
725
APCA
Atrangi
BESCOM
Bangar
Bardhan
Cap
Cinemas
Consumers
Devyani
Dostana
Drama
Experience
F17
Gyan
Hameed
Howdy
Injured
Isha
Kingston
Mahadeva
Mahi
Mangaluru
MeT
Melania
Mercury
Mujeeb
Multan
Nishant
Nottingham
Oxygen
PCC
Palakkad
Ramkumar
Shefali
Shell
Skill
Sunanda
Suppliers
TVCs
Tumkur
Tunda
Twin
Valentine
Vrindavan
XUV300
agreeable
aiding
alienated
arraigned
arrow
backyard
benchmarks
blatant
blockade
breathtaking
chariot
cheer
circulating
con
concurred
contemporaneous
countered
dictation
endless
engraved
erect
eventual
evergreen
fluids
fuelled
gears
hamper
howsoever
inadequacy
inbuilt
instituting
integrate
jeopardy
lets
licensees
lukewarm
mandis
mankind
masters
mates
minimise
molecular
objectively
portals
premeditation
revert
shook
sins
telephony
transplantation
trolley
understandable
untrue
upgrades
varsity
wherefrom
##gs
##lam
##my
387
3A
422
572
73rd
7A
Aizawl
Awadh
Behind
Belagavi
Benazir
Bidders
Bullet
Citigroup
Come
Craig
Dell
Dewan
Dewas
Dual
EGoM
EIA
Gratuity
Hastings
Hectares
Hussey
Jayawardene
Less
Loop
MIM
Maheshwar
Malviya
Million
Naseeruddin
Nikita
Nilgiri
Palika
Palma
Posts
Producers
Protests
Rabindra
SF
Tariq
Transparency
Vibrant
WADA
Worker
advertise
amusement
awaits
battalion
binds
canceled
combining
cooperating
councils
curd
dagger
decreeing
dependant
disagreed
disallowance
divides
evaded
formulating
foster
fountains
grape
habitual
hawking
hottest
hover
humiliated
infants
invests
ko
merging
metes
mg
motions
motors
narrowed
operatives
password
payscale
pedestal
ranged
reins
repugnancy
shale
stunt
suppose
technicalities
tolerated
unavailable
untrustworthy
##MS
##ative
##bury
##ev
##our
##ree
##wali
##ित
060
1300
469
473
528
840
AGRICULTURE
API
Accusing
Ambanis
Anu
Arabs
Architect
BV
Bishnoi
Buildings
CCS
Certified
Chaudhuri
Chhichhore
Compulsory
Consultants
Daimler
Dan
Direction
Duminy
Evidently
Evin
Facilitation
Fixed
Forms
Gangubai
Graham
Hansraj
Hingis
Hollande
Jamuna
Jaypee
Jind
Joker
Koirala
Lall
Maneka
Marathwada
Navnirman
Nippon
Oommen
PMC
Perry
Prominent
RNRL
Rafi
Rauf
Reply
Ron
Ruling
SO
Saaho
Sehgal
Strauss
Surgical
Talaq
Traditional
Umadevi
Varthaman
Yang
Zanzibar
ab
adulteration
antagonist
appropriated
beloved
betel
bounden
campaigned
chalk
chargesheeted
cleric
clues
collapses
commuter
costumes
crystallized
demographic
differing
disprove
ejectment
embarrassing
enlisted
enzymes
escalating
exiting
fried
grappling
gums
hostility
identifiable
jazz
laugh
limestone
logging
nearing
patriotism
pollutants
provoked
proximate
pulp
reacts
replication
schedules
shaping
shortcomings
showcasing
sprint
stabbing
stalls
strategist
stupa
swift
thrilled
trait
verandah
wastage
wholesome
wires
कर
हो
##IA
##SH
##ap
##book
##con
##nna
##swamy
##use
##ि
1400
384
439
453
565
775
851
925
Adding
Aiyar
Amber
Antrix
Aus
Baijnath
Barman
Beed
Boris
COMMISSIONER
Cardiff
Chhath
Chit
Christchurch
Contrary
Corpus
Cyber
DHFL
Dashrath
Delhis
Disease
Dry
Emmanuel
Europeans
Facing
Find
Focus
Infotech
JTP
Kalahandi
Kanta
Khar
Kudankulam
Kumbakonam
Labs
Lodge
Nala
PKL
Postgraduate
Ramayan
Saad
Salam
Selvam
Sham
Stupa
Tel
Tudu
Tunnel
Voice
Voluntary
acknowledging
alumni
architects
artisans
assures
await
cardamom
collectors
culmination
cyanide
deviations
disapproved
disentitle
dispossess
drafts
eternal
extortion
famed
goat
heavyweight
interpretations
loot
marlas
materia
meteorological
mismanagement
parameter
pipelines
potent
prefers
profound
reckoning
rustic
selections
suicides
swangs
todays
unqualified
unsuccessfully
unwinding
urgently
variables
von
wallet
##EL
##NG
##city
##gen
##lay
##ndi
##shan
1857
1937
574
583
614
730G
915
Abid
Aftab
Alfred
Anuradha
Badri
Barry
Below
Biju
CMs
Chambal
Constituent
Covaxin
Dhoot
Emami
Fatehgarh
Friends
Frontier
Garh
Greyish
Hakim
Hand
Holland
Honorary
Interbank
Jaideep
Jobs
Jute
Kheda
Latif
Laxmibai
MEN
Mahmudullah
Manjit
Milwaukee
Narayanasamy
Nargis
PETITION
Parag
Patients
Phillips
Provinces
RDSO
Raghavendra
Renu
SCW
SERVICE
SHANTHINAGAR
SMC
Satna
Satyendra
Shahrukh
Stellar
Tai
Zenobia
aaj
accumulate
attitudes
billions
blogging
compartment
dao
decidendi
dehors
ditch
flaw
formulations
hollow
husbands
indiscriminately
inexpensive
inhuman
intrusion
leap
leniency
loop
medications
mounts
mutations
outflow
pavilion
porn
practise
prosecutions
pulmonary
rockets
servers
servicing
sesame
staircase
steal
supersonic
tabular
teaches
thumping
tomatoes
uptick
ur
vitamins
vocalist
vocational
wedded
भारत
##CL
##bha
##bra
##com
##hana
##ular
##ō
651
880
Advertising
Ambika
Azeez
Beautiful
Benoit
Bhupendra
Brands
CSE
Challan
Chandi
Countries
Dabkeghar
Eleven
Explaining
Fateh
Freight
G7
Galle
Gran
Guinness
Hirani
Kent
Koraput
Lalaram
Lionel
MCRC
Massive
Miandad
Morsi
P11
P13
Pani
Pauri
Quad
Receiver
Revenues
Rouhani
Rupinder
Sati
Sc
Stockholm
Sukhoi
Sumo
SunRisers
Supplementary
Terrorist
Thompson
Tral
Travis
V20
Vendors
Vespa
Weekend
accredited
amino
antibody
aquatic
bizarre
blames
blew
busted
caller
carve
cats
clarifying
commemorative
compositions
conferment
convincingly
crazy
creamy
curbs
dayer
debited
demur
devil
devolved
diarrhoea
dictate
discarding
disputing
durable
embankment
exposing
fist
foisted
galleries
grabs
hoisted
indigent
leprosy
manifestation
orchards
outline
outpost
pellet
penance
physicians
playoffs
poetic
progressing
regrets
reminds
residue
routinely
rupture
shrunk
soaring
soup
swollen
syndicate
synthesis
systemic
technicians
tent
theirs
trails
transgender
unorganised
veiled
wheelbase
yardstick
##AS
##ical
##med
##nic
080
1938
2050
369
419
507
531
715
Alpha
Baahubali
Bancroft
Behar
Bijnor
Bros
Centurion
Chairmanship
Chart
Custom
Employer
Event
Examiner
Garib
Ghanshyam
Gopalakrishnan
Guards
Gumla
Hebrew
IIMs
Kari
Kumaon
Launching
Mac
Maybe
McLaren
Murder
NA
OPD
PATNA
PTC
Pantnagar
Phantom
Philadelphia
Pinki
Prayer
Preamble
RA
Raising
Ramzan
Rashmi
Risk
Roach
Rocky
SPV
Screening
Shahzad
Spielberg
Srikakulam
Sriram
Sterling
Superintendents
Surveyor
Thangavel
Theater
Vidyut
Vijayvargiya
Vincent
Vizag
Warren
Xtreme
acceded
accomplices
aggregating
airing
alienating
analytics
bleak
clarificatory
clicked
complement
councillors
cried
electors
escort
fiduciary
firecrackers
flesh
guar
hander
intimating
irrationality
liberalised
moot
nala
notions
pacts
persona
plastics
poorest
probative
prominence
pulls
qualifies
quantitative
quorum
ridiculous
rotating
salaried
seminal
severally
sincerely
slides
spying
suspecting
tad
theres
uncomfortable
unveiling
unwanted
upgrading
volunteer
warmed
weaving
##AM
##ES
##ao
##mar
##op
##sia
##ster
##tia
##ven
##vu
1919
496
509
Ad
Adult
Agar
Agnihotri
Amma
Amy
Baaghi
Barbados
Beg
Bhadauria
Canberra
GIC
GP
Halsbury
Hamza
ITO
Indraprastha
Invest
Jaffrey
Jazzy
Kelkar
Munnetra
NCAP
NOS
Nasimul
Offices
Ottoman
Pierre
RPF
Rajeshwari
Residents
Riyadh
Rodrigues
Rupesh
Saba
Serbia
Serum
Shivani
Tehri
Tobago
Torrent
Vidyarthi
Waste
WikiLeaks
Witnesses
Xinjiang
Yeh
acclaim
aggravating
brewing
bump
collar
combustion
consort
copied
corresponds
creativity
curative
deceived
descended
discusses
divergent
escapes
excuses
exhibitions
felicitated
godowns
gotten
hairs
imagined
imputation
indisputably
induct
lynching
meltdown
nowadays
odds
ozone
peek
prosecutors
raat
retrieved
seas
seminar
serials
shorts
shower
skipped
strokes
sympathetic
titular
toughest
tranquillity
triangle
untouched
veins
##23
##KAR
##PPA
##RI
##chal
##fe
##hy
##ila
##iness
##lah
##mon
##tin
040
411
429
541
635
749
785
Acres
Agni
Anyone
Authorised
Barring
Blu
CV
Chandrakant
Charter
Choice
Dainik
Dia
Fourthly
Hayden
Holmes
Investigator
Kathak
Khaira
Khalsa
Khatri
Kiren
Kyle
LR
Lets
Lexus
MOs
Madhusudan
Martina
Passport
Protocol
Ridge
SIPs
Shafiq
Shaharyar
Siliguri
Sudeep
Sukma
Uninor
Vanzara
Vedas
Walter
Wayne
XS
acknowledges
agro
apparels
apples
aroma
autorickshaw
bikini
blacklisted
candid
carelessness
civilized
cleaner
comprehensively
correspondent
deduced
discoms
disparity
dissection
disturbances
ecology
eroded
essentials
exercisable
extensions
flaws
ghost
hemoglobin
hereto
hid
hormones
hurriedly
illustrative
immoveable
indefeasible
inducing
interregnum
laced
landline
lately
legislatures
marched
middleman
narrates
nickname
objector
optimum
pictorial
pierced
piercing
pig
platinum
polity
proactive
processors
pus
questionable
queue
rammed
reckless
rectangular
reminders
salient
seizing
showdown
showrooms
spine
spirited
spray
supernatural
thighs
triggers
turf
velocity
whitewash
##char
##ening
##gad
##head
##hri
##ible
##logist
##oi
##pad
##tory
1921
358
472
487
637
642
667
6A
733
870
APJ
Aberdeen
Adverting
Ages
Asghar
Awami
Ayyappa
Bad
Bahraich
Bhutanese
Billy
Biotechnology
CBR
Chowdhary
Constructions
DPS
Dalsinghsarai
Dara
Debit
Deliveries
Dena
Derek
Doping
Efforts
Ernst
FATF
Fakir
Garfield
Garo
Geo
Gopichand
Gulabo
HT
INLD
Implementation
Informant
Kedia
Learning
Legend
MPC
Macau
NDMA
Nikkei
Nisar
Osaka
P14
PFC
PW15
PW16
Poll
Possession
Probably
Prosecutrix
Purnia
RM
RMC
Raghuvir
Ramu
Randhikpur
Sanand
Sanaullah
Sheo
Shield
Sistema
TD
TET
UEFA
Unsung
Virtual
Windies
Yasir
annexures
averages
carbonate
casually
certify
climatic
coined
collaborate
commanded
commendable
complimentary
contagious
contusion
conventions
debar
demarcated
disablement
dispel
displacement
downtown
enthusiastic
exceptionally
extinguish
fairs
falsified
functionality
heavyweights
illusion
illustrate
inciting
lifts
matriculation
nationally
negate
nullify
overdraft
peripheral
persist
pomegranate
pooja
portrays
precedence
quarantined
revisit
rib
roofs
scarce
sec
siege
sprawling
stain
startups
swiftly
tracing
trainee
unfairly
waterdrop
whimsical
wilderness
##bagh
##ics
##ious
##ose
424
443
564
657
888
AW
Abha
Assistance
Attack
BCB
Belarus
Bolivia
CSI
Carnatic
Chhatarpur
Commanding
Commons
Cuban
Einstein
Ethiopia
Gare
Grandhomme
HDCL
HDIL
LME
Lindsay
Mandya
Marandi
Offshore
Pancholi
Puram
Qur
RESPONDENT
RTGS
Rajputs
Randhawa
Ready
Recalling
Rep
Residency
Restaurant
Retired
Sarai
Sarla
Shaukat
Simmba
Sona
Sooraj
Spread
Storage
Thirty
Trekking
Vidyasagar
Vikrant
WFI
Wagah
algorithms
anchored
answerable
betrayed
bribes
bullocks
bureaucrat
cafe
campaigners
cared
chancellor
cite
compoundable
comprehend
conjugal
contemner
curved
delineated
differentiation
dislodge
distillation
echoed
expenditures
feigned
fits
flavour
genital
governs
gurdwara
hamlet
heaped
illustrations
impasse
indigenously
infinite
lure
medico
melting
migrate
molecule
pelted
persists
pickup
pill
pyramid
quotas
refugee
resigning
resounding
respectful
retrenched
sadness
severance
shortened
sin
slippers
spear
stationary
strapped
sustenance
unavoidable
versatile
vogue
widen
wrongdoing
##chari
##ipur
##let
##pu
##town
##we
404
464
486
561
601
655
685
A80
AMU
Adalath
Adidas
Aerospace
Akademi
Apte
Ashley
Attacking
Balasaheb
Bi
COAI
Cambodia
Certification
Classical
Collegiate
Contracts
Cooch
Dalbir
Designs
Douglas
Edulji
Fifty
Gaikwad
Gopalpur
Idol
Individual
Infratel
Jee
Karimganj
Karol
Kathiawadi
Koshyari
Kushal
Kushinagar
Latest
Led
Lisa
MCF
Mansingh
Nagaraj
Nielsen
Nifty50
Offer
Owners
P12
PRADESH
Paksha
Prasanna
Pusa
RTC
Rajgarh
Registering
Remo
Samadhi
Siddarth
Silk
Tablighi
Taxi
Tension
Tiguan
Tyson
UDF
Valuation
Vikash
Wednesbury
alienate
attends
axis
baje
barometer
belongings
blaze
blended
coastline
complementary
contributors
correspondences
criminality
dilapidated
edifice
embraced
enclosing
engineered
enrolment
eradicate
evolutionary
exaggeration
extremist
greenhouse
grenades
habitats
hurling
ignorant
killers
laughing
luxurious
mortis
narrating
objecting
ostensibly
paradise
peer
positioning
princess
privileged
problematic
productions
registrar
registrations
relieving
restlessness
rhetoric
seamless
smuggled
squadron
tents
toy
uncontroverted
unhealthy
upload
upstream
vernacular
weights
##19
##ain
##eri
##ivity
##mala
##ys
##ي
030
2605
4a
503
536
567
623
755
810
Ambit
Ammal
Angad
Ankadedar
Announced
Armaan
BIS
Baijal
Brijesh
Churu
Coordinate
Coordinator
Croatia
DRP
Dadra
Dangal
Daulat
Diocesan
Fertilizers
Finmeccanica
Gandhis
Guild
Gully
Gutta
Harivansh
Hexa
Hydro
Ish
Jihad
Krrish
LAR
Leaked
Lipi
Mansoor
Marc
Mega
Mist
Mookerjee
Nalini
Nodal
Novartis
Paradip
Pioneer
Porbandar
Portfolio
Prabha
RO
Raghunathji
SSB
Shekhawat
Stocks
Submission
Surana
Wright
accede
assuring
atmospheric
bifurcated
bloodstains
brunt
cache
categorised
cervical
combines
cuttings
dare
dared
desktop
disqualify
domes
encash
et
exhaustively
extinction
finalist
fishery
fitting
gadgets
galaxy
generators
gms
gradient
hiking
honourable
imperial
influenza
insanity
marries
martyrdom
minimize
mobilised
overweight
portable
premised
regularise
spatial
swayed
tactical
telegram
thwarted
transferable
traveller
typing
valuing
worsening
##29
##bir
##chak
##guda
##ix
##min
##more
##pally
##shankar
##tz
##vat
1935
493
568
573
591
661
849
9A
9R
Adams
BCE
Bara
Brake
CENVAT
Cachar
Capt
Chaitanya
Chess
Colgate
Combat
Correspondent
Daughter
Dreamy
Ecuador
Faced
Firoz
Fiscal
Gadchiroli
Glencore
Harare
Hat
Hundred
Illinois
Janak
KA
Kasim
Keemo
Kler
Kuala
Lamba
Laxmikant
MHC
Maharishi
Mahipal
Mail
Mainpuri
Manas
Marathas
Margaret
Midnapore
Mutawalli
Options
REPRESENTED
Resolutions
Resort
Sanatan
Shehzad
Shipyard
Sikar
Summons
Sylhet
TSI
Tri
Vedi
Vinayak
XUV500
Zadran
adamant
allergy
alloted
ambience
attributing
avenge
bargain
bloc
cheek
coasts
coughing
curious
defame
differentia
digitisation
disperse
donning
dwellers
energetic
fanciful
fared
flyover
frauds
herbal
heroine
hostels
independents
industrialisation
insiders
liking
linkages
menstrual
modules
mono
organizers
particle
patronage
paucity
pie
pros
publishers
reassess
reposed
safeguarding
sandy
screaming
seam
seventeen
sickness
signatories
snaps
soccer
stipulate
storms
tapped
thief
thirdly
unreasonably
uploading
usher
validation
vandalised
waterlogging
wonders
wool
workload
##35
##45
##chu
##ekar
##eta
##maker
##य
436
458
508
517
622
641
825
899
ACT
Aakash
Anantapur
Announcing
Ansal
Asus
Bandipora
Bassi
Batla
Billboard
COA
Causes
Chevrolet
Connaught
Consent
DJ
Dash
Deen
Excellence
FCRA
Forty
Gomti
Grace
Gramin
Hornet
Initiative
Inspite
Islamia
Joy
KVAT
Kendu
Lakhpat
Madhavan
Manav
Micra
Micromax
Mohanlal
Monmouth
Newspapers
Numerous
OBCs
Po
Posted
Renewable
Royce
Rudra
Sahani
Scam
Shan
Spiti
Stewart
TP
Thisara
Truth
Ustad
Visiting
Vivian
Wali
Welsh
Zoo
aesthetic
affixing
capitalism
cataract
compatriot
conquest
consular
deciduous
descendant
detailing
devastated
dilemma
discontinue
doctoral
ecosystems
examines
fabulous
fragrance
gamut
hail
hedging
horn
hung
ideologies
investigator
lacklustre
lightweight
lining
lithium
lust
mandi
meningitis
microphones
mobilise
monetisation
mouthpiece
myriad
natives
negligently
oneself
overwhelmed
polluting
prescriptions
qualitative
reconstituted
refrigerator
replicate
respecting
restructure
ropes
scratch
sheds
stove
terminus
unviable
withdraws
##60
##FC
##MC
##eo
##ere
##low
##ments
##ota
##oy
##pan
##rn
##sagar
##sy
##wada
529
612
704
762
AFP
Add
Agencies
Ahir
Ajanta
Allocation
Amman
Anjum
Arizona
Austrian
Axe
Barpeta
Battery
Bhajan
BoB
Brendon
Buses
CCC
Chandela
Chinnaswamy
Chronicle
Dakshin
Dekhiye
Doshi
Dumraon
Fellow
File
GIDC
GJM
GMC
Goldberg
HQ
Hike
Interpol
Jolly
Katti
Khammam
Khandwa
LGF
Lombard
Moving
Notifications
OIL
Opener
PCI
PMS
Panchayath
Pir
Quite
RRB
Rangpur
Rathinam
Regularization
Released
Romi
SCB
Saddam
Sanders
Satyagraha
Sayed
Sohrabuddin
Tomb
Twelve
UBS
Upadhyaya
Vishwas
Want
Wars
Waziristan
Yahoo
Yashpal
accrual
align
apprise
artifacts
astronomical
authorising
breasts
collaborating
cooler
coordinator
curtains
descending
diligently
dissenting
empanelled
encumbrance
enthusiast
enzyme
escaping
flame
fountain
frightened
generics
grossed
hernia
hook
illustrated
imitation
kilo
leaking
menu
mtpa
nude
pests
pharmacy
plotting
plummeted
plural
primacy
reconcile
resuming
revoking
rubbished
screenwriter
seizures
shaking
slurry
squash
stalwart
stimulate
stretching
tanked
tankers
teamed
unnamed
usurp
warn
सभी
##ars
##ei
##mba
##of
##rat
##rum
##tle
##ub
##yl
557
726
975
AAA
Alaknanda
Apr
Arb
BUILDING
Balance
Barfi
Bhaderwah
Bhave
Bowie
Caves
D3
Democrats
Dhillon
Faulkner
Firms
Gabriel
Gateway
Gitanjali
HM
Helen
Hussein
ISOFIX
Jagdeep
Jeddah
KS
Kalmadi
Koppal
Mahanagar
Mirpur
Mor
Munnar
Performing
Prayag
Purohit
Queens
RCC
REGIONAL
Rains
Reorganisation
SICA
Salma
Samvat
Siddhant
Sold
Surely
Vijayanagar
WTA
Waters
Weekly
YZF
abruptly
absolved
acoustic
agrarian
apartheid
assignee
backgrounds
batches
bazaar
chemotherapy
classroom
collects
cons
dal
dastardly
deploying
devise
dissolve
dot
earthquakes
evading
examiners
iPhones
incuriam
instigating
jeans
laborers
ledger
lobbying
locks
loveliest
mortuary
piano
plunge
positives
postponement
potentiality
preacher
protracted
quarternary
realizes
rearing
recited
recruitments
resisting
shining
slid
spurious
staging
stagnant
swine
terrific
tripartite
unskilled
veterans
waterways
##25
##IS
##aka
##ash
##badi
##fied
##je
##net
##oid
##rus
1926
1943
1960s
444
4A
519
527
566
594
618
818
ADR
ADV
Agri
Agusta
Alexandria
Amravati
Approximately
Arup
Balwan
Banaskantha
Barauni
Beckham
Bhalla
Bhati
Bhilwara
Bidar
Brajesh
CCEA
Chetak
Conservator
Dandi
Desh
Door
EVM
Elaborating
Escorts
Exam
FY22
Fortunately
GSAT
Gujral
Harsimrat
Hazari
Hospitality
IFCI
Intent
Janki
Jiah
Kaveri
Leaves
Lumpur
MANU
Mandu
Maynard
Mirage
Morkel
Orbiter
Pahalgam
Pantaloon
Perumal
Portland
Praneeth
RCA
RT
Roberts
Routray
SBIs
SIL
SRINAGAR
Serious
Sheohar
Sitabo
Storm
Substantial
Successful
Ur
Verizon
Visual
Warning
Wei
abiding
accelerating
acceptability
assassinated
assemble
builds
capitals
circumspect
complains
conceptual
concur
condemning
contrasting
crafts
demolishing
disguise
distressed
divestment
drains
dwell
emotionally
entrants
fluctuations
formations
franchisees
fullest
functioned
glaciers
heavier
hostage
impounded
insolvent
kiln
knives
ladder
liquefied
matured
mergers
neutrality
nineteenth
opium
outward
perfection
piracy
proportions
provoke
repairing
repercussions
reverted
sacrosanct
seasoned
shampoo
sittings
skating
sportsperson
strategically
swap
systematically
tandem
unethical
valve
vents
voucher
warmth
wellness
weren
yen
yuan
##TE
##car
##ction
##ea
##ell
##ets
##ghar
##gia
##ins
##jar
##jo
##lar
##nal
1922
80C
Answer
Avtar
Bablu
Broadcast
CCL
CMP
Concurrent
Costs
Cottrell
Counselling
Deendayal
Dhamdaha
Dravidian
Elephant
Expenditure
Fan
Farmer
Fold
G85
GSLV
Gadhada
Goalpara
Gurmeet
Hanif
Hawaii
Heena
Heroes
Husbandry
IP
Interpretation
Isro
Ku
Lead
Manan
Marathon
NPT
Naseem
Nordic
PPA
Patidar
Positive
Pricing
Pyongyang
Rajni
Rasheed
Rolling
Roopa
SHIMLA
SPG
Sami
Sangathan
Sangli
Satpal
Severe
Somdev
Sudhanshu
Sullivan
Surgery
Talks
Tourist
UNICEF
Uruguay
Vigyan
Walker
averse
baggage
bearish
blessing
brightness
calf
captures
cites
consumes
conveys
cute
deceit
deck
der
deviate
dharna
digitally
emergent
equilibrium
evasive
exerted
faculties
fascinating
feeble
flagrant
genetically
greed
handy
harmed
ho
inefficient
inscribed
insights
inspectors
intern
intestate
landfall
landless
languishing
mandal
messenger
miner
misbehaved
misunderstanding
nutritive
outrageous
patches
periodical
perspectives
phrases
powertrain
propagate
prophet
quarreling
queues
ramifications
refuting
scenarios
seminars
stigmatic
superficial
torturing
unamended
unerringly
unseen
upbeat
urination
vampire
weed
youngster
किया
##30
##als
##ane
##bati
##ied
##list
##rated
##tel
##tors
##water
##ते
1520
1898
592
615
666
797
998
AH
Arbitrators
AstraZeneca
BARC
Broadly
CK
Catering
Chandrapur
Chola
Claiming
Colaco
Congo
Copies
Desi
Dhananjaya
EMIs
Emkay
Ericsson
Fall
Fame
Fletcher
Fruits
G95
Gonda
IDS
IVRCL
Imprisonment
Infinix
Insurer
Jaipal
Jam
Johns
Jungle
Kelly
Khasi
Kunda
LDF
LLC
MSK
Mahabir
Mahela
Makar
Malla
Manipal
Matter
Missile
MoEF
Moin
Noted
OFFICE
PW20
Paschim
Pati
Pressure
Proceeding
Qamar
RNA
ROG
Ramakant
Romesh
Rukmini
Sandip
Sawhney
Seed
Simply
Solih
Sugars
Thiru
Tirumala
Vince
Zuckerberg
adjourn
affirmation
allegiance
anomalous
apportionment
arc
averaging
awardee
bundles
cadets
chopped
conceive
curbing
dangers
deported
derail
destiny
disasters
editors
enduring
fool
greenfield
illegitimate
impeachment
indigestion
infiltrate
invaded
judice
kingdoms
localities
lured
masha
mausoleum
milestones
mosquitoes
multiplexes
neighbors
optic
overdue
persisted
pleader
poorer
racial
reptiles
revamped
rewards
shuttlers
slave
sociology
speculated
terminology
trainers
turpitude
unfairness
unstable
unsubstantiated
urbanisation
weekends
welcoming
workable
##28
##ET
##ale
##bazar
##dri
##fy
##hwar
##hya
##las
##oon
##ras
##rate
##swar
##wn
##worth
##ती
010
558
627
664
681
B1
Balwa
Bijlani
Bom
Buch
Bullion
Chennaiyin
Clinical
Cox
Crude
DSG
Dahod
Daiichi
Dhingra
Ehsan
FPO
GI
Gadag
Gangster
Girdhari
Gurpreet
HRTC
Handscomb
Honey
Hub
Ileana
Indrajit
Jalgaon
Kanika
Ken
Khemka
Kshettra
Laura
Manveer
Matrix
Muslimeen
Nazar
Nilekani
OMC
P17
Parle
Pashto
Perused
Philosophy
Pop
Pothiya
REP
Reasi
Reviewing
Sajjad
Sankalp
Sebis
Shai
Sheth
Silicon
Sirsa
Spl
Ted
Tree
Tye
Updates
Vijayanagara
annoyed
arent
arguably
assignments
auditing
bark
bombers
bust
calendars
camel
cannon
carrot
challenger
chromosomes
codicil
commissioners
compressed
congregation
cornered
coronary
decorative
diminished
disadvantaged
discovers
discs
doc
docket
dresses
duped
embellishments
exploiting
facilitates
fora
goons
havent
heap
horrible
indexation
khasra
loopholes
loser
makeup
managements
mop
networth
offspring
optimal
paralysed
petrochemicals
poaching
prematurely
quizzed
reconstructed
reflective
regrant
retro
ripe
sans
shelters
skip
slaps
splitting
stark
studios
suspicions
thieves
trainees
trending
tuned
twisted
undo
uneven
utilising
veto
waives
woven
##65
##SC
##TION
##ball
##ela
##iest
##kund
##nk
##port
##स
1931
441
538
550th
598
708
835
Amrapali
Ankadia
Antarctica
Apna
Arena
Asansol
Assailing
Assange
BCCL
Bankura
Bear
Bristol
CERC
Campbell
Chak
Compromise
Corpn
Customer
Davos
Deluxe
Democrat
Devinder
Dheeraj
Display
Edwards
Eknath
Esperance
Extreme
Faiz
Harshad
Horticulture
IKEA
ITDC
Investor
Jeet
Jena
Kamdar
Kandla
Karn
Katha
Khushi
Loss
Lucas
Luxury
MOTOR
Mad
Mahadeo
Marin
Mukkar
NCW
ND
Navami
Outstanding
PD
Pandian
Paralympics
Parents
Parks
Passengers
Pavan
Pravesh
Res
Santoshi
Sathasivam
Shareholders
Shrikant
Spartan
Spring
Sputnik
Suits
Swaroopanand
UPI
Unified
Vaar
Vipul
Website
Were
advocacy
aggravated
aging
allotments
analytical
angel
arson
ashamed
bandwidth
belts
bounty
burdened
burned
clears
cliff
compost
condolence
consulate
corroborating
crept
dearth
downpour
drill
euros
executable
fallacious
geared
grandparents
greeting
grill
honeymoon
huts
insurgents
lamented
manually
median
misreading
molested
monitors
mutilated
neem
numbering
occipital
outreach
painter
penalised
pioneering
posterior
precipitation
predictions
progression
questionnaire
reconsidered
recovers
relinquished
romanized
shopkeepers
sighted
spotlight
stricter
strings
successes
superannuated
supplemental
supplemented
surrendering
telescope
tiredness
torrential
transforming
transmitting
upright
ventured
warships
wishers
zoomed
°C
##32
##PC
##ae
##ag
##bing
##dal
##lata
##master
##oni
##uda
##yat
1½
552
560027
581
604
652
687
802
8T
Abhimanyu
Ashfaq
Autocar
BHU
BK
Babul
Balod
Bhanu
CDRs
Chen
Cognizant
Congressional
Councillor
Cristiano
Dag
Darul
Deka
Deoband
Devanagari
Devender
Dhumal
DoCoMo
FICCI
FTC
Finnish
Fridays
Geetha
Guterres
Hales
Hum
IC
Indoor
Intercontinental
JioFiber
Kadam
Kalita
Karl
Kishori
Kundu
Magazine
Mahabodhi
Mart
Mayurbhanj
Mudgal
Narinder
Nirman
Nirupam
OLED
Objections
Putting
QIP
Qasim
RE
REV
ROC
Rival
S10
SB
SLET
Schwarzenegger
Semi
Shyama
Soha
Tanda
Tractor
Trail
V8
Verification
YoY
accomplish
accrues
accruing
annul
basement
battalions
batters
bronchitis
chaff
concurring
conductors
conjecture
conserve
contiguous
continents
coupon
crux
dais
danda
defacto
diversification
electrically
embarking
encompassing
equations
exhortation
fax
filings
finalize
firmed
flock
gallantry
hydroelectric
incarceration
indictment
inmate
mBtu
manipulating
obstacle
pants
persuasive
prerequisite
progresses
promulgation
propagation
proponent
quietly
reclaim
rugby
scorers
shrinking
sliding
snap
spoon
stalemate
staring
storeyed
telephonically
unfavourable
voyage
whisky
##41
##91
##band
##ement
##hin
##math
##nama
##nes
##ris
##ser
##ual
1080
1915
492
533
619
691
724
830
985
Ananda
BRC
Babasaheb
Betul
Bhandara
Brigadier
Bungalow
Char
Confirming
Deeds
Dilshan
Encounter
Endowments
Face
Fleming
Flowers
Forex
Greaves
Hajipur
Ignis
Image
Injunction
Jagatsinghpur
Jia
Jubilant
Kalu
Karimnagar
Keran
Kripal
Kulhari
LP
Lehman
Lopez
Mahanushasan
Mahazar
Mama
Mandsaur
Maths
Mihir
Milestone
Northwest
Nutritious
OMR
Owner
Palm
Peethas
Pinto
Planet
Population
Prisoners
Proctor
RETIRED
RFID
Resorts
Salahuddin
Salwar
Sewa
Shi
Something
Sonepat
Specs
Suddenly
Suryakant
Tezpur
Tirupur
Vanuatu
WRIT
Wide
Wishing
Yard
Yo
archipelago
assistants
astronaut
atom
auctioning
avoidable
billed
blasted
celestial
cereal
chiefly
cinemas
colluded
consenting
counties
cracking
curiosity
demat
depended
descriptions
disrespect
distinguishes
drowned
dynasties
eighty
eleventh
encroach
exclusivity
feeds
foil
forecasting
forgive
generals
grammatical
guardianship
hilltop
implying
incompatible
initio
inroads
intellectuals
intermediaries
ire
justifies
mater
merg
molesting
monkey
murderer
nausea
payers
planners
pristine
psychotropic
quotes
relocated
resemble
sabotage
sacking
servicemen
shedding
slavery
slums
spermatozoa
sticking
striker
sunroof
supervising
telegraph
thirst
tore
translating
validate
valuables
valuers
wraps
##09
##22
##70
##AI
##CC
##lur
##ngi
##ole
##ological
##pani
##yo
##्
004
559
597
606
764
Aayush
Akhnoor
Akshaya
Aston
Avengers
Bada
Bare
Bhool
Chakan
Chitradurga
Colorado
Consulate
Contention
DP
Dhirendra
Dinajpur
Dominic
Earthquake
Easter
Encroachment
Exim
FIA
FIC
FRP
Fisheries
Gilchrist
Haroon
Hutchison
IRS
Jake
Japans
KV
Kalyani
Kaziranga
Keonjhar
Khalistan
Kick
Kokrajhar
Kona
Logan
MacBook
Mahmud
Manipuri
Maruthi
Mondays
Muni
NBA
NII
Orlando
Osmania
PHC
Pasha
Petronet
Pitt
Print
Pt
Roorkee
Rudy
SGM
STs
Sankranti
Strait
Tapan
Technological
Territorial
ULC
ZX
abjured
advises
affiliations
alerts
aluminum
asbestos
battered
bend
bifurcate
bless
boil
brutality
cartilage
caters
classrooms
consolidating
cooperated
cottage
cyclical
densely
desperately
discharges
discouraged
electron
encircled
encryption
ethnicity
flanked
grind
headcount
impunity
inspecting
liberation
liberties
licencee
limine
marred
metabolic
nahi
obedience
obeisance
organizational
overlook
overtake
phosphate
pile
postings
pots
predictable
prizes
quid
raj
rebounded
rebuilt
referral
reformed
remitting
repaired
requisites
restless
restricts
resumes
retracted
sanctuaries
segregation
sizzling
snatch
spacious
startling
straitjacket
strengthens
superiors
thesis
thronged
thunderstorm
tunnels
tutoring
unused
vector
wagon
weddings
##31
##63
##air
##ex
##ganga
##ita
##ites
##ncy
##ory
##rt
##stic
##tions
##vas
##yu
066
1910
3700
442
446
45th
526
556
602
677
72nd
776
821
Aadhar
Ankur
Annu
Arijit
Atrocities
Available
Awadhesh
Ayesha
BBMP
BRO
Baghpat
Baker
Basit
Bearing
Bhuiyan
Candy
Cantt
Caravan
Career
Chandsa
Chenab
Consultant
Dealerships
Devas
Digha
Entire
Exit
FERA
FMPs
FSSAI
Fees
Freestyle
Fri
Generals
Hoshiarpur
ICRA
ISIC
Jamalpur
Jayasuriya
Joel
Julian
Jurisprudence
Karat
Keane
Khadse
MFIs
Markram
Mein
Nageshwar
Nawal
Nuwan
OECD
ORVMs
Olympian
Opportunities
Palam
Powered
Premises
Presence
Provision
Rajammal
Reid
Rohtang
Sahil
Sarabhai
Sean
Sekhar
Sell
Siddappa
Suicide
Supervisory
Sustainable
Teresa
Therein
Triber
Vipin
Vishwakarma
abstain
adopts
analogously
armoured
avowed
awe
ayurvedic
biting
bowed
budding
buffaloes
cassette
clocking
cms
combating
compares
connotes
defender
digested
domestically
endorsing
enlargement
escrow
extrajudicial
facilitation
finalisation
footprints
gray
groom
gymnast
hepatitis
hi
inconclusive
indifferent
isolate
journeys
lumps
magisterial
manipulate
mansion
marvellous
mein
moto
nickel
nodes
objectors
outs
perceive
probationary
prospecting
quarrelling
recycled
rem
rethink
ripped
roller
rukka
sandalwood
scrips
shortages
signalling
simplicity
snooping
softening
specimens
speedster
strongman
supersession
superstars
talents
tapes
thrill
tiles
treaties
tunes
unambiguously
unanswered
unnoticed
unto
vapor
variously
willingly
worshippers
##34
##49
##NAGAR
##PA
##bala
##bus
##dale
##ges
##had
##ification
##narayan
##off
##sation
##ule
##vel
##vir
005
428
524
546
629
648
672
693
Aashiqui
Akhara
Amarjeet
Amount
Animals
Ann
Arnold
Attention
Baran
Bashar
Bhujbal
Bilawal
Brihanmumbai
Cafe
Chandrasekaran
Chang
Chaudhury
Corolla
Costa
Crompton
Depending
Devoleena
Dhule
Dronacharya
Duleep
EP
Emmy
Fifteen
GCPL
Gaga
Gauba
Hard
Hoshangabad
IBA
IDCO
Jewellers
Kahalgaon
Kamalambal
Kanda
Kemmu
Khesari
Khunti
Labor
Leasing
Logistics
Madhopur
Malcolm
Mehar
Mirror
Mongolian
Monthly
Murphy
Nagli
Notices
Observatory
Parivar
Portfolios
Proof
Proteas
Provisional
Qadir
Raghavan
Ramadan
Raniganj
Renaissance
Repeal
SDO
SKS
STF
Salian
Sanction
Sanyal
Starbucks
Sudarshan
Syama
Udit
Videos
Voters
Walsh
Yediyurappa
abolish
alumnus
ambient
avenue
bending
breakout
calorie
coincidence
coke
compass
congratulates
couldnt
courier
currents
decimal
dicta
drilling
embezzlement
est
exquisite
flourish
heartwarming
hospitalized
hubby
illogical
impeccable
imputations
loggerheads
microscope
morally
motivate
mscmd
olive
overhaul
overtaken
partem
payload
persuasion
pervasive
portraits
potentials
predicts
presentations
primitive
prostitution
puppet
refreshed
replica
resin
reverence
rife
rumour
sail
sari
sidelined
sights
smiling
soaps
socialism
thoughtful
trophies
unconnected
wager
wreaking
ये
##24
##52
##AP
##ON
##RC
##fication
##ify
##mia
##ova
##ress
##yer
##ट
##ण
##द
##পুর
393
514
523
634
649
718
735
7S
822
935
A51
AAIFR
ASCI
Alka
Angul
Assist
Asstt
Bhaag
Bharadwaj
Bishkek
Blaze
Bolangir
Brexit
Chunky
Citi
Cobain
Contractors
DW2
Dabra
Darwin
Dassault
Dear
Defenders
Discover
Dolby
Etah
GLA
Gangaram
Geological
Glasgow
Greeks
Headingley
Helicopter
IGI
Improvement
Increased
Ishaan
Kamat
Kaun
Khehar
Khurda
Kurla
Lang
Lungi
Majid
Malappuram
Nominees
OnePLus
Organic
Padam
Poverty
Purushottam
Quarter
Raghubar
Rajender
Ravidas
SGX
SSI
Sadananda
Sarah
Shahdol
Siksha
Someone
Splendor
Suniel
Swang
Swara
Symptoms
Tal
Tigers
Trains
Victorian
Zaidi
abrogated
academics
aegis
agitators
annex
anticipate
atoms
audi
bailout
brochure
browser
bulb
carbohydrates
cascading
chakra
cheaply
cherished
clad
concomitant
conspirator
continually
countryside
covenants
culminate
cushion
delta
delve
demons
dependants
desirability
di
domination
embroiled
enunciation
expands
exposes
eyed
forearm
forfeit
futility
geological
graph
groundwater
guardians
guitarist
handicraft
hears
hint
imagery
imputed
indecent
influx
intensifies
junk
loosely
mace
mainstay
mockery
nearer
noticee
obligated
originate
passwords
pasted
pimples
professionally
realises
recounting
retina
seekers
showered
simplified
slaves
sorghum
sprinkled
starvation
strangulated
switches
temper
uncontrolled
uno
unseasonal
unsoundness
vault
vicious
vigour
सरकार
##26
##46
##burg
##ens
##eswara
##ez
##graphy
##kad
##khar
##ologist
##point
##ulation
##vali
##ward
##ة
1929
54th
698
742
752
796
806
ABB
ATK
Abdulla
Africans
BWA
Baig
Bella
Bhullar
Birbhum
Brain
CEA
COPD
Calgary
Chanu
Chittorgarh
Collectors
Conservative
Contemnor
Crimes
Dhanda
Disc
Dispur
Du
EOW
FTA
GCC
GSDP
Gothic
Gurjar
HIMACHAL
Injuries
Jeetendra
KJP
Kenneth
Keqiang
LUCKNOW
Malkangiri
Malvinder
Mercantile
Mst
Murari
Neo
Omkar
OnLine
Oshane
PET
Poco
Polytechnic
Pragati
Pratik
Prema
Ps
Pyaar
READ
Reality
Represented
Rivers
SSA
Samman
Saroop
Sind
Sponsoring
Synod
THDC
Theresa
Tonk
Transit
Turkic
Turkmenistan
Tyre
Vaghela
Vatican
Vernon
Watt
Welcome
Words
Zaitoon
Zeeshan
accessing
accountants
acidic
affiliating
aircrafts
alright
ancestry
approver
aptly
arithmetical
articulated
artwork
badge
barbaric
bass
battlefield
belied
boiled
canvas
chromosome
chutney
cloudy
collaborative
cosmetics
creed
destitute
disentitled
disproved
domicile
endemic
fists
freedoms
gala
gestures
hardships
honouring
hospitalisation
immigrant
implements
informally
insecure
keenly
lingam
meager
megawatt
mobilization
monochrome
multiplex
narrower
necessities
opera
organizer
palpable
prisons
recreation
reinvestigation
rows
staked
stunts
substratum
tasty
topography
toppers
tracts
typographical
upholstery
vitiating
##99
##PUR
##SS
##TS
##bank
##ched
##eshwara
##fully
##ima
##lon
##mas
##pin
##wer
020
1911
36th
484
547
576
596
678
695
731
767
772
794
815
Allan
Amreli
Arnab
BUS
Bachewar
Bahu
Bhiwani
Bohra
Brahmadutt
CMO
Careful
Chelsea
Codicil
DEPUTY
Dhiraj
Di
Diwakar
Eat
Essex
Feature
HRA
Hanumanthappa
Hasnain
Henriques
Hit
IPR
Images
Jubilee
Kalia
Khandelwal
Khans
Kiwis
Kms
Konark
LT
Leadership
MUDA
Manila
Megapixel
Meri
Mode
Musa
NHRC
NIM
Naimisha
Naturally
Necessary
PAT
Pace
Powering
Proprietor
Questions
Raees
Ramanand
Request
Romans
SDPO
SET
Shreya
Singhania
Siya
Slamming
Supp
Surjit
Talwars
Tier
Trinity
Villa
WB
WGC
WILL
XUV
absorbing
allowable
arithmetic
awardees
bauxite
beam
boar
boon
bureau
bush
captivity
categorization
challans
chronology
contraceptive
culminating
deadliest
defraud
denote
devolve
dialysis
doctorate
downs
eBay
emanates
embraces
evacuate
excepted
excessively
famously
fielder
filters
foresee
genitals
ideally
interconnected
intermittent
internally
intruders
jolt
km2
liter
lonely
machineries
majesty
masjid
miniature
monkeys
multiplied
naught
nonsense
obliterated
oceans
originals
overseeing
pH
parliamentarians
photocopies
propositus
pubic
pumping
rapes
reactors
resultantly
sailing
shrouded
slightest
smelling
spans
spoiled
stalwarts
superhit
superstructure
tenets
toes
tricky
unmanned
uranium
यह
##62
##AD
##GI
##PS
##ahi
##cs
##ded
##dle
##oe
##oma
##star
##sts
##wing
11550
1924
479
513
548
5500
554
729
766
970
Accommodation
Ahom
Aiden
Alaska
Always
Alzheimer
Amrish
Avenger
Baku
Beside
Bidding
Bilal
Bryant
CHC
Carbon
Chameli
Cheque
Classification
DCGI
DIAL
Dalhousie
Debate
Developer
Dhanteras
Dragon
EGM
Elantra
Fest
GLR
Goalkeepers
Godse
Governmental
Gujjar
Gulam
Hariprasad
Hi
Imad
Interlocutory
JIT
Jhajjar
KLT
Kairana
Kumarchand
Lands
Langer
Laxmmi
Luxembourg
MSOs
Mast
Messenger
Mobility
Murad
NTR
Nahar
Nairobi
Opposing
Parts
Pinku
Pride
Principals
Qutub
Ranjana
Ravan
Rejoinder
Reserved
Residential
SHA
Sacred
Saraswathi
Seeds
Setting
Shamsher
Shannon
Shine
Simple
Swaminathan
Talab
Talkies
Tiruchirappalli
Trichy
Utility
VR
Vaishnava
Vinesh
Wadhawan
Yojna
Zest
abovementioned
accommodating
acidity
adieu
admiration
alteram
ambulances
ambush
bang
changer
chant
cheese
clips
cloak
comics
complication
conversant
coordinating
correspond
courageous
defiant
dialects
dictator
digest
diligent
discern
discovering
domains
dubbing
elegant
enquiring
erased
expectancy
expediency
fennel
fishes
flip
footsteps
fulfills
hadn
hazards
healed
heel
hoarding
hovered
illusory
inching
incredibly
insecurity
insensitive
intersection
inundated
jewelry
kanals
kite
lawns
lip
mined
mischievous
mitigation
mushroom
narcotics
potency
pouch
pouches
profiling
psychologists
pushes
rafting
rails
reclamation
regimes
sedans
seventy
sincerity
skies
standby
starch
steer
subvention
sundry
suspends
tags
tamper
tilt
trachea
twists
undergoes
unenforceable
unheard
uniforms
unlawfully
watchman
wrath
हम
##WA
##ade
##chan
##gun
##nar
##over
##tation
##ush
##ियों
000mAh
1250
1899
1900
43rd
46th
560001
578
579
587
632
674
686
712
945
AIFF
ARC
Adnan
Agastya
Agenda
Altaf
Amba
Amfi
BOT
Bagalkot
Balco
Begin
Blasters
Bon
CBEC
COMPLEX
CSIR
Carlo
Chanakya
Chini
Citibank
Coleman
Congressman
Erdogan
Explosive
Fact
Foreigners
Fr
Francois
Gammon
Governance
Grammy
HCGP
Hang
Hapur
Havells
Hazarika
Hepatitis
IDR
IIFA
JPSC
Kardashian
Kasab
Kendrapara
Legends
MFN
Macquarie
Marie
Mehrauli
Method
Mississippi
Mithila
NAIK
Nagesh
Navneet
Neemuch
Newark
Nicolas
PFI
Panvel
Parida
Path
Periphery
Pertinently
Petrochemicals
Ra
Rajaram
Reform
Renowned
SLAO
Samrat
Sangma
Scientist
Se
Segment
Sharada
Shivbagas
Sikhism
Solomon
Sometime
Swangs
Talegawkar
Telecommunication
UG
UV
V3
Voldemort
XIII
Y90
Zika
adultery
allocating
antibiotic
applauded
benign
botanical
bouts
brilliantly
brisk
cartoon
causal
cemetery
cerebral
coherent
comparisons
congratulations
crocodile
darshan
delisting
devastation
disconnected
discord
discriminate
dump
emanated
faults
feathers
fluent
flung
frequented
furnishes
ghastly
glove
gripped
habitation
hardcore
hotspot
indemnify
indoors
interferes
introductory
litigating
lungi
malpractices
massaging
mesh
min
neighbor
ombudsman
paints
pour
profitably
rapper
rebuild
regretted
repository
rescinded
resembling
rushing
schizophrenia
shelved
shrubs
slit
soils
spokeswoman
strains
sulphur
swinging
swords
teased
tens
testimonial
textual
thriving
tranquil
unbridled
uprooted
ventilator
##85
##care
##ces
##dhan
##eb
##fi
##ified
##ions
##ksha
##kulam
##mine
##pers
##vo
##yi
##ر
##िक
39th
549
569
669
723
814
Alternative
Ankeet
Anubhav
Apoorva
Barot
Billings
Bishan
CBT
CRISIL
CSA
Cargo
Cemetery
Chapra
Chhapra
Cleveland
Conductor
Confirmed
Creek
DCT
DL
Dadasaheb
Dadri
Damoh
Disability
Doctrine
Dunedin
Dwarika
ESPN
Entries
FT
Fred
GMDC
Gandak
Genetic
Gist
Gori
Govardhan
Gowariker
Greco
Guide
HBO
HCC
Heavyweight
Imagine
Individuals
Inquiring
Ittehadul
Jagjit
Jemimah
Jessica
Jhelum
KGF
Kansal
Kashinath
Kemar
Lawyers
Madanlal
Matters
Mirwaiz
Moodys
NEAR
Ngidi
Nilima
Nowhere
Nyas
OFS
Occupation
Oh
Oltmans
Padmini
Pampore
Patents
Phones
Puranas
ROR
Rajani
Religion
Rudraprayag
S7
SCs
Satra
Saving
Shaheed
Sharjeel
Siddhi
Southwest
Tanwar
Thalaivi
Thapar
Touch
Trained
Transaction
Tucson
Tunisia
Twitterati
Uttrakhand
Webster
Yunus
accustomed
aggregators
allrounder
alluring
alpine
analyses
antemortem
appropriation
archaeology
behaving
biennial
bile
cabs
calamities
cashless
cavalry
chin
concentrations
convergence
correlated
creations
dargah
disguised
dissatisfaction
educationally
endowed
enhances
eucalyptus
expel
fabrics
fills
furious
genome
getter
grammar
graveyard
gurudwara
harmoniously
hatching
impounding
inactive
injures
inverted
mediapersons
mediate
mock
mocked
modeling
motto
negatives
occupations
pained
perceptions
piped
pooling
preside
preview
rakes
rapists
realism
reckon
rein
relay
revamp
rout
scholarships
sharper
shout
shrink
smack
smog
spade
spirituality
steered
superiority
tame
telcos
tenures
ultraviolet
vastly
vintage
virgin
vulnerability
waging
waking
weeds
willfully
##54
##HI
##ama
##ator
##dah
##ked
##ool
##oth
##ssa
##table
##uti
##ways
##zar
##zo
461
534
588
617
624
628
631
645
688
7000mAh
728
756
788
792
805
816
866
919
Alipore
Ambulance
Appraisal
BLOCK
Badaun
Bahubali
Bani
Barhara
Bayer
Bir
Blade
Composite
Correctional
Datia
Discussion
Doklam
Equal
Executives
Guha
Habeas
Hague
Hendricks
IIFL
IR
Jaffer
Jolie
KFA
Kanji
Kavi
Kgs
LTD
LTTE
Lacs
Lever
Lokayuktha
MGNREGA
MO1
Madison
Majumdar
Manjunath
Maytas
Merit
Mortaza
NCLAT
NS
Pahwa
Palanpur
Philander
Piaggio
Plants
Pol
Radia
Rajaji
Rating
Ratnakar
Reason
Rs1
Rutherford
Sa
Salary
Sangha
Sasikala
Sharman
Shatabdi
Shourie
Siddhesh
Simar
Sofia
Supergiant
Suriname
Township
VV
Veterinary
Vietnamese
Wind
X7
Yadavs
advertiser
archery
bourse
bureaucratic
complexities
composers
cowardly
cue
cyclones
defends
despatched
devote
diabetic
discredited
embarrassed
emphasizes
empirical
enclosure
enema
entitling
expounded
fasting
financier
forgetting
freshwater
greet
gunbattle
hawala
interestingly
interruption
invaluable
invisible
kissing
landmarks
leaned
leveraging
locker
lowers
measles
mercilessly
neurons
overwhelmingly
pedantic
persistently
pest
philosophers
posthumously
printer
promotee
quicker
quotation
reap
rebuttable
recurrence
refundable
relics
richer
roving
salvage
silently
sizable
soya
stagnation
sticky
striving
stubble
suspense
swung
terrestrial
texture
topping
triplicate
unabated
unauthorisedly
unusually
vulgar
wondering
yours
zeal
करने
जी
मैं
##90
##HALLI
##VA
##ations
##av
##ching
##dam
##dham
##dur
##ip
##khand
##laya
##lock
##logical
##long
##mann
##ney
##nis
##rk
##vani
##yur
##व
003
1890
654
694
711
763
A20
A30
ANNEXURE
Abd
Accenture
Amphan
Answering
Aravind
Artificial
Bandhavgarh
Basil
Basmati
Bhuyan
Biswa
Bitti
Boro
Bunty
CCA
Capacity
Chandru
Coconut
Concerned
Controversial
Crorepati
DLT
Dadar
Deewana
Denning
Dhadak
FDRs
Flower
G4
GSX
GTB
Ganpat
Gian
Himanshi
Horse
Hour
ICA
IGL
IGP
Jantar
Jeffrey
Joshimath
Kalanithi
Kataria
Kidambi
Koli
Lakmal
Lallu
Lavasa
MCG
Madhurima
Mahabharat
Majeed
Moises
Monster
Montreal
Nanhe
Nurse
OPAL
Oscars
Palin
Parihar
Pathanamthitta
Pinky
Polar
Purshottam
RESPONDENTS
RW
Raebareli
Riya
Rogers
Roston
SEIAA
SHIVAMOGGA
Seat
Sebastian
Simran
SoftBank
Sparrow
Sporting
Steps
Sukh
Swain
Thalassery
Tritiya
Triveni
Ukrainian
VVPAT
Valsad
Vancouver
Wonder
Xerox
adapting
authorizes
bonding
brink
bungalows
canopy
caseload
centralized
chana
civilisation
commended
commercials
commuted
confronting
constraint
couched
countrywide
democratically
disparaging
dossier
educating
effectuate
escorted
esteem
extenso
ferrous
flavor
grilled
handloom
hitherto
incite
inequitable
infact
infiltrators
injections
inventor
kernel
lengths
mad
microblogging
migraine
minutely
miserable
nicely
nominating
numerical
originality
palms
participates
phenolphthalein
presupposes
probity
promo
pronged
radioactive
ramping
rebuilding
recognising
remnants
rescheduled
resentment
responds
rub
sailors
sects
slap
sore
straightway
suite
swipe
tended
threadbare
timeframe
traversed
tumour
twentieth
unpredictable
viewer
visuals
vows
warehousing
wasting
worshipping
##61
##NI
##Rs
##bit
##cation
##cker
##ddin
##ings
##mic
##mmal
##mu
##oti
##ren
##yn
011
100m
2B
47th
584
589
603
647
734
928
AIG
Absence
Am
Ambikapur
Atma
Aussie
Burley
Ceremony
Chitra
Chitrakoot
DCM
Davinder
Defender
Detroit
Doug
ETC
Ease
Elaborate
Era
Farrukhabad
Fish
Gift
Gogari
Grazia
Hayat
Held
Hemisphere
Highest
IX
Ideas
Inspired
JMIC
Jagdishpur
Jamaican
Kachari
Kalimpong
Kamil
Karuna
Lander
MTPA
Magnum
Michaels
Moinuddin
Monte
Morne
NPR
NTT
Nadia
Nagapattinam
Newly
Nights
Nirgudghar
Novelis
Ontario
Ooty
Pakistans
Partha
Pithani
Plath
PricewaterhouseCoopers
Principle
Quit
RIMS
Rajpath
Ramaiah
Ranikhet
Rastogi
Ratio
Samuels
Sangwan
Say
Sheena
Sikander
Sircar
Socialist
Sundays
Sutlej
TOHO
TT
Teerth
Tesco
Titanium
Tmt
Trans
Tytler
Unlock
Venu
Venus
Writing
Xcent
Zinta
accolades
affix
alpha
appreciates
apprehensive
ardent
astronauts
behaviors
bells
bottlenecks
brawl
brokerages
cancers
charred
climbs
clot
clots
commute
complexion
complimented
confining
confusing
contradicting
copying
coral
cusecs
deterrence
devotional
differed
differentiated
disengagement
enamel
encompass
evenings
evidencing
expended
explanatory
falsity
fastening
fetching
flamboyant
foldable
foreigner
furnaces
gardening
glow
hain
harming
headwinds
hiatus
immersed
inspections
inventions
irreversible
kickstart
latters
leafy
listened
listeners
malkhana
microbes
moist
mum
nascent
negotiable
newest
noodles
notionally
nutrient
onslaught
overcoming
overlooks
pathological
pc
perfunctory
perpetuate
pressurized
progressively
prose
provisos
roadways
slipper
spyware
squeeze
supplements
thickness
tolerant
tumors
unbiased
unearth
unleashed
unworthy
uterine
virtues
wiping
worsen
##47
##CO
##SL
##TI
##TY
##gon
##graphic
##hia
##hs
##kam
##kas
##lies
##lok
##making
##nanda
##side
##swami
##uni
##ह
070
2200
2900
35th
38th
478
532
553
609
633
684
69th
706
714
717
885
997
A320
AYUSH
Alleging
Alloys
Arguments
Atlanta
Banega
Beta
Bids
Bikes
Bosch
Bowl
Brett
CPWD
Cat
Cena
Claimants
Conviction
Corey
Creative
DNB
Dakshina
Database
Eve
Eviction
FCCBs
FCS
GH
Gouda
Govindbhai
Guarantees
Gurkeerat
Harshvardhan
Hobli
Hunter
Indigo
Infoline
KOLKATA
Karunaratne
Khajuria
Koregaon
Kuan
Kunvarben
LCR
Lalla
Laskar
Legislatures
M01
Mantar
Mau
McKinsey
Militants
Morena
Movies
Mudra
NCDs
Nangaon
Odissi
PCA
Paddy
Pakur
Punit
RBS
RCEP
Release
Saibaba
Sampat
Sanghi
Satyajit
Shivalik
Slovenia
Sophie
Squadron
Sujit
TRF
Tangi
Tewatia
Trivendra
UM
Uloom
Versys
Virus
Vizianagaram
Walia
Whole
Winner
Wisconsin
Woods
Writers
Yamunotri
Zakia
Zoology
abadi
addressable
apathy
archaeologists
aromatic
artiste
athletic
audition
behavioral
beheaded
coating
colossal
commutation
comprehension
congenital
consigned
contamination
contextual
crashing
cursory
dairies
desk
devils
diaries
doctrines
drawback
dynastic
endurance
escalate
excepting
exigency
fearless
gall
garnering
hardened
holidaying
hunter
illnesses
illuminated
indemnity
industrialization
inexperienced
kurta
lineage
loudly
motorbike
node
obsolete
papaya
pathways
petticoat
phosphorous
phraseology
polymer
pottery
psychiatric
quiz
receding
regiments
reimburse
repatriation
retrieve
scorching
semblance
shaky
ski
smokers
sorrow
spiral
standpoint
stiffness
stole
stressing
stupendous
surfing
swim
tailor
tones
totaling
trilateral
tur
turbulent
underprivileged
weavers
साथ
সদর
##43
##59
##BA
##DI
##all
##anand
##cating
##dari
##ih
##kala
##kanta
##lity
##mus
##nation
##ona
##ph
##prasad
##ray
##reddy
##م
##कर
009
1927
518
644
668
66th
707
795
823
937
948
AML
Admi
Alappuzha
Anjana
Anuja
Appraisers
Bag
Bhan
Bofors
Buffalo
Bundi
CLSA
Certiorari
Chanderi
Cloud
Condemning
Corus
DS
DSE
DY
Dattu
Dennis
Determination
Dhaba
Dismissing
Elgar
Eng
Fishermen
Floods
Garhwa
Ghose
GoI
Gutkha
Hardoi
HiTech
Hindusthan
IFS
ITB
Instant
Journalists
Kader
Kanha
Karwar
Kerketta
Kheri
Kiss
Kuldip
Kush
LOA
Liu
Lockie
MAC
MRI
Markandey
Marlon
Massage
McClenaghan
Mehrotra
Memon
Minar
Minorities
Modiji
NOIDA
Names
Nowshera
OTG
PCs
POIs
Pistol
Planner
Preventive
Purple
Ramakrishnan
Rangoli
Ref
Revolutionary
Rod
Rushdie
SARS
Sadik
Sage
Samithi
Samoa
Satyapal
Seattle
Seniority
Shafi
Shivanand
Style
Talukdar
Vellie
Vijan
WICB
accreditation
activation
adaptive
advocating
ageing
airlifted
almirah
antigen
arid
auxiliary
basics
binary
biographical
blacked
candidly
capitalise
chilli
cockpit
conceivable
defied
destabilise
detract
dictates
divergence
divulged
electrified
embellishment
emulate
encashing
endeavours
exert
exhibiting
flute
folding
forestry
gainfully
halfway
hurts
hype
inclination
lander
layered
mentality
mesmerising
misdeeds
misinformation
misrepresented
misunderstood
moderated
molasses
neo
notings
novelist
objectivity
observatory
pictured
pigs
piston
planetary
plaque
playoff
plaza
policymakers
potshots
prolong
propulsion
rap
receivable
redness
regularity
reorganisation
safest
saline
saplings
sinking
slash
stainless
stipulating
stroll
supersede
swelled
tab
toddy
trespassed
unauthorizedly
unmindful
utterances
vanilla
vends
##08
##76
##80
##81
##EC
##OS
##VI
##ates
##bag
##cus
##ibility
##kai
##late
##nad
##nie
##raju
##uru
##yani
##ying
539
582
692
697
703
722
743
791
813
883
A7
ATC
Achievement
Ae
Akashdeep
Allegedly
Ankara
Applied
Asharam
BSEB
Bageshwar
Balangir
Beowulf
Bhaiyalal
Bharatanatyam
Bhulaiyaa
Canterbury
Compliance
Considered
Cut
DMA
DSPE
Dayanidhi
Dealer
Depository
Effective
Emaar
FLOOR
FunTouchOS
GL
GVL
Gaddafi
Ganganagar
Gangwar
Geology
Gokul
Hare
Harendra
Heera
IRNSS
ISB
Ideally
Irrespective
Jamiat
Khulna
Khusro
Kinwat
Kumara
Kundan
LW
Lajpat
Languages
Limaye
MU
Monnet
Morbi
Nagshettappa
Nalgonda
OTS
Oral
Organisations
Organising
PW21
Patti
Persia
Prabhudeva
Pragyan
Preity
Procurement
Puerto
RAO
Rafiq
Rajendran
Ramaswamy
Rautela
Rear
Registrars
Resettlement
Restrictions
Rizvi
Roohi
Sabbir
Sahab
Sainik
Sarja
Saturn
Scout
Seal
Secs
Separate
Sonepur
Stirling
Stories
Sugarcane
Sukhram
TDTA
Thoothukudi
Thunder
Ticket
Udham
Vallabh
Vegetable
WCW
Wharton
XL
adjudicator
adoptive
amortisation
aspiration
authorises
bastion
beefed
behavioural
biomass
blindly
bodyguard
bolted
buyout
canteens
careless
commuting
concede
conduction
conspiracies
convictions
dearer
devolution
dietary
downfall
electing
embarks
enacts
engages
erratic
etched
evicting
faiths
fated
filmmaking
flux
foetus
foundational
gagged
genius
geographically
goodbye
gratuitous
gritty
grove
halved
handlers
heatwave
humor
incursions
inducting
insert
ions
licensor
lifeline
liquidate
lounge
malign
malpractice
mercantile
misconstrued
mourned
myths
oak
occupational
opining
organises
overtime
peasants
perfumed
pixel
pronouncing
provincialised
publishes
purposely
quantification
[...]
