[PAD]
[UNK]
[START]
[END]
!
"
#
$
%
&
'
(
)
*
+
,
-
.
/
0
1
2
3
4
5
6
7
8
9
:
;
<
=
>
?
@
A
B
C
D
E
F
G
H
I
J
K
L
M
N
O
P
Q
R
S
T
U
V
W
X
Y
Z
[
\
]
^
_
`
a
b
c
d
e
f
g
h
i
j
k
l
m
n
o
p
q
r
s
t
u
v
w
x
y
z
{
|
}
~
¢
£
¤
¥
¦
§
©
¬
®
°
±
·
»
¿
Â
Ã
Å
×
à
â
ï
÷
ÿ
œ
š
Ÿ
ž
ǐ
ǫ
ʔ
ʻ
ʼ
ʽ
ʾ
ʿ
ˆ
ː
˚
́
̈
̧
̨
̳
͡
Α
Δ
Θ
Κ
Μ
Ν
Ο
Π
Σ
Τ
Φ
Ω
ά
έ
ή
ί
α
β
γ
δ
ε
ζ
η
θ
ι
κ
λ
μ
ν
ξ
ο
π
ρ
ς
σ
τ
υ
φ
χ
ω
ό
ύ
ώ
А
Б
В
Г
Д
З
И
К
Л
М
Н
О
П
Р
С
Т
У
Х
Ч
Э
а
б
в
г
д
е
ж
з
и
й
к
л
м
н
о
п
р
с
т
у
х
ц
ч
ш
ъ
ы
ь
э
я
ё
і
ј
ө
ְ
ִ
ֵ
ֶ
ַ
ָ
ֹ
ּ
ׁ
א
ב
ג
ד
ה
ו
ז
ח
י
כ
ל
ם
מ
ן
נ
ס
ע
פ
צ
ק
ר
ש
ת
،
ء
آ
أ
ؤ
إ
ئ
ا
ب
ة
ت
ث
ج
ح
خ
د
ذ
ر
ز
س
ش
ص
ض
ط
ظ
ع
غ
ـ
ف
ق
ك
ل
م
ن
ه
و
ى
ي
ً
َ
ُ
ِ
ّ
ْ
ٱ
ٹ
ټ
ٽ
پ
ٿ
چ
ڈ
ډ
ڌ
ڑ
ژ
ڙ
ښ
ک
ڪ
ګ
گ
ں
ھ
ہ
ۇ
ی
ۍ
ې
ے
ە
ँ
ं
ः
अ
आ
इ
ई
उ
ऊ
ऋ
ऍ
ए
ऐ
ऑ
ऒ
ओ
औ
क
ख
ग
घ
ङ
च
छ
ज
झ
ञ
ट
ठ
ड
ढ
ण
त
थ
द
ध
न
ऩ
प
फ
ब
भ
म
य
र
ऱ
ल
ळ
ऴ
व
श
ष
स
ह
़
ा
ि
ी
ु
ू
ृ
ॅ
ॆ
े
ै
ॉ
ॊ
ो
ौ
्
ॐ
॑
ज़
ड़
ढ़
य़
ॠ
।
॥
०
१
२
३
४
५
६
७
८
९
॰
ॲ
ঁ
ং
অ
আ
ই
উ
ও
ক
খ
গ
ঘ
ঙ
চ
ছ
জ
ঞ
ট
ঠ
ড
ণ
ত
থ
দ
ধ
ন
প
ফ
ব
ভ
ম
য
র
ল
শ
ষ
স
হ
়
া
ি
ী
ু
ূ
ৃ
ে
ৈ
ো
ৌ
্
ৰ
ৱ
ਂ
ਅ
ਆ
ਈ
ਐ
ਕ
ਖ
ਗ
ਜ
ਝ
ਟ
ਡ
ਢ
ਣ
ਤ
ਦ
ਨ
ਪ
ਬ
ਮ
ਰ
ਲ
ਵ
ਸ
ਹ
਼
ਾ
ਿ
ੀ
ੁ
ੂ
ੇ
੍
ੰ
ੱ
ં
ઓ
ક
ગ
ચ
છ
જ
ટ
ઠ
ડ
ણ
ત
દ
ધ
ન
પ
બ
ભ
મ
ય
ર
લ
ળ
વ
શ
સ
હ
ા
િ
ી
ુ
ે
ો
્
ଁ
ଅ
ଆ
ଇ
ଉ
ଓ
କ
ଖ
ଗ
ଙ
ଚ
ଛ
ଜ
ଟ
ଡ
ଣ
ତ
ଥ
ଦ
ନ
ପ
ବ
ଭ
ମ
ର
ଳ
ଶ
ଷ
ସ
ା
ି
ୀ
ୁ
େ
ୋ
୍
ୟ
ୱ
அ
ஆ
இ
எ
க
ங
ச
ஜ
ட
ண
த
ந
ன
ப
ம
ய
ர
ற
ல
ள
ழ
வ
ஷ
ஸ
ா
ி
ீ
ு
ூ
ெ
ே
ை
ொ
ோ
்
ం
ఆ
క
గ
చ
జ
ట
డ
త
ద
న
ప
భ
మ
య
ర
ల
వ
ష
స
ా
ి
ీ
ు
ూ
ే
ో
్
ಂ
ಅ
ಕ
ಗ
ಜ
ಟ
ಡ
ಣ
ತ
ದ
ನ
ಪ
ಬ
ಭ
ಮ
ಯ
ರ
ಲ
ವ
ಶ
ಸ
ಾ
ಿ
ೀ
ು
ೂ
ೆ
ೇ
ೋ
್
ം
ക
ച
ജ
ട
ണ
ത
ന
പ
ബ
മ
യ
ര
റ
ല
ള
വ
ശ
ഷ
ാ
ി
ീ
ു
ൂ
െ
േ
ോ
്
ൻ
ർ
ൽ
ං
ක
ග
ජ
ට
ඩ
ණ
ත
ද
න
ප
ම
ය
ර
ල
ව
ස
හ
්
ා
ි
ී
ු
ො
ก
ข
ค
ง
ช
ด
ต
ถ
ท
น
ป
ผ
พ
ภ
ม
ย
ร
ล
ว
ส
ห
อ
ะ
ั
า
ำ
ิ
ี
ื
ุ
ู
เ
แ
โ
็
่
้
་
က
ခ
င
ည
န
ပ
မ
ယ
ရ
ိ
ု
း
်
ျ
ြ
ွ
ἀ
Ἀ
‐
–
—
―
‖
‘
’
‚
“
”
„
‟
†
‡
•
…
′
⁄
€
₹
→
−
√
≥
⋯
●
❤
お
き
し
の
び
み
り
る
エ
チ
ッ
ビ
ル
・
七
三
中
京
人
会
元
公
動
北
南
县
取
司
唐
国
地
夕
外
大
天
姫
子
字
学
家
寺
寿
山
岐
島
川
州
巻
帝
式
心
成
手
扎
技
拳
握
新
方
族
日
星
木
本
東
株
楼
機
武
歼
民
水
江
池
河
海
湖
漢
灯
王
球
理
田
畿
社
神
立
笛
総
織
羅
自
色
菠
菱
藏
蘿
西
覺
読
諸
道
都
銀
関
隠
青
韓
首
국
대
민
한
️
🔥
🕉
🙏
🤣
🤯
आनी
अशें
आसा
खातीर
ह्या
ना
वा
एक
हांणी
उपरांत
केल्ल्या
हें
प्रमाण
करपाक
पूण
सांगलें
दिसा
करून
लागून
कडेन
की
चड
रुपया
हो
खाला
ताका
वर्सा
ही
क्रमांक
तो
आसात
जाल्यार
न्यायालयान
मेरेन
तशेंच
ते
हेर
आपल्या
असो
आशिल्ल्या
म्हणून
आशिल्लो
फकत
केल्या
ताणें
जाता
येता
उल्लेख
तयार
दोन
कोटी
भारतीय
करपा
हे
तांणी
मुखेल
सुरू
देखून
कांय
करता
आशिल्ली
करपाची
ताच्या
केला
१०
केलो
अशी
केल्लो
दाखल
केल्ली
न्हय
आड
आमी
कारण
परस
प्रतिवादी
आसता
सादर
च्या
प्रकरणांत
पुराय
ती
तातूंत
फुडें
दर
जाय
सुमार
लेगीत
ताचे
हांचे
दिल्ल्या
एका
केलें
करपाचो
केलां
त्या
केली
संबंदीत
अशे
करपी
वांगडा
हांगा
परतून
चवकशी
वेळार
तें
काम
नवी
आरोपी
वर्सां
आदेश
करप
टक्क्यांनी
भायर
करतात
म्हणल्यार
टक्के
दिवपी
तांकां
म्हळ्यार
तीन
मान्य
राज्य
सांगलां
नोंद
आतां
फाटल्या
करूंक
सगळ्यांत
तरेन
विशीं
जावंक
सावन
ताचो
जालो
१२
तेन्ना
मदीं
श्री
म्हायती
व्हड
दावो
अशा
विद्वान
तरी
कलम
आशिल्ले
गरज
सिंग
कडल्यान
खंयच्याय
स्पश्ट
आरोप
वयल्यान
दिसता
जाली
मेळटा
पयलीं
जारी
२०
पयल्या
खूब
सर्वोच्च
निर्णय
भारत
ताची
वर्साच्या
जी
वरवीं
उच्च
वाद
११
शकता
कायदो
पीडब्ल्यू
न्यायालयांत
मेल्ल्या
जो
आस्पाव
सगळ्या
योग्य
जाल्ल्या
दिवंक
निवाडो
मोदी
न्यायालयाच्या
मुखार
प्रमाणांत
सेवा
मेळना
##य
मरण
##च्या
दिली
१५
आशिल्लें
पुलीस
अध्यक्ष
वाड
कंपनी
परिणाम
दोनूय
याचिका
विचार
वयर
आदीं
जाल्या
काय
आशिल्ल्यान
सरकारान
अर्थीक
भारतांत
##चो
एस
प्रस्न
अधिकार
प्रधानमंत्री
आनीक
काळांत
ऑफ
केस
जाले
##न
२०१७
३०
सयत
परवानगी
पडटा
भितर
आदार
हांकां
रिट
२०१६
दिल्लीः
सकयल
अर्ज
करतना
लाख
केल्लें
लागू
हक्क
कंपनीन
हाचे
दिल्ली
स्थापन
कुमार
आयज
१४
हजार
अभियोग
ताब्यांत
तिणें
भौशीक
कायद्याच्या
केल्ले
विरुद्ध
जाहीर
##क
बाजारांत
म्हाका
हाजीर
नरेंद्र
दिल्या
फुडल्या
तांच्या
चार
नाशिल्ल्यान
करतले
कायद्या
संबंदी
जेन्ना
जंय
दिवपाक
१३
आसूं
आसून
नात
विक्री
आपली
##ा
पांच
भाग
जातली
आयतारा
दिलो
म्हूण
जावपी
कायदेशीर
शक्यताय
फायदो
वेगवेगळ्या
यत्न
सुवातेर
आयलें
याचिकादारान
##ाक
वरिश्ठ
एकठांय
निर्माण
##ाच्या
१६
प्रक्रिया
काडून
##चे
केल्यात
कसलोच
##ची
जाला
मंत्री
खर
आपलो
अर्थ
मागणी
२५
दिसून
हांच्या
##ं
चालू
अहवाल
थंय
जाल्ल्यान
इंडिया
याचिकादार
मान्यताय
अपील
येवपी
जायत्या
कितें
कर
कसलीच
सांगिल्ल्या
नेमणूक
तिका
जाका
अधिकारी
ख्यास्त
घेवन
केंद्रीय
१९
परत
जे
हाणें
गुन्यांव
२०१४
मत
जें
हांचो
तर
दिता
आमकां
##ांत
गजाल
बँक
संदर्भांत
वांटो
१८
५०
हाका
निर्देश
लोकांक
नव्या
जिल्लो
तिच्या
आदाराचेर
रद्द
दिवन
२०१५
पी
जाल्ली
##ान
मुंबय
सुवात
१७
अपीलदार
बंद
रक्कम
तपासणी
उत्तर
दितात
ताचेर
पयलींच
सरकारी
करूं
२०१३
धांवड्यो
जातलो
रितीन
आसतलो
हांव
जालें
पुरायपणान
जायना
फावो
जखमी
न्यायालयाक
पांवड्यार
नेम
केल्ल्यान
याचिकादाराक
जावपाची
आदारून
ल्हान
दिवपाची
शकना
क्रिकेट
उणी
०००
प्रवेश
दिला
लक्षांत
खर्च
नांव
हांगाच्या
येवजण
वेळ
केल्यार
पास
करचो
हेतू
२४
हातूंत
जाप
२०१२
##ाची
मेळ्ळी
डॉलर
करची
मालमत्ता
परिस्थिती
न्यायालय
खान
सद्याच्या
मनशाक
दिल्लो
भुमिका
नाशिल्लो
घेवंक
दिल्ले
संबंद
वट्ट
सरकार
आदारीत
दिवपा
उत्पादन
आमच्या
२१
राष्ट्रीय
सांगिल्लें
पुरावे
मागीर
वापर
नाशिल्ली
पक्ष
मुख्यमंत्री
सामान्य
दिवप
आदल्या
नदरेन
गुंतवणूक
२०११
अतिरिक्त
सी
निश्कर्श
करपाच्या
वेंचणूक
##चें
गुन्यांवकारी
संचालक
वटेन
दुसऱ्या
भारतांतल्या
दक्षिण
उपलब्ध
आसल्यार
लिमिटेड
पुलिसांनी
२००९
लुकसाण
त्याच
पयलो
पीएम
आसतात
पुरावो
ज्या
लोक
भेट
जर
वांगडी
भारताच्या
सुरक्षा
पक्षान
सध्या
म्हयन्यांत
२२
मेळूंक
दीस
प्रदेश
फारीक
आदेशा
संरक्षण
अँड
फुडारी
अटक
सोडून
उणो
विशिश्ट
कार्यवाही
आर
२०१०
शुक्रारा
वयल्या
परिस्थितींत
आव्हान
मतान
विचारांत
वरांचेर
भाजपा
काळ
सोमारा
उणें
१००
जावन
##चेर
उण्यांत
वैजकी
जरी
खाजगी
##ी
शेअर
घेतलो
टक्क्यां
संयुक्त
फाटीं
स्पश्टपणान
घेतिल्ल्या
सगळे
दुसरे
२००८
हाची
निमाणे
अपेक्षा
प्रतिवादीन
कारवाय
खंयच्याच
नियंत्रण
खबर
मंगळारा
आसूंक
अदमास
##ंत
अधिकाऱ्यान
किंमत
आपलें
दिवपाचो
२३
म्हण्टात
जाल्लो
##र
संद
३१
##ाचो
नियम
अधिकृत
बदल
घेवपाक
शर्मा
कळाव
न्यायालयीन
न्यायाधीश
आसतली
केंद्र
मे
पयली
कागाळ
बायल
जम्मू
चर्चा
जाल्ले
संवसारीक
टी
नासतना
जालां
आपूण
२०१९
पंगड
जायते
करचे
आयलां
२७
रेल्वे
कार्यकारी
ताचें
वीज
दिल्लें
##च
सिनेमांत
खटलो
खेपे
फायद्या
येतात
तेच
म्हणलां
तरतूद
घेवप
काळा
जातूंत
२६
थारायलें
विधान
जमीन
टाटा
कसोटी
दुरुस्ती
वकील
आंतरराष्ट्रीय
हाचो
वायट
आक्षेपीत
हातांत
बी
वेपारी
परिच्छेद
राज्यांतल्या
२८
मूळ
खास
दुसरो
वर्साचो
आदलो
अस्तंत
खरें
पद्दत
साक्षीदार
घेवपाची
उदरगत
सुरवात
मेळ्ळ्या
करपाचें
मुखेली
वित्तीय
कुशीक
४०
मोल
स्वता
नोटीस
घेतली
शार
बरी
रुपयांची
जून
तरतुदी
दितना
येणावळ
२०२०
बेकायदेशीर
जाणांक
बिरेस्तारा
बरे
केल्लीं
पुरस्कार
सकाळीं
संदर्भ
मानतात
नोंदणी
सोद
मनीस
काँग्रेस
व्यक्ती
केन्नाच
चालीक
तांचे
बंदी
आसतना
हल्लो
पगार
शेनवारा
कपूर
०९
सिध्द
अब्ज
अपीलदारान
भारतान
म्हणलें
उण्या
स्थिती
वाठारांत
खात्री
हालींच
वळख
नागरी
सांगिल्ले
सोडल्यार
पयशे
गांव
गंभीर
अंमलबजावणी
पक्षाच्या
फोन
अशेंय
लग्न
बरो
त्रास
तांची
०१
दितले
सरकाराक
पळयल्यार
वतीन
के
२००७
वर्स
उलटसुलट
नाशिल्ल्या
शुल्क
वेवसाय
२९
गुन्यांवकार
मात
जावपाक
मानादीक
उल्लंघन
डॉ
कांयच
चांचणी
सादारणपणान
नदर
अपेस
संस्था
आशिल्लीं
कसलेंच
निमाणें
पूत
करार
वादी
आपले
जप्त
मेळ्ळे
विनंती
##ाचे
वाठारांनी
भलायकी
थारायलां
तिसऱ्या
मार्च
वेवसायीक
तारखे
वैयक्तीक
न्हयकार
##ाचेर
शकतात
डिसेंबर
एससीसी
पुरवण
तपास
निव्वळ
डी
प्रकरण
भरपाय
जाल्यात
हाचेर
आवय
कृती
सचीव
खाशेल्या
पाकिस्तान
निवड
जातात
गरजेचें
खरेदी
तुमकां
राहुल
हॉस्पिटलांत
विभाग
सांगता
मध्य
०८
शक्य
शिक्षण
हांवें
दंड
राम
किमी
लक्ष
सक्षम
वेंचून
पुष्टी
घरांत
सुदारणा
आरोपीक
अशीं
जीबी
मनशाच्या
तुमी
दुबाव
०५
एफआयआर
घेवपा
प्रदर्शीत
आदारान
घेवपाचो
नांवान
करचें
सुरवेक
परकी
उपाय
घडणूक
सिनेमा
खून
थळाव्या
एम
पत्र
विधानसभा
सैमीक
विरोधी
०३
निमाण्या
कर्णधार
टन
उजवाडाक
वेवस्थापन
राजकी
हांची
गूण
फाटल्यान
०७
जातलें
घरा
मळार
सात
सुचोवणी
चो
विमान
जैत
खंयचीय
सप्टेंबर
क्र
मेळिल्ल्या
लागीं
प्रकल्प
घोशणा
म्हज्या
देशांतल्या
सिंगान
तशें
उलयतना
मर्यादीत
कठीण
मेळटात
प्रकरणाच्या
पावलो
हीं
हस्तक्षेप
बेगीन
अजून
अभिनेतो
व्हडलो
२०१८
देवूळ
२००६
सहाय्यक
५००
उद्देगीक
०४
निमाणो
गुजरात
निवेदनांत
घेतला
वाडून
अपीलदाराक
निधी
भाडें
वर्साक
हाच्या
एकाच
नोंदींत
ची
जानेवारी
बसका
कंपनीच्या
करपाखातीर
०६
६०
वेव्हार
तथ्य
प्रलंबीत
मजत
सिद्ध
वर्सांत
तिचो
०२
व्या
करपाचे
सुटका
वाजवी
मर्यादा
घेतिल्लो
याचिकादाराच्या
पक्षाक
आसतलें
लवाद
लश्करी
केन्ना
थारायिल्ल्या
पळयात
या
कायद्यांत
नवे
गट
खंयचोय
घडणुकेच्या
अंदूं
व्हडली
मनशान
पात्र
मजगतीं
म्हणटा
येरादारी
पयस
फुडारपणा
तिमाहींत
मुळाव्या
एकूच
उमेदवार
पयलेच
कित्याक
पडटलें
प्रतिसाद
तांचो
प्राधिकरणान
सदांच
९९९
फिल्म
यादव
खंडपिठान
पर्याय
बगर
प्रस्ताव
घटक
भाव
न्यायाधीशान
प्रकरणाची
तिची
तोंड
दुसर्
लोकसभा
कामगार
जिल्ह्यांतल्या
वचून
आदी
भर
जुलय
निर्णयांत
सुनावणी
घेतले
पळोवन
वस्तू
२००५
सरकाराच्या
##ल्या
याचिकादारांनी
करतलो
२००४
बिहार
घालून
बोली
भारताक
पडटलो
सप्तकांत
इत्सा
उणे
वळेरी
वाठार
विमो
प्रो
स्वाक्षरी
व्हिडियो
नाशिल्लें
मार्ग
मेळ्ळो
अली
पासून
गांधी
बापूय
फुडले
ऑक्टोबर
दरान
००
जामीन
सोदून
स्टोरेज
निरिक्षण
तपशील
याचिकादारांक
नवो
प्रतिवादींनी
देशांत
मतदान
एक्स
पिरायेच्या
जाग्यार
आयिल्ल्या
वकिलान
खेळ
तेंच
पडटली
शेतकी
चित्रपट
##ाचें
लोकांनी
हिंदू
अंतरीम
३५
तेंको
घेवपी
दिल्लींत
राज्यांत
##्स
मेळोवपा
दिलें
बरें
अधिकाऱ्यांनी
सरासरी
उपकलम
युनिट
न्याय्य
कर्मचारी
अनुक्रमान
अजूनय
दरेक
कंपनीक
स्वताक
वाट
एजन्सी
जावपाचो
मेळटली
##ूय
याचिकेंत
करिनासतना
बरोच
प्रतिवादीक
ऑगस्ट
प्रत
दवरून
वेपार
उक्तावण
स्टॉक
पात्रताय
गाडी
वर्सुकी
भारता
सादारण
वांगडाच
इंडियन
##ली
बसकेंत
कारणांक
प्रस्नाचेर
निर्यात
प्रकरणांतल्या
दिसना
दिसांनी
उपेग
उक्तें
मंडळान
युक्तिवाद
नॅशनल
पंजाब
समिती
स्थगीत
विस्वास
खेळगडो
राखण
चडांत
अहवालांत
उदक
२००२
दस्तावेज
तिगोवन
कायद्याचो
रॅम
४५
सर्त
अमेरिकेच्या
खासा
मदत
सगळ्यो
वता
व्याज
नोव्हेंबर
लांब
दुसरी
आठ
लोकां
समाजीक
मंडळ
जापसालदारकी
सांगून
जमनी
मेळपी
आदेशांत
करतली
मेळ्ळें
हरकत
शिक्षणीक
तीच
मुल्यांकन
सुरक्षीत
आयलो
थेट
वाडत
तेल
##त
जाचे
प्रमाणें
अभिनेत्री
नेमान
बरोबर
म्हणटात
वेंचणुकेंत
लागसार
बिगर
आयपीसी
स्वताच्या
मुक्त
पद्दतीन
भरती
आयात
मेळटलो
तीं
भारताचो
परवानो
आयपीएल
गेलो
पक्षाचे
वादीन
वाहन
८०
तारखेक
मालकी
स्मार्टफोन
बाबतींत
विराट
भौतिक
२००
मुद्दो
मोबायल
३२
आतंकवादी
म्हत्वाचो
व्याख्या
संबंदीं
उक्ती
चूक
चवकशेंत
म्हणण्या
कारणां
मॅच
घेता
उणाव
अमित
संपर्क
फेब्रुवारी
दुयेंती
देखीक
दिसां
निवासी
म्हत्वाचें
रावपी
उपरांतच्या
ह्यो
न्याय
दिवपाच्या
वचपी
प्रतिनिधित्व
कल्पना
७०
मारून
सर्तींत
अस्तित्वांत
फुडली
वर्णन
वेवस्था
सह
वरां
बेंगळुरू
सांगतात
##स
स्टेशन
स्पश्टीकरण
आंध्र
पाळो
दोशी
एप्रिल
निशेध
आयले
बिग
घेतात
अटी
##ल्यान
मदल्या
हेतान
अधिसुचोवणी
दवरपाक
कंपनींनी
आमचे
दरेका
फावटीं
महाराष्ट्र
पळोवंक
व्हडल्या
घर
प्रमाणपत्र
उदेंत
एमपी
कामगिरी
वेगवेगळे
केल्ल्याचो
अपीलीय
आंकडो
प्रत्यक्ष
कायद्यान
सध्याच्या
२००३
निविदा
रोख
आवाहन
करतालो
विशय
गजाली
तत्वां
निर्णया
##ले
बडटी
वेंचणुके
आदले
अमेरिकन
बँकेन
समितीन
तिचे
जापसालदार
अधिकारक्षेत्र
बॉलिवूड
वर्साचे
म्हणूंक
पदाचेर
दिवची
सुवाती
पावस
प्रसाद
मुखेलपणान
वेवस्थापकीय
शारांत
४८
स्वतंत्र
पुराव्यां
उबो
धोरण
प्राथमीक
धूव
आशिल्ल्याचें
नियाळ
संवाद
दशलक्ष
बळी
शाह
७५
भारताची
पडलो
कर्नाटक
नेमा
##ल
फरमान
आसतले
निवेदन
शाळा
कॅमेरो
विभागीय
व्यापक
जावचो
नांवां
निमाणी
सारकिल्या
मंजुरी
एकमेव
विकेटी
मॅचींत
म्हयन्यां
##लो
तंत्रीक
सोशल
प्रभावी
घेतिल्ली
चिन्न
देंवून
सुरवातीच्या
चवथ्या
जमा
मेळ्ळा
जनरल
पक्षांनी
लोकप्रिय
सीबीआय
वांटून
पिराय
२०००
खरेंच
९०
दिल्ल्यान
बलात्कार
किरकोळ
अंतराचेर
आदेशाक
मालिका
पदच्युत
एकदां
##े
वेस्ट
खात्यान
इक्विटी
कोहली
तुमच्या
हांणीय
चेर
क्रमांकाचेर
माल
गोळीबार
काल
भार
दुसरें
रावपाक
प्रत्यक्षांत
केल्यो
बांदकाम
जाल्लें
याचिकादाराची
दरेकीं
फावना
दिवपाचें
मार्गदर्शक
दवरतात
संशोधन
ह्याच
श्रीमती
प्रार्थना
प्रदेशांतल्या
खंयचेय
पीसी
हुस्को
आसलो
पयलें
आयली
सुविधा
परिशिश्ट
विकतें
खेळां
मेल्लो
सुशांत
काडलो
उपचार
सत्र
कामां
रस्तो
नदरेक
सूत्रांनी
राजस्थान
कर्तव्य
खटल्यांत
निकाल
विजय
सारक्या
सकयल्या
इतलो
किलो
गवाय
##च्यो
चीन
उतर
परराश्ट्र
आस्त
पदवी
वाठारांतल्या
आवृत्ती
६४
प्रशासकीय
उलो
आरोपपत्र
कार्यावळी
पसंत
म्हयने
विरोध
चालूच
पुलिसांक
महसूल
फरक
घटमूट
खाशेलो
फारीकणी
मेळोवन
जीं
काश्मीर
बाजार
क्षमता
वळखतात
प्रस्तावीत
केंद्रीत
कदर
दिवचो
निवृत्त
जमनीच्या
घरगुती
दिसलें
दिल्लीच्या
तत्व
धोको
पावलां
फोनांत
रीण
तथ्यां
साक्षीदारान
पाकिस्तानी
वाटो
वनडे
वेगळी
सांजवेळा
मोहम्मद
णव
सारके
खातें
परिक्षा
चीनी
उत्पन्न
बंधनकारक
आडखळ
प्रशिक्षण
नोंदणीकृत
तोखणाय
दिनांक
रेडमी
##ो
अन्न
गेले
बॉस
उद्देशान
टिका
कूड
मारुती
योगदान
पडटात
तांक
विकास
सलमान
ऑफर
निरपराधी
दनपारां
एससी
जागतीक
दर्जो
वापरतात
रातीं
सगल्या
न्हयकारली
जशें
वाटप
रगत
अपीलदाराच्या
पळून
सल्लागार
सारको
एके
वसुली
पॉवर
नोंदी
कोवीड
तोच
देश
उपाध्यक्ष
जिवीत
मंत्रालयान
संख्या
जाती
न्यायालयांनी
जतनाय
संकेत
रिलायन्स
पुरो
वसीयत
वखदां
जावचे
आयुक्त
वसूल
बऱ्या
कर्मचाऱ्यांक
प्रादेशिक
म्हत्वाची
स्टार
एल
शिफारस
काडपाक
उद्देग
बरयल्ल्या
बॅटरी
आयिल्ल्यान
आपलीं
जिल्हो
येवजणे
जखम
सरकारा
सल्लो
राश्ट्रीय
ऑनलायन
कोलकाता
दरांत
वचूंक
३३
##म
खरपणान
५५
लक्ष्य
डेटा
व्यक्तींक
जनता
दुर्लक्ष
भांडवल
कार्यवाहींत
फक्त
चलता
२००१
१९९६
ब्रिटीश
पुराव्यांचो
मतींत
कार्यालय
खाशेली
रोहित
पदक
सूट
वचपाक
एकल
मॅची
संजय
अभ्यास
पेन्शन
देशी
उजो
निर्णयाचेर
हात
##ांतल्यान
पद
जमनीचेर
हस्तांतरीत
तिसरो
घेतल्या
निर्मातो
फूट
अणभव
डिस्प्ले
पक्षांक
धर्मीक
वजन
विभागांत
बायलां
साहित्य
आमचें
इन
याद
भाजपान
गिरायक
जावप
३४
वादग्रस्त
शिखर
खंयचोच
येवंक
डब्ल्यूपी
कामाक
थारतलें
मनरिजवण
कसो
बदला
मेळयलें
टिप्पणी
नाशिल्ले
विधेयक
अधिकाऱ्यांक
सारकें
##ांक
येवन
वेगळो
देवी
नोट
घालो
जिल्ह्यांत
मरणा
वर्ग
प्राधिकरण
सुपर
नाका
फ्रेम
सत्ता
वैध
विकसीत
ऑटो
##डेन
बळिश्ट
खेळगडे
कोरोना
नगर
संहितेच्या
फुडलो
राज्यान
उरिल्ल्या
३००
फावट
हिंदी
केले
दाखयता
भाजपाचे
दवरपा
पदां
कुटुंब
निश्चीत
समाधान
मनशाचो
वेरिएंट
राज
राजिनामो
१०००
धांवड्यांनी
अर्थमंत्री
काडला
व्यक्तीक
सगळें
येवपाची
बँकेच्या
विस्तार
खासदार
संमत
दिलां
विश्लेशण
संभाव्य
बंदखणींत
गरजेची
३६
##ां
मेळचो
##ांतल्या
एन
सकारात्मक
मनशाची
स्थितींत
दिले
रंग
गाडयो
व्ही
इश्ट
मुंबयच्या
टीव्ही
आरोपीच्या
राजा
अमेरिकेंत
पीडब्ल्यू१
१९९९
मॉडेल
कॉर्पोरेट
तातूंतल्यान
पयले
प्रमाणीत
हरियाणा
संबोधीत
महिंद्रा
घेवपाच्या
रिणां
रोखडेंच
उबें
इंजिन
हाडली
घेतल्यार
दिवाणी
एअर
पंगडान
तातूंतले
निफ्टी
तारीख
वर्साची
जातकच
थारावंक
मेळूं
घडणुके
खाशेलपणां
वैधानीक
##ांनी
डे
दूरसंचार
धा
विद्यार्थी
आरोपीत
कबलात
वळेरेंत
पक्षाची
रातच्या
पक्षां
घेवचो
जायतीं
इंग्लीश
कायद्याची
तयारी
४२
दवरला
आमदार
वि
संगीत
आयला
उरफाटें
जाण
४४
साध्य
खंयच्या
गैरवापर
कायदे
जमनीचो
जायत्यो
वादीक
प्रक्रियेंत
गृहमंत्री
उक्ते
न्यायालयाचें
लाल
कागदपत्रां
चडशा
३७
व्याप्ती
१९९८
अट
मुंबयः
अत्यंत
फुडारपण
वन
स्वरूप
कंत्राट
तारीक
कंपनीं
अपीलदारांक
शो
एआयआर
अनिल
सहकारी
##ंक
सामील
अधिकाऱ्याक
आसली
दवरप
हमी
संपादन
आकर्शीत
इतिहासीक
चलपी
संहिते
समान
६५
मुसलमान
राज्यांनी
घरांतल्यान
सतत
दिवचें
पटेल
संमती
प्रचार
चें
प्रदेशांत
बंगाल
मुळावी
वांगड्यांक
वर्सांचो
कागाळदार
अधिकार्
आयसीआयसीआय
केल्ल्याचें
मदलो
पोस्ट
ब्लॉक
विनवणी
निर्णयाक
३९
क्षेत्रांत
घोव
सीईओ
म्हणत
कशी
अपीलांत
रेकॉर्ड
क्षेत्रांतल्या
चुकीचें
तंत्रज्ञान
सादरीकरण
घडोवन
संविधाना
मेळटले
सप्तकां
रोखडीच
वटांनी
भागांत
आयोगान
कंपनीची
लीग
प्रतिवादीच्या
५१
प्रतिवादींक
लिटर
पीओ
चलन
चुकीचो
फायनलींत
मोटारसायकल
आत्महत्या
कोळसो
पेट्रोल
तोंडी
भागीदारी
दोश
मंजूर
जल्म
प्रकरणाचेर
स्टेट
प्रोत्साहन
वादीच्या
उक्तो
हवाई
येवपाक
आनंद
मारलो
आवाज
##िंग
पडली
रिझर्व्ह
सांगिल्ली
कंपनीचो
बिझनेस
मिडिया
यशस्वी
सगळ्यांक
बरयलां
तिगून
आयसीसी
प्रासंगीक
जातले
प्रकरणां
सारकी
प्रतिज्ञापत्र
१९९५
लैंगीक
पुराव्यांत
आसत
रावता
मानसीक
निर्देशांक
प्रकाश
शकनात
आंग
अपीलदारांनी
हालींच्या
इतली
स्थलांतरीत
##खातीर
४७
क्रेडीट
प्रसार
घेतिल्लें
धक्को
म्हयन्याक
१९९०
उत्कृश्ट
मेळटलें
करीना
पदार्थ
एकंदर
दावे
समस्या
दिसपी
सद्याची
विस्वासांत
हवामान
पसून
मालमत्तेच्या
चौधरी
चडशे
मेळून
उद्देश
दिसांच्या
स्टेशनांत
राज्याच्या
स्वातंत्र्य
अहमद
करताले
घडये
तमिळनाडू
प्रकरणाक
हैदराबाद
कार्यालयांत
३८
आसपाक
व्हडलें
समजून
गांवांत
४००
गजालीं
झगडीं
देशांनी
रावपाची
मेळपाचो
मेळोवपाक
मेळची
मेळपाक
राष्ट्राध्यक्ष
फोटो
कुटुंबांतल्या
दुख्ख
उपरोक्त
मानून
मीटर
जैन
संविधानाच्या
एचडी
बांदावळ
हिस्सो
विशयाचेर
कशें
खेळांत
राजनाथ
खात्यांत
देंवती
तातूंतल्या
अजय
अशोक
ऑर्डर
कट
मनशा
बरयल्लें
मालिकेंत
वर्गांत
रुपयां
४९
आयटी
अल
क्षणार्ध
४३
पडपी
घेवची
देखरेख
पंगडाक
राजीव
केन्नाय
प्रभाव
१९९७
उतरांनी
अनुदान
लोकांच्या
आयकून
आंतरराश्ट्रीय
एक्सचेंज
पुनरावलोकन
कार्यावळ
मिडियाचेर
रुपांत
सविस्तर
रुपयांच्या
प्रस्नांतल्या
मेल्ली
बारीकसाणेन
व्यक्तीं
नगरपालिका
विंगड
प्रतिनिधीत्व
मतां
डिझेल
गती
भास
लागसारच्या
शिटकावणी
करारा
आदेशाची
तुळेंत
एकूण
आयफोन
मोटर्स
म्हत्व
आडमेळीं
हेत
अर्द
ऑस्ट्रेलिया
हांचेर
बायलेक
दवरपाची
पर्यायी
मरणाची
रणनिती
सुनील
वापरून
सुझुकी
लागलो
वेवस्थीत
सांगूंक
उलोवणी
काँग्रेसीचो
शारिरीक
शिक्षक
वेंचणुकेच्या
प्रकारच्या
सीएम
खंयचीच
विद्यार्थ्यांक
प्रदर्शन
१९९४
४१
डिझायन
हाजिरेंत
मनमोहन
आय
वितरण
अधिकाऱ्यां
हस्तांतरण
दवरता
आयल्या
फायदे
भोंवतणी
प्रशिक्षक
कार
वेळा
हाडपाक
नेमाच्या
१५०
दोगांय
दाखोवंक
फलंदाज
थारावपा
युरोपीय
बाजारपेठ
दवरली
जाचो
दिसाचो
सोबीत
मनमानी
घटनात्मक
सुदारीत
गॅलेक्सी
सोपूत
राजधानी
अरविंद
न्हयकारलो
बच्चन
फुल
वेगळें
##िया
खबरां
प्रस्नांचेर
संघटना
अक्षय
पालन
ब्रँड
सोंपें
मेळ्ळ्यात
करात
घडणुकेंत
दिल्यार
थारता
##नी
मान
अर्थान
कार्ड
केरळ
बंधन
५२
आमचो
निवळ
चित्र
अरुण
कायम
योग्यताय
पंचायत
##ांची
पळयतात
माननीय
उर्जा
ऑलिंपिक
तुळा
विश्वचषक
रावलो
आशिया
घेतलें
पावल
चंद्र
राव
थारावपाक
घाली
पुराव्याचेर
एचडीएफसी
प्रति
इंडीज
जाणून
हार
बॉल
पोरन्या
अॅडव्होकेट
स्नॅपड्रैगन
भयण
दुख्खी
मार्गान
कार्यावळींत
फौजदारी
मानक
आशियाई
क्षेत्र
जायरात
आमची
सगळीं
प्रीमियम
प्रवृत्ती
दुबावीत
उंचेल्या
सीआर
बचाव
भारती
निर्णयाचो
नोकरी
रस्त्यार
नेटान
साधन
काडिल्ल्या
आयल्यात
एंड्रॉयड
पावले
लाँच
दंडाधिकाऱ्यान
तज्ञ
असोय
शंबर
येना
मध्यम
सुवातींनी
इमारत
दिवचे
द्विपक्षीय
पटींनी
पडून
सुटी
होंडा
रान
हाडलो
प्रतिकूल
सिंगाक
जिल्ह्यांतलें
वचपाची
दवरलो
निर्णयाच्या
लोकांचो
पंगडा
प्राधिकरणाक
स्टील
डीएनए
अबकारी
पॅरा
इंग्लंड
गरजे
पान
न्यायालयाची
मेळयल्या
भुरगीं
४६
खरी
राष्ट्रपती
कराराच्या
संवसारांतल्या
घरां
विज्ञान
दवरूंक
कंपनींक
जांकां
पीएस
इतले
पाकिस्तानान
डब्ल्यू
मेगापिक्सेल
दाखोवपा
तांचें
म्हजे
काँग्रेसीन
तथ्यांचेर
डिसेंबराक
मोलादीक
खऱ्या
५४
एकत्रीत
आसचो
काँग्रेसीचे
उपक्रम
सवलत
म्हत्वाच्या
##परस
सीबीआयन
बेगोबेग
करपाचेर
भायल्या
कपडे
##ांच्या
दवरपाचो
पत्रांत
फटवणूक
दबाव
धाडलो
##ः
खोशी
उप
फॉर
काँग्रेसीच्या
काश्मीरांतल्या
सरळ
नोव्हेंबराक
रोजगार
मंद
सचिन
सलग
आयिल्लो
डिजिटल
लावपाक
घालतात
मंडळाच्या
वर्सांच्या
वेगळे
भुरग्यांक
थारायल्या
जावं
रिक्त
याचिकादारांच्या
गेल्लो
वागणूक
जिखून
रॉयल
प्रकरणांनी
प्रवास
म्हणूं
न्हयकारतात
साक्षीदारांच्या
वी
प्रतिस्पर्धी
अर्जदार
वेगवेगळीं
प्रवासी
प्रकार
चेन्नय
जाग्यांचेर
मारपेट
गुप्ता
नव्यान
वाचन
नियंत्रीत
अमिताभ
५३
थंयच
मूल्यांकन
जाल्ल्याचें
भशेन
लढो
प्रतिनिधी
येवकार
प्रस्नचिन्न
भाजपाक
रिलीज
वाडोवपा
अहवाला
जेवण
म्हजें
राज्या
बायलांक
एप्रील
जाणविकाय
फेरयेंत
८५
बीसीसीआय
गोलंदाजी
म्हामंडळ
व्यक्तींनी
१२८जीबी
चित्रां
##ंचो
जीएसटी
मानूंक
सोंपतकच
उक्त्या
ऑस्ट्रेलियन
##ू
याचिकादाराचेर
ऑक्टोबराक
सिटी
अयोग्य
पळोवपाक
उबी
पदार्पण
प्रभारी
२०२१
जावपाचें
सद्या
##पूर
केल्यांत
खेळगड्यांक
मेगावॅट
दंडाधिकारी
फंड
शारांनी
संसदीय
वादांत
थाराव
मेळपाची
सरलो
भ्रश्टाचार
साकर
एच
ट्रम्प
न्हयकारलें
एकर
थारायिल्ले
माफी
दवरल्या
आउट
उमेदवारांक
वनप्लस
हिमाचल
मेळ्ळां
१९९३
ऑगस्टाक
पीडब्ल्यू२
जुलयाक
१९९२
रावतात
सेन्सेक्स
झारखंड
मनशाचेर
वर्गांतल्या
स्थिर
उदा
पर्यटन
सर्वेक्षण
अग्रवाल
वर्ल्ड
कागाळदारान
शेतकार
९९
टप्प्यांत
गिरायकांक
कसलेच
मेळयली
पक्षांच्या
८००
राज्याक
राष्ट्र
शेतकारांक
प्रिमियर
हाचें
मालमत्तेचो
देव
शांतताय
सोदतात
रुपयांक
##लें
कॅमेरा
खंय
आसप
एमएएच
भंग
उपरांतच
न्यूझीलंड
पर्यावरण
आदर्श
मार्चाक
यूपी
सप्टेंबराक
बंदखणीची
उतरां
कंत्राटी
पडलें
फांशी
कायद्याचें
निर्मिती
खटल्या
५८
ओव्हरींनी
म्हळां
थारावप
युनायटेड
निलंबीत
कंपनीचे
मी
रेड्डी
संस्थांनी
फुडाकार
आसाम
##०
थंड
थारावपाचो
जावचें
हेतून
धोनी
केल्ल्याची
प्राधिकरणाच्या
जालीं
सामग्री
हांचें
सांबाळपाक
अदमासा
कॉल
गांधीन
कळ्ळें
परस्पर
अमेरिकेंतल्या
तथ्यात्मक
पद्दती
##ांचो
##ंनी
न्यायाच्या
मॅचींनी
लोकांची
सुचोवण्यो
उबे
कपात
मेळनात
मेळयले
वतात
दिसतात
अंक
५६
जागरण
भागीदार
रोखडोच
अर्जांत
घालूंक
विक्रम
पुत्र
आवड
गुन्यांवाची
भावना
आकार
अमेरिकेचो
वाडोवंक
२५०
कोण
पॉयंट
दवरिल्ल्या
नारायण
मागली
भाशेंत
हितसंबंद
व्हेलो
चौखण
पाकिस्तानाक
मुद्दाम
हाऊस
देवळांत
##सावन
हंगामांत
दिना
अंतर्गत
दास
वाहनां
कागाळींत
कि
सोदता
अभिव्यक्ती
बाजारांतल्या
सादलो
५७
प्रतिज्ञापत्रांत
उडी
मेसर्स
करतां
राय
इलेक्ट्रीक
खात्याच्या
रुपयांचो
वाटाघाटी
सोनिया
स्पॉट
लायव्ह
उडयलो
जॉन
वेवस्थापक
मोदीन
वापरिल्ल्या
बॅनर्जी
भोंवडी
हाडून
भरपूर
सुनिश्चीत
नेमांत
अभियांत्रिकी
प्राधान्य
वर्गीकरण
पंगडाचो
कागदपत्र
इतिहास
शारांतल्या
स्वामी
परतावो
विकत
केजरीवाल
कॉर्पोरेशन
दिवपाचे
चुकीची
ट्विट
१९९१
तरतुदीं
पोस्टमार्टम
आयल्यार
मुखर्जी
शकलो
आसलें
नकारात्मक
पत्रां
अंकांचेर
इंडस्ट्रीज
खरो
व्यायाम
एप्रीलाक
प्रणाली
प्रियंका
वांगड्यांची
सक्रीय
दिल्लींतल्या
प्रसारीत
समितीच्या
यश
अपघात
उत्पादनां
अनुसुचीत
वळखून
समाज
पारंपारीक
कथा
प्रोसेसर
साक्षीदारांनी
संचालन
भट्ट
सामुहीक
खण
ताबो
पत्रकार
६७
परबीं
तरतुदींचो
नासलो
कामगारांक
गुप्तचर
येस
##ंतल्या
संविधान
निरिक्षक
दितलो
इंधन
एसयूव्ही
पळयलें
विद्यापीठ
येतलो
सॅमसंग
वरांत
उरता
वापरपाक
तिचें
भारताचे
हाडपा
वंचित
आफ्रिका
कुडींत
फलंदाजी
भुरग्याक
मेळचें
स्वताची
लेखक
दाव्याच्या
चलनवाड
फातर
##ंतल्यान
व्हरून
कर्मचाऱ्यांच्या
मांडलो
उजव्या
हाडपाची
अभिनय
न्यायालयां
आघाडी
उत्पादनांत
आंकड्यां
मैदानाचेर
आरोपीन
ठाकुर
इंचाचो
रुपांतर
६००
गरजेच्या
जेटली
##१
देंवलो
नांवाच्या
फुकट
विकेटींनी
युती
चेक
७२
पातळी
विचारलें
सोंपपी
िे
क्वालकॉम
भाजपाच्या
आश्वासन
गरजेचो
तिचेर
मोग
रियल
काडपा
खंयचेंय
घालता
मिमी
कल्याण
वेळापत्रक
शस्त्रां
माध्यमांतल्यान
घडणुकेची
अंतर
गृहीत
मनशाचे
सिध्दांत
चालना
##ंच्या
नासूं
थळ
बजाज
सरकाराची
स्थीर
करारांत
तूट
सुट
अचकीत
इंस्टाग्रामाचेर
न्हंय
##२
गुन्यांवांत
६३
सगळी
१९८८
आदली
जाल्लीं
विचारा
पाकिस्तानाच्या
वाडटा
हजारां
झुजारी
गृह
आंखल्या
रोड
पवित्र
प्लस
फाल्यां
भांगरा
पडटले
भव्य
भेद
मोदीक
शक्त
संस्थापक
५९
निवृत्ती
वाडोवपाची
भंय
वाडली
सुरेश
घाल्ली
भाड्यान
##ई
भोंवतणीं
अभ्यासक्रम
असोसिएशन
सोंपता
उरलो
पंगडांत
बंदखण
९५
नाशिल्ल्याचें
पिरायेची
खाशेलपण
तापमान
वळखूंक
विकपाक
शाहान
हेरां
कोर
का
न्हयकारल्या
सिनेमाचें
प्रतिकार
तत्वाचेर
फेब्रुवारीक
राजेश
लागले
सरकाराचो
डॉलराच्या
वेवसायांत
कोणूच
लागला
हाडल्या
दाग
न्यायीक
दखल
दिग्दर्शक
देशाच्या
प्रस्नाक
बस
अप
सगल्यांत
##४
प्रतिवादीं
अल्पवयीन
बापायक
लाखां
पत्रकारां
अर्थवेवस्था
सत्तेचो
उपकार
दूरचित्रवाणी
फॉर्म
मंत्रालय
आसपावीत
काडूंक
##५
शिमेचेर
फेसी
बळगें
दाखोवपी
शेवटाक
उदका
जीव
एक्सप्रेस
खेळपाक
परिक्षेंत
मुळाव्यान
शास्त्रीय
थंयच्यान
घेवपाचे
६२
लागल्या
पुराव्याच्या
केशी
निर्णयाची
अर्जुन
सांगपाक
हांचेमदीं
तमिळ
निमतान
जाल्ल्याची
सामकी
कामाच्या
औपचारीक
देय
संकल्पना
##३
कला
मानपाक
नीतीश
नेमांक
राजकीय
विमानतळ
लागींच्या
आदेशाच्या
पुलिसांच्या
गुन्यांवाक
सद्याचे
१९८९
राजपूत
मेळिल्ले
मोडून
वचपाचो
दाखोवन
म्हजो
म्हयन्यांच्या
बेस
मंत्रालयाच्या
नोंदींतल्या
विधानां
सामकें
शिस्तबद्ध
६६
जोडणी
मालमत्तेचेर
वापरप्यांक
गांवगिऱ्या
स्पर्श
दीपिका
वेगळ्या
सरचिटणीस
आसची
इंडियान
घेतल्यात
कबूल
क्रॉस
घेतिल्ले
पार्टी
मोहीम
काडप
कायद्याक
खोलायेन
स्क्रीन
साक्षीदारांची
बांगलादेश
परिस्थितीचेर
लिलाव
वापरूं
असामान्य
सेवेंत
ग्राम
दुखापत
ओडिशा
विकृत
६९
डावांत
सिद्धार्थ
सैन्यान
कंपनींत
८जीबी
ओडून
संसद
डेव्हिड
वेगान
सिन्हा
अशीच
कृष्ण
दाखोवपाक
प्रवाह
संपत्ती
सिक्युरिटीज
इतलें
मेट्रो
ग्रामीण
प्रतिक्रिया
म्हत्वाचे
कारणाक
बदली
मेकळीक
७००
इन्स्टिट्यूट
काश्मीरांत
मारला
उंच
नुकसान
ममता
मेळोवपाचो
तिसरे
थोड्याच
राखून
आयिल्ले
घेतना
बँकांनी
रिणाच्या
जानेवारीक
वाडोवपाक
##ड
बायलांच्या
घालपी
पेट्रोलियम
उमेदवारी
खंड
अंश
काळ्या
टिकावू
सोंपलो
गॅस
धर्म
युनियन
शाळेंत
##ना
कोविंद
बऱ्याच
वादाच्या
##ज
सोरो
प्रायव्हेट
१२८
ऑल
नियोजन
६१
अनुसूचित
जांणी
आग्रह
आजीवन
तात्काळ
रामनाथ
##ंची
वयली
सिंगाच्या
कार्यक्षमताय
दुबावा
वांगड्यांनी
घेतलां
साधनां
आसले
बिल्कुल
सगळो
धवन
सारकेच
दिसतलें
सुश्री
कनिश्ट
रॉय
७४
कुटुंबाक
न्यूज
भगवान
रमेश
दिसूंक
सरवस्त
दवरपी
आयोग
प्राध्यापक
मुंबयंत
##जी
श्रीलंका
हांचोय
अधिवेशन
फाटभुंयेर
हाडटा
येवजणेंत
राखीव
हेक्टर
१२०
बसून
वाटेर
दुयेंस
तिमाहीत
मंडळाक
महेंद्र
सय
##८
##ांचेर
कागाळी
गिरेस्त
न्यायालयाचे
प्रसारण
झी
संवेदक
पाकिस्ताना
जबरदस्तीन
संदेश
बरीच
थारायला
फिल्मांत
गोलंदाज
उमेदवारांची
जागे
कर्मचाऱ्यां
८३
६८
अल्पसंख्यांक
उंचायेचेर
सोंपली
दवरल्यात
जमनीची
ट्रॉफी
बुन्याद
मोटर
##६
उपकरणां
कसोटींत
विद्यापिठाच्या
लंडन
सेंट
रिण
हल्ल्यांत
कितले
तेलुगू
भितरल्या
मोहन
##७
उरतली
थारायल्लें
पावली
उडोवपाची
वापरूंक
मेळिल्ली
हिणें
फ्रेंच
गहाण
फुडाऱ्यांनी
बीएसई
शाराच्या
नियामक
तिसरी
७३
दाखोवपाची
येसस्वी
आरोपींक
अपीलदाराची
ऑस्ट्रेलिये
कोटा
प्राइम
फामाद
मेळयलो
सत्य
हाजीरी
मारली
यंत्रणा
६जीबी
नमुनो
मेळोवपी
##ला
निर्बंध
ब्लॅक
भाजपाचो
ताज्या
पांडे
कंपनींच्या
संवसारभर
दितली
लोकसंख्या
प्रदेशाचे
रुपांतरीत
गरीब
विसंगती
हॉस्पिटल
न्यू
भांगर
काणी
बापायन
वैधताय
वाडलो
स्पेसिफिकेशन
लक्षणां
सशस्त्र
##री
##सी
संज्ञा
कराराचो
बांदून
लायन
नश्ट
घेवचे
शस्त्र
कलाकार
अणुकेंद्रीय
दिसली
मेळिल्लो
धमकी
बँकेक
##पसून
हल्ल्या
नाशिल्लीं
बँकींग
ब्लू
मिनटां
ल्हवू
शकली
आलिया
एड
किशोर
दिका
जावपा
व्यक्तींच्या
घडली
वायू
लायलो
सील
ह्युंडई
खटल्याच्या
बसके
वांगड्या
जावची
बापायच्या
मोलाच्या
संबोधन
उड्डाण
ट्रस्ट
दुप्पट
बॉक्स
लागल्यात
स्पर्धात्मक
खबरो
छाप
वाडल्या
जपानी
वापरपी
अर्थसंकल्प
धाडली
कर्तव्यां
भारतांतली
अर्जाचेर
संघटनेच्या
मनयतात
मोटार
इस्टेट
विपणन
भाड्याच्या
अदमासाक
कागाळदाराक
किंग्स
डेस्क
सांगिल्लो
अब्दुल
रणवीर
धपको
मेळ्ळीं
१९५६
दोतोर
आरक्षण
जिखली
म्हामंडळान
हाडलें
एसबीआय
कर्मचाऱ्याक
घालपाक
मार
शकतले
सारकिले
प्रवक्ते
अपंगत्व
##ट
जिखपी
अभिषेक
बॉलांनी
गुंतवणूकदारांक
चवकशे
स्वराज
भुमिकेंत
कश्ट
हाडिल्ल्या
घातक
दोगांयनी
विचित्र
गौतम
१२५
##९
घेतिल्ल्यान
सार्वत्रिक
आयकर
तिख्या
मनशाचें
७८
अधीक्षक
पातळेचेर
खातीरय
वर्मा
जाचेर
फास्ट
घालपाचो
निराश
अहमदाबाद
पूरक
म्हामार्ग
नवें
मुळावो
कपिल
प्रेरणा
दाखयलां
कलमा
निरिक्षणां
विचारतकच
९००
कॉलेज
चंद
माजी
अपहरण
गुप्त
आंगाचेर
कायद्याचे
खंडीत
शरण
समाधानकारक
सुमाराक
मानतले
मनोज
राज्यपाल
हजर
कथित
गरजेचे
नाजाल्यार
खोटी
एफ
न्हयकारला
मालमत्तेचें
काँग्रेसीक
ड्युअल
उत्सव
कोणाक
घाल्या
सेंटर
सेटअप
छत्तीसगढ़
अभियोजक
तुमची
संहिता
प्रतिमा
जेट
प्लांट
कितेंय
दिसलो
नामनेच्या
मंत्रीमंडळ
सत्तेर
सद्याचो
विक्रमी
७१
आतंकवाद
वचप
समाजवादी
क्लब
टॉप
नायक
बेंचमार्क
कार्य
बँको
अनुकूल
उरिल्ले
नामना
सेल्फी
१९८४
खाशेलें
पाकिस्तानाचो
गेली
तिनूय
केलीं
प्रत्यक्षदर्शी
नितीन
सांगपाचें
जिल्ह्यांनी
याचिकेक
वापरांत
शिफारशी
आयुक्तान
रसायनीक
हवालदार
दिग्दर्शीत
दिसपट्ट्या
नियमित
झूज
मुद्रांक
येवपाचो
प्रशासन
दिसाक
वाचून
आसपाची
दुरुस्त
लोकशाय
घट्ट
गेल्ल्या
घाला
परिशदेंत
जर्मन
धरलो
प्लॉट
महाराष्ट्रांत
सेंसर
दंडाधिकाऱ्याक
सोसायटी
मंडळा
असोच
सत्ताधारी
पंच
यांनी
चुकीच्या
डीडब्ल्यू
आयएसटी
समतोल
कॅप्टन
न्हयकारूंक
अर्थसंकल्पीय
पळोवप
म्हजी
वाणिज्य
मात्सो
काडटात
किलोमीटर
तजवीज
नासता
पुलिसां
लोखण
पांचव्या
प्रस्नांक
९९०
व्हाइट
इंस्टाग्राम
एमडी
ठोक
नोंदींतल्यान
फुडाराक
मन
अपेशी
तुमचे
देशांतली
नॉन
मूर्त
आदित्य
खर्चा
जाणांनी
वर्सांनी
डिफॉल्ट
आक्षेप
घेवपाचें
काळांतल्या
घालप
रिओ
सायकल
मार्जिन
डिस्चार्ज
स्टँड
निकश
न्हयकारपाक
बार
भेदभाव
आशिल्ल्याचो
पेटंट
आगाऊ
उडोवपाचो
राज्यां
दिग्गज
आडवाद
१९७३
अधिकाऱ्या
केंद्रान
मांडला
कमी
वेरिएंटाची
हीरो
इंडियाचे
बिंदू
लखनौ
वादाक
अधिकाऱ्याच्या
पळोवपी
येवप
##डी
आतंकवाद्यांक
प्रा
शुध्द
##रा
उपचारा
खरे
सांगिल्लीं
स्मार्टफोनांत
पडला
रणबीर
विलो
##चीं
करण
गुरू
गोल
घालपाची
पदा
पुणे
येतली
सोडलो
उल्लेखनीय
नियमन
सवाय
आदर
थारायलो
७६
इंटरनॅट
मालमत्तेची
बंदूक
विकेट
आदेशाचो
##ता
कळटा
आरोपींनी
खात्या
मदली
न्यायमूर्ती
मालकीच्या
उलोवप
ताण
प्रतिवादींच्या
स्फोट
एमएस
इलॅक्ट्रॉनीक
उक्तायल्या
प्रवक्त्यान
श्रद्धांजली
डोनाल्ड
बायलो
आयपीसीच्या
गुजरातांतल्या
पळोवपाची
मेमो
येवजण्यो
अस्वस्थ
शाखा
खिताब
तितले
परिस्थितीचो
लावपा
सारा
७७
अज्ञात
लावप
रियर
स्थळ
कृशी
सुरवातीची
अस्पश्ट
घाल्लो
करिना
कोहलीन
काडपाचो
संघ
वाडला
सोदपी
दृश्य
पीडब्ल्यू३
##ए
कव्हर
पळयता
मागपी
कप
अधिकारक्षेत्रांत
रचना
दिकेन
शिल्लक
हाडपाचो
गीत
वाडोवपाचो
सामको
बेगीनूच
तिवारी
करतलें
दस्तावेजी
प्रभावीपणान
उपेगी
कार्यक्षम
मसुदो
विश्लेशक
नामनेचो
बेपत्ता
गतीच्या
पाकिस्तानांत
सर्तीच्या
मालक
विस्तारान
एकदम
दादल्यांच्या
याचिकादारांची
याचिकेच्या
वेरिएंटांत
दिनेश
८४
अलाहाबाद
पीडब्ल्यू४
रावपा
सप्टेंबरांत
अर्जदारान
दाखयतात
पटना
संघर्श
मेडिकल
रेटिंग
जागो
पालिका
संसदेंत
ट्विटराचेर
तेंप
बँकेचे
दवरले
देवळाच्या
व्हरपाक
भाडेकार
घेवचें
नेमिल्ल्या
आरबीआय
उडयले
नात्यांतल्या
पुस्तक
आयोजीत
जबाबदार
थारायिल्ली
करताली
लावंक
८१
दवरलें
साक्षीदाराच्या
स्मार्ट
दाव्या
साखळी
सुषमा
पांवड्यावेल्या
इंटरनॅशनल
रिती
गुंतवणूकदार
पीटीआय
लस
ट्रॅक
उजवाड
पर्यटकांक
स्थायी
नासली
इंटरनल
उडयल्ल्या
रविंद्र
राजपूताच्या
मंडळांत
मिशन
अपीलदाराचेर
डिलिव्हरी
पॉझिटिव्ह
वॉरंट
गुजरातांत
देगेर
काउन्सिल
काळजी
दवरतले
दिनासतना
शेंकड्यांनी
सांगपी
एकमत
गांवांतल्या
रॅली
अशक्य
रावून
जामीनाचेर
लवादाच्या
१९६०
उद्देशा
दार
मॅक्स
सरले
मुलाखतींत
विधीमंडळान
शाहरुख
खोल
जड
धरून
शस्त्रक्रिया
स्टँडर्डाक
१९८७
रावप
रावपाचो
मो
उक्तायली
तेन्नाच
पाकिस्तानांतल्या
९२
अधिकाऱ्यांच्या
मेरेनच्या
म्हयन्याच्या
##ेन
आरोपांत
पार्क
प्रगती
बुकींग
लागता
चवथो
मतभेद
टू
लग्नाच्या
दाखयल्या
केंद्रां
तात्पुरत्या
भत्तो
हांचीं
झुजांत
ग्रेड
वादींनी
अशेच
ओव्हर
पावती
आयिल्ली
शोरूम
मारले
पावला
फायनान्स
संघटणेन
उद्देशां
कशे
मेळोवपाची
अक्षरशः
झाडां
भारताचें
कितलेशेच
चॅम्पियन
निर्देशा
व्यस्त
दळ
मुजत
जोडिल्ल्या
नेटवर्क
पुलिस
पळोवपा
मिश्रा
सुरक्षीतताय
९६
अखिल
रिणाची
आडावपा
पुनर्विलोकन
राज्याची
शंकर
खाशेले
जायत
मारता
व्हिसा
९८
एक्सिस
समन्वय
काडपाची
९७
अधिकारांचो
जोडून
अंकांनी
उर्फ
न्यायालयांतल्यान
शारी
##ांचें
पळयलां
बुक
सेट
तळें
तथ्यांक
म्हणप
व्यक्तीन
मार्गदर्शन
ऑन
कराची
३५०
##ंग
अजीत
उरिल्ली
मेळोवंक
जि
ड्रायव्हर
सरून
चॅनल
दिसांचो
वेळावेळार
संसर्ग
सलामीवीर
दावेदार
विरोधाभास
शीख
सांगप
उडोवपाक
एफआयआरांत
म्हयन्या
याचिकादारा
उपनियम
मतदार
लक्ष्मी
चिदंबरम
जशे
७९
आळाबंदा
कार्यान्वीत
दिल्यांत
आसां
बनावट
रेडिओ
वचनबद्धताय
भेटी
लवादाची
९१
चकचकीत
बंगाली
८२
जोडी
तांबड्या
स्वताचो
गव्हर्नर
वांगड्याच्या
अनुरूप
उगडास
न्यायालयाचो
संस्थांक
उरली
टेक
कॉमर्स
८९
बदलाक
सप्तका
हॉटेल
कबुली
नायडू
मागणें
क्रमवारींत
सक्रिय
उपस्थिती
चक्रवर्ती
व्हरपा
सिनेमाचो
दीपक
रशियन
वखद
दादले
उक्तायलें
१९८६
देशां
शतक
उपकंपनी
मिश्र
विमानां
हजारांनी
क्रिकेटांत
न्यायालयांक
महाराष्ट्रांतल्या
अपीलदारांच्या
कितलो
चाल
दवरूं
फायनल
बिल
हिंदुस्तान
थारायतात
दिसांची
भोवसंख्य
##िक
बायलेन
चलयेक
देशाक
मनांत
८६
होल्डिंग
##पणान
चडसो
नामांकीत
जाग्या
९४
पूर्व
सरता
सुशील
##पी
ऑक्टा
चौहान
हितांत
फाटोफाट
लांच
सक्तीचें
इतलेंच
कागाळदाराच्या
ठेवी
##टी
एअरटेल
फुटबॉल
अवास्तव
उरतलो
कळयलें
पुर्विल्ल्या
राकेश
८७
जागृताय
फायद्यांत
याचिकादाराचे
सांजवेळार
करिनात
काडले
तरतुदींक
प्रती
अनधिकृत
ओव्हर्स
परिशद
आत्मविस्वास
एनएसई
डाव
संगणक
कॅपिटल
घडटा
पळयल्या
बिहारांत
दिसतली
वाय
स्पोर्ट्स
हॉकी
अभियंतो
रिटर्न
शरद
उश्णताय
दवरचें
वाडपाची
हाडटले
अर्थांत
पांय
अंतर्निहित
इमरान
म्हयनो
वातावरण
समितीचो
अडचणी
अधिवेशनांत
देवळाक
तपासणे
तरतुदींत
पडल्यार
मुद्द्याचेर
वापरा
उडोवप
लागींचो
हाडूंक
अपीलाक
व्हडले
साक्षीदाराक
आडवाणी
फ्लिपकार्ट
अपघातांत
उडोवंक
पूर्ण
मालमत्तेंत
सिनेमाच्या
स्थापणूक
उलोवपाक
शेख
हाडलां
सव्या
घाल्ल्या
घेवपासारकें
अल्ट्रा
दक्षिणेक
फायदेशीर
सत्रांत
आयोगाच्या
तसो
मर्यादे
चेन्नई
बेसिस
लेख
लोकसभेंत
साक्षीदाराची
ताजी
वतना
वचचें
बरयलें
हाडले
उत्पादक
चोपडा
भुरग्यां
जोखीम
ताचीं
रिणा
खेळगड्यांची
योगी
विनोद
##ीन
पिरायेचो
लायफ
##व
पावतकच
मनीष
म्युच्युअल
विमानतळार
इस्लामी
गिन्यान
परदेशांत
एकवटीत
दाव्याक
आकर्शक
गटांत
अंतरिक्ष
कापून
तडजोड
नियोजीत
शब्द
तकली
सुत्रांनी
तुमचो
शोंत
गुजराताचे
देवळां
वरुण
##विशीं
घडणुको
दवरलां
धनादेश
पाल
सहकार
हेरांक
अभिमान
इतल्या
बॉण्ड
१९८०
दर्ज्याच्या
ड्रग्स
शांत
१९६१
दिल्लीचे
उदकांत
देंवली
बापाय
प्लॅन
धोरणात्मक
पडले
डाव्या
दिल्यात
सभेंत
##ूच
मूल्यमापन
संसाधन
सहकार्य
स्पिनर
प्रकल्पा
समर्पित
अतिक्रमण
घेयात
तरेचे
सैन्य
##सिंह
कुशळटाय
तथ्यांत
दवरचो
संवसारांतलो
सेल्सियस
आदींच
अहवालाचेर
तेलंगणा
पुराव्या
याचिकेचेर
सारांश
ईशान्य
उरला
धाडले
कार्यकाळ
पांवड्या
मानूं
रियलमी
८८
दुकान
भोवमान
ताजे
रितीं
बँके
रिया
सगले
गर्दी
घोवान
वाडटली
कच्च्या
ग्लोबल
अर्जदाराक
आशय
जय
दाट
रावले
आशिल्ल्यो
उद्यान
गरम
साधनसुविधा
वाडयल्या
विधानसभेंत
तांचीं
मद्रास
कुटुंबीक
कुलदीप
आरबीआयन
कमाई
जेम्स
भुवनेश्वर
समाप्त
अद्भुत
आमिर
कर्मचाऱ्यांनी
किमान
खेळटलो
निधन
हारयलो
आधुनीक
आरोपीं
सातव्या
सुपरस्टार
स्त्रोत
सुरी
सरकाराचेर
मुकेश
वेपारांत
उत्तरेक
पडूं
मंत्रीमंडळान
अपात्र
बेस्ट
रेट
जपान
दाव्यांत
नाटक
राग
रुपान
चीनाच्या
व्हेली
पाटना
प्रक्रियेचो
इमारती
उक्तायिल्ल्या
१९८५
माध्यमीक
याचिकादारां
येवजणेचो
अहवालाच्या
पावता
कुटुंबा
कुमारी
पुस्तकांत
संवसारांतली
सौर
राज्याचो
##प
आपोआप
फर्मायली
विजेतो
भुरग्यांच्या
संवसारांत
उरल्या
गुन्यांवांक
फोर्ड
मोट्या
##मेरेन
तैनात
स्वरुपांत
जैतिवंत
अभियोक्त्यान
तदर्थ
संकेतथळार
विवो
समितीचे
##्या
डिसेंबरांत
प्रतिवादीची
प्रसंग
फुडाऱ्यां
मनोहर
ट्रिलियन
दिसतालें
संप
संस्थां
अमेरिकेची
कॅप
मारपाक
उक्तायला
चलोवपाचो
दशकांत
रस्ते
वॉशिंग्टनः
संदीप
अचूक
दुयेंत
लावपाची
##वांगडा
बसकेक
उदकाची
##ांचे
अमेरिके
मानलें
समर्पीत
ओरिसा
थारावपाच्या
साक्षीदारांक
ऑलिंपिकांत
येतालो
सांगल्या
संकश्ट
होच
कोणाकूय
तिमाही
पदांचेर
आकर्शण
आदिवासी
४जीबी
अफगाणिस्तान
जाची
जीडीपी
पत्राची
पवन
महात्मा
लागली
शेती
संपर्कांत
सपोर्ट
एकूय
घडणुकेचो
पूर्वग्रह
मेहता
संस्कृताय
दंडाधिकाऱ्या
न्हंयचे
सरपी
सर्ती
अर्थसंकल्पांत
दुबळेपण
मांडल्ल्या
घोवाक
पॅनल
सर्विसेस
स्वरुपाचो
जमनींत
दुस्मानकाय
बंदर
९३
गाडयेंत
वाडपी
हुसेन
नांवाचो
शिव
अवैध
एक्सटेंशन
स्टेशनाचेर
अमेझॉन
चलोवंक
तल्या
हालचाल
महेश
किलोमिटर
बळीच्या
संस्थांच्या
आंकडेवारी
चॅम्पियन्स
मालमत्ते
येवजणेच्या
काडली
निरर्थक
नियुक्त
मंडळाचे
ख्रिस
निर्णयांचेर
परिस्थितीच्या
आग्रहा
दिवपाखातीर
धरप
बोर्ड
दिग्दर्शन
लावपाचो
थोडयाच
पगाराच्या
माफ
एकामेकांक
शीर्षक
अंबानी
न्यायाधीशाच्या
बीएमडब्ल्यू
विक्रींत
संक्षेपांत
तातूंतलो
पुस्तकां
बसपा
ब्रेक
शाळेच्या
कांस्य
खेळपी
न्हयकारलां
ब्रेकिंग
थारावपाची
वरिश्ठताय
विकले
स्वरुपाची
तथ्यांच्या
पुजा
हिशोब
उदरगती
क्रमांकाच्या
हसन
##वरवीं
गांधीक
निरपेक्ष
अखंड
खंडपिठा
बौध्द
चीनान
सैफ
दर्या
निर्मला
ऑर्स
गणना
न्यूयॉर्क
शिमो
मालिके
सातत्यान
१९८३
ध्येय
नमुने
नुस्तें
फ्लॅट
सद्भावना
खात्याक
११०
वेव्हारांत
चलोवपा
बॅटींग
संपादीत
आक्रमक
मंडळाचो
विद्यार्थ्यां
अशाच
उलयता
युपीए
##वा
केंद्रांत
विसंगत
एलईडी
तथ्यांचो
नवाज
निवेदना
पुराव्याची
फॅन्सांक
उद्देगांत
काडल्या
देशभरांतल्या
पुनर्वसन
मागता
संस्थेन
आदेशाचेर
खरेदीदार
गटाच्या
दुर्मिळ
मानचें
लवादान
संसदेच्या
स्पॅक्ट्रम
प्रक्षेपण
मोदीच्या
वेवस्थापनान
सोनी
ताजें
बिहारांतल्या
संयुक्तपणान
उपांत्य
नोटी
पातळ
पावपाक
याचिकांनी
हाडला
जोडटा
वचचे
सुप्रिया
कलमांत
गजालींनी
देशांतल्यान
दिसांत
दोतोरान
फारीकपण
वर्साचें
संच
आयिल्ल्याची
बँकेंत
विस्तारीत
कळयल्ल्या
प्रकल्पांत
मेळिल्ल्यान
येताली
व्याजदर
स्टेडियमांत
१९८२
एक्सचेंजांत
दिसाच्या
थावन
बळीक
एजंट
ऑफिसाचेर
घराच्या
थारूंक
आडावप
काडूं
पद्दतींत
मंच
आक्षेपित
भरिल्ल्या
सांगपाची
खेळटा
इराणी
आपयलो
उदकाचो
बाजारपेठे
राजधानींत
अजाप
अटीं
टक्केवारी
रचणूक
रेस
चलोवपाक
पळयली
म्हामंडळाच्या
राज्यांक
केएल
पयलींच्या
रेड
लेखा
घालपा
उडयल्या
एकेच
पावसाक
परवाने
भरून
अरबी
आंकडे
गटाचे
बचत
स्पेशल
नामांकन
शाहिद
उंचाय
कुडीच्या
फायद्याचें
अनुष्का
चांचण्यो
पातळे
बँकांक
भयानक
मालाची
मोलान
अभ्यासक्रमांत
इंचाची
उत्तराखंड
नागरिक
नागरिकांक
बाग
रोग
समाजांतल्या
ठाकरे
प्रेस
वेगवान
श्रेय
रस्त्या
उडयली
चिपसेट
देशभरांत
सैनिक
उमेद
जमनीचें
नियंत्रक
वकिली
हार्दिक
गूगल
##ओ
दोगूय
१९८१
अधिकारक्षेत्राचो
उतराचो
फळां
ऑस्ट्रेलियेन
हेरांनी
##ंचें
कंपनीचें
कस्टम
थारायिल्लो
वाठारांतल्यान
क्षमताय
स्टीव
आख्यायिका
जडेजा
बशी
बिहाराचे
अधिकृतताय
प्रकारान
राजकारण
६४जीबी
आप
मेळचे
विवेक
उखलून
खंयच
तात्पुरती
शेवट
गेल्ले
आरोपांक
बँकेचो
हिंसाचार
##ंचेर
##मदीं
थारावीक
पोर्टफोलियो
बँकिंग
व्हायरल
सिनेमाक
मेळोवप
शिंपणावळ
हातान
एनडीए
कार्तिक
१९७१
खोस
चलयता
##द
नंबर
प्रेरीत
घट
सादी
स्थावर
आचरण
कारणीभूत
पालक
मार्गाचेर
रिसर्च
उदकाच्या
संवेदनशील
संस्कृतीक
आडावंक
गुन्यांवाच्या
प्लॅटफॉर्म
बिर्ला
मांडली
मार्क
अखिलेश
अधीनस्थ
भोंवतणच्या
मारपाचो
वादाचेर
हिट
गुन्यांवकारांक
फर्मायल्या
राजू
गणीत
प्रयोग
बायलांचो
राजेंद्र
आसचें
नेहरू
पेपर
वाडोवप
शुटींग
कोर्ट
माळ
रूप
अनावरण
धोरणाच्या
##ताय
अस्तंतेक
गरजेच्यो
पाळूंक
लिटराक
सरकाराचें
गोयल
जहाज
पीक
मांडलें
राष्ट्राक
ऑयल
गंभीरतायेन
दिसतलो
चलोवपी
चवकशीच्या
सेंट्रल
जूनांत
मार्केट
रावचें
न्हयकारपाची
मात्शें
संख्येन
बाळगता
मॅन्युअल
नितळ
पयशांनी
दुस्वास
पादुकोण
लेखी
धाड
राज्यमंत्री
व्हरपी
अधिकृतपणान
कापड
मलिक
मार्चांत
शाळांनी
सोडली
##एल
##बी
गोंय
भाकपा
विनिमय
अध्यक्षान
थारायले
मॅचींच्या
वर्गाच्या
शिमीट
कडेनय
जिवो
धोनीन
मनाची
सैनिकांक
चालक
दवरची
दोग
नासलें
नेमणुके
मायकल
शकतालो
सक्ती
अपवादात्मक
एकामेकां
जाल्यांत
द्रव
मेजणी
शेजारच्या
घडलें
नोव्हेंबरांत
आर्विल्ल्या
एमजी
नोंदीचेर
मात्शी
मारपी
मेळयलां
३७०
कृतीचें
नशीब
साउदी
उलयतात
दितालो
घेतल्यो
तरणाट्या
तुळेन
वर्गा
वावुरपी
मैदान
विभागांतल्या
जोशी
मिशेल
सीझन
##एस
एसपी
काळासावन
चवथी
टोयोटा
म्हणपी
लवादाक
तरणाटो
न्यायाधीशाक
लाव
सांगली
आमंत्रण
गजालींचेर
जवळजवळ
पक्षाचेर
पावल्या
है
अमेरिकेन
चौकटी
कोणाकूच
प्रकरणांतलो
भागाचेर
समजूंक
कार्डाचेर
सप्तकाच्या
इलेव्हन
उपरांतचो
करीत
किल्लो
थकबाकी
पीडब्ल्यू५
व्हडलोसो
सगळ्यांनी
समन्स
बायलेच्या
रुप्या
वाडपाक
इंदिरा
हक्काचो
आयकूंक
ओम
सारकीं
क्षमतेन
चित्रपटांत
व्हायरस
संबंदांत
फिट
भोंवडे
थारलो
फेब्रुवारींत
शॉर्ट
साकार
सेबी
गडकरी
दिसाचें
दुकानां
देवेंद्र
वागपाक
सैयद
स्ट्रीट
खंडपिठाच्या
गंगा
चडशीं
हाडपी
राजनयिक
अवस्थेंत
इंग्लंडाक
ताल
राजकारणी
विपरीत
ग्रीन
तेन्नाच्या
##पण
जानेवारींत
पवार
पुरी
फट
उसरां
रुपयांचें
विद्यापिठान
उडोवपा
उरूंक
काल्पनीक
किरण
प्रतिबंधात्मक
बेकायदेशीरपण
जॅक
दराच्या
निर्विवाद
बेपर्वा
भरपा
निर्णयांचो
पदव्युत्तर
यांक
उपग्रह
उमर
तहसील
प्रचलित
लिलावा
पूल
बदनामी
भोंवडेर
लाखांनी
हुंवार
पीडब्ल्यू६
घरकान्न
पायलट
बाजारांतलो
मेजर
संजीव
स्मार्टफोनाची
हाडप
पॉलिसी
पुलवामा
ओव्हरींत
जियो
तांचेर
यजमान
विद्यापिठांत
आयआयटी
मरणाच्या
उणीं
गवायांची
निवाड्या
प्रवेशा
मोर्चा
रवी
लेफ्टनंट
सीपीसी
अनियमितताय
ट्रक
दत्तक
बाबा
मर्सिडीज
रावला
रेंज
शून्य
सपा
के२०
खिणाक
गजालींचो
अॅप
##ीक
परदेशांतल्या
संग्रह
हक्का
दुबळ्या
नाइट
संघटनेचे
आकस्मीक
गरजेचीं
जॉर्ज
बाई
बॉम्ब
स्वेच्छेनूच
आज्ञा
निहित
येवपाचें
क्रम
निश्चीतपणान
अपराजित
आवडटा
कोयर
फुडाऱ्यांक
येतकच
येतले
अनुसुची
आशिल्ल्याची
पावसाच्या
प्रस्नांतली
भांगराचे
##आर
खोटो
घडिल्ल्या
घेनासतना
भरपाक
मेळप
वावर
सरपाक
##ब
किग्रॅ
वाडले
वेंचणुकेची
समाजाक
ट्विटर
धोरणांत
दशकां
पर्यायांनी
लावचो
व्यक्तींची
सर
अर्थवेवस्थेंत
इन्फोसिस
बंगालांतल्या
योग्यतायेचेर
विलीन
शुध्दीकरण
अर्दांत
उद्देगाक
कलकत्ता
राश्ट्रांच्या
जाल्ल्याचो
तातूंतली
मुहंमद
दयाळू
प्रदुशण
पडद्याचेर
प्रतिवादीचो
विवेकबुद्द
गिरायकां
तितलेंच
थारावन
बंगालांत
रशिया
१८०
अस्तित्व
तिकीट
गांधीच्या
बोवाळ
म्हण्टाले
समाजांत
सादरीकरणां
सुभाष
उश्ण
दर्यादेगेर
##श
इंग्लंडा
न्यायाधीशा
टीसीएस
न्हयकारले
प्रधान
विविध
वेव्हारीक
आम
कितल्याशाच
दिवाळखोरी
देंवला
मेळ्ळ्यो
विशींच्या
सोबीतकाय
खंडन
टीम
पुराव्यांची
म्हणटकच
हिका
##ाच्यो
इटालियन
घोवा
फर्म
व्यक्तीच्या
सोंपल्या
हाडटात
##भाई
दळान
पांडेय
इन्शुरन्स
क्वार्टर
जावपाच्या
दाखयलें
पडना
राज्याचे
कुटुंबांक
दोंगराळ
मेळयला
शारां
स्टॉप
गटान
दत्त
पुरवणदार
सरकाराचे
##ह
उमेदवाराक
जिवितांत
सरदार
इगर्ज
परतलो
वनस्पत
प्रमोटर
बरयल्ली
तरणाटे
तुमचें
भांगराची
मानवी
मुळांत
रंजन
वाठारा
अविश्वसनीय
उर्दू
लॉर्ड
संवसारभरांतल्या
समितीची
काउंटर
देशाची
पॅकेज
कोणे
खात्याचे
गरजां
जायनात
सत्तेच्या
क्वाड
हॉल
##खाला
##फ
पडलां
भूंयकांप
मोख
रोल
सिंगापूर
आपयले
यादवान
हेंय
आज्ञापत्र
पुनर्रचना
जाल्यो
तेन्नासावन
लांबाय
अंडर
आयोगाक
कौर
खंयचेच
न्यायालयांच्या
पुताक
भूषण
पृष्ठ
मानप
यत्नांत
स्मिथ
चार्जिंग
दोळे
नक्कीच
भुरगें
मानपी
राजद
##ेक
इतिहासांत
गोंदळ
जदयू
तंत्रगिन्यान
दाखयली
संलग्न
कॅन्सर
जशी
देंवले
कार्यावळीक
तत्वांचो
सेल
आदेशांक
गाडयेच्या
तंबाखू
पंचायती
पयशांची
विधीमंडळ
खेळाच्या
टीव्हीएस
समायोजीत
साहित्याचो
सिव्हिल
##आय
आदित्यनाथ
हारलो
हेय
##मन
गणेश
संविधानांत
सिरियल
ट्रिपल
वारंवार
दाखयल्ले
पत्रांतल्यान
कारखानो
खंयचो
तिसरें
नातेदार
नाथ
विश्वचषकांत
उमेदीन
मुळावें
शूटिंग
अदभूत
कायद्याच्यो
नो
रियलिटी
वण्टी
सरकारांनी
सामुग्री
सेवेंतल्यान
खेळगड्या
खोटें
तेन्नाचो
दीर्घकाळ
सुवेवस्था
स्टेशनाच्या
अर्थांतच
अवमान
चित्रण
पांड्या
प्रधानमंत्र्यान
वाचतात
वेव्हारा
हक्कांचो
एसएमएस
गितां
दवरात
फोनाची
बायले
मानता
वळखुपाक
दर्यादेग
दाब
तशीच
मल्टी
युपी
क्रिस्तांव
जुलयांत
थंयच्या
फुडलें
व्हेले
प्रकरणांतली
बांदपाक
ब्रिटन
माध्यमांनी
सांगचें
##ल्यो
##ियन
कृत्यां
परिस्थितीक
सारकोच
अपीलदाराचे
देवळा
भाशांनी
ऑक्टोबरांत
कृतीक
गायक
धाडिल्ल्या
पडल्या
म्हणपाक
सुधीर
कमल
सध्याचो
समकक्ष
उणावाक
परिणामी
यू
रक्कमे
राफेल
लॉकडावन
वाचूंक
वेदना
संस्कृत
समतुल्य
१५००
नेमिल्ले
मंत्रालयाक
कंगना
स्रोत
आवयच्या
डेव्हलपमेंट
पदकां
मारपाची
शकले
थारायता
मेळयल्ल्या
रेखा
संघराज्य
सांख्यिकी
उदाहरण
एक्सट
थळावे
दान
महासंचालक
मॅन
याचिकादाराचें
आग्नेय
इस्वेंत
दिल्ल्याचें
दीक्षित
फायल
बीएस
बॉलांचेर
सन
चॅलेंजर्स
नोकऱ्यो
भांगराच्या
मेळटालो
समर्थन
तर्क
रे
तकलेक
फायद्याचो
वापरपाचो
अधिकारक्षेत्राच्या
म्हयन्याचे
५६०
आवृत्तींत
चीनांत
येसस्वीपणान
लालू
वचतले
##ण
जेपी
नूतनीकरण
डील
थापणूक
सेनापती
बांदपा
राजस्थानांतल्या
शुक्ला
आलाशिरो
चले
ध्वज
रावतालो
लागवड
विक्रीचेर
शांततायेन
समाजाच्या
स्वयंसेवी
हीच
१९७६
अंशतः
उरिल्लो
ऑगस्टांत
धांवड्यांची
वाडिल्ल्यान
##भशेन
ऑटोमेटिक
कर्नाटकांतल्या
पाळपाक
वेगळीं
शेतांत
सीपीसीच्या
करतलों
पयलीच
हांगाचो
आस्पावता
पीडीडी
भावाक
शिंदे
एकल्या
कुमाराक
कुलगुरू
खेळपाची
न्हयकारून
फार्मा
दिताले
फायनान्शियल
फुडाऱ्यान
उप्रासता
दिवप्यान
वादीचो
गंव
गाडयेंतल्यान
टपाल
उलोवपी
गेल्ली
म्हामंडळाक
रगताचे
ल्हानसो
वाडीच्या
संघटीत
अन्याय
अशो
पुराव्यांक
राज्यांच्या
२०२२
इश्टागत
गटाचो
पर्यटक
भिरांत
वापरिल्ली
शासन
सेवक
उदेंतेक
तेंय
मेमरी
सपाट
आरोपांतल्यान
इत्सूक
कन्नड
टप्पो
दिल्लीक
नाश
वाडयली
इनपुट
काडल्यात
पाचव्या
१३०
ऍक्शन
गोल्ड
निराधार
प्रकरणांतल्यान
याचिकादाराचो
येतलें
हिचे
दिवप्यांनी
नेपाळ
वगडावप
सहजपणान
अनुराग
उडयतात
निधीचो
स्टोर
अध्यक्षपद
अरुणाचल
कोटक
जसो
तेभायर
मतदारसंघ
१४०
आयिल्लें
कुमारान
जिवेशीं
पंगडाच्या
वाडोवन
विक्रेतो
व्हरता
कडक
थोड्या
फेसबूक
बराक
सिनेमाघरांनी
आडनदर
दिल्ल्याचो
निर्देशांकांत
स्टँडर्ड
टक्क्यांचेर
रिणाचो
संस्थेच्या
सोडपाक
स्वास
##ांतलो
अत्याचार
कारणा
शेट्टी
संसदेन
उलाढाल
ओपन
चंडीगढ
त्यो
पटकथा
पानां
वाडदीस
वृत्ती
एपी
जाच्या
मोहिमेक
श्रद्धा
थारतलो
भरपाची
रावपाचे
बदलूंक
आयच्या
चंपारण
जावपाचे
राणी
रावपाच्या
वॉशिंग्टन
सोडपाचो
उरल्यात
बदलून
मानताले
वाडट्या
##िन
नियंत्रणा
बिहारी
भूंय
वाडयलो
वेवसायाच्या
अपमान
अमर
एसी
मेळोवपाच्या
म्हाविद्यालय
##ार
अन्यायी
आयिल्ल्याचें
थारतली
देशांतलो
मालवाहतूक
वाचात
वापरप
शेअरधारक
आयोगा
कायद्याचेर
टनाक
भारतांतल्यान
विभागणी
१६०
आंदोलन
उक्तेपणान
उमेश
भरचो
राज्यसभेंत
संग्रहालय
पळयलो
प्रिमा
मदले
म्हत्वाचीं
वेब
संघटनेचो
उजवे
पत्राच्या
वादांक
साद्या
ऑलराउंडर
तरणाट्यांक
दर्यादेगेवेल्या
न्यायालयांतल्या
प्रस्ना
बाल
ब्युरो
युवराज
विल
सुचोवण्यां
इनाम
बीएस६
येतालें
रात
अद्ययावत
जवान
निवासस्थानी
बाजू
ली
सोयी
आदारिल्लो
तणाव
तशी
सिंगाची
हल्ल्याचो
ग्राहक
पदवीधर
बँकांच्या
बसलो
निदान
निर्माते
निश्र्चीत
सारकीच
से
डिव्हायसांत
वर्चस्व
संचालकान
उक्तीं
घरांतल्या
पासपोर्ट
सीडी
जिल्ह्यांतलो
तसोच
लोकांचें
काडिल्लो
शिवसेना
जमनीचे
झुजाच्या
सुंदर
अँटी
अप्रत्यक्ष
उलोवपा
काळो
तंत्रिका
मागल्या
वर
विकेटकीपर
अहवालाची
आदमी
आयिल्ल्यांचो
कर्नाटकांत
डिव्हायस
दिलीप
लक्झरी
लॉक
सद्याचें
७५०
उरतले
तांदूळ
दंडाची
लश्कर
विस्वासपात्र
स्टेडियम
कंपनींचो
झोन
सिनेमांतल्या
कार्यालयान
जिखपाक
तरतुदींच्या
भक्त
वेळान
सेन
डॉट
शिमला
घेतिल्लीं
येवपा
व्यक्तींचो
सक्तीची
उदरगतीच्या
कराराची
ग्रॅण्ड
पुराव्याचो
लाभांश
१९७२
इश्टीण
जिला
पार
योग
ऑपरेशन
खऱ्यांनीच
जखमींक
शुभेच्छा
सरलें
होम
कार्यक्रम
कृत्रीम
बांदिल्ल्या
सीआरपीसी
उणीव
दुयेंतींक
मांडलां
६५०
काँग्रेसीची
नवीन
पॉल
लीक
जीडीपीच्या
पळोवचें
रोमन
वटेनच्या
विकतात
वोडाफोन
संपादक
##्ट
जोडला
नितळसाण
शाराक
समता
हेच
प्रकरणाचे
प्रखंड
सोंपपाक
ऍपल
पडपाची
वावुरता
विसव
सगळेकडेन
सोडोवपाक
परिपत्रक
बर्फ
बीसीसीआयन
सूक्ष्म
पाटील
भोवमत
रहमान
अभ्यासांत
एफडीआय
निवारण
प्रामाणीक
बारीक
अरब
उत्परिवर्तन
कार्यावळींनी
पंजाबांतल्या
मेळनाशिल्लें
संदर्भा
उपलब्धताय
केबल
कोरिया
धातुक
मुद्दे
वाइड
घटस्फोट
तिरस्कार
दायज
धुमशेण
भारतांतलो
सरकारांत
१९७०
तेंदुलकर
पर्वा
फेरी
स्वताचें
दोळ्यांच्या
मालकाक
मोगान
ल्हव
विखारी
##ग
अधिकारक्षेत्रा
टप्प्या
प्रतीक
मंडळाची
लाठी
अधिसुचोवणेंत
तेलंगना
धार
मॅनेजमेंट
राजन
राजस्थानांत
वापरता
कॅशबॅक
पीडब्ल्यू७
फोनाचेर
बरयल्लो
मारप
##प्रमाण
इस्लामाबादः
उलोवपां
एन्कावंटरांत
कमिशन
तेलाचे
दिल्ल्यो
पाक
दुय्यम
दुर्गा
पूजा
विवेकबुद्दीचो
संचारण
चली
पदाधिकारी
प्रतिशें
फाळणी
अकाली
आयुक्ताक
डेमोक्रेटिक
रूची
व्हिडियोंत
सार
एप्रीलांत
केरळांतल्या
ग्रेट
घाल्ले
पिरायेचेर
मशिदी
मेगा
मोलाची
म्हणूनय
सवलती
कानपूर
गांवच्या
डायरी
दिसूं
दुबे
दुर्दैवान
विद्युत्
हांगाच्यान
आयए
आरआयएल
उपमुख्यमंत्री
तरतुदींचें
दुयेंतीक
##कार
अटल
आयटम
कारखान्यांत
तेजस्वी
भायल्यान
विधानांत
संक्षिप्त
हाय
मेळनाशिल्ल्यान
शास्त्री
श्रीवास्तव
##ूर
कलेक्टर
काँग्रेसी
कागदपत्रांची
डेबिट
बँकां
दुयेंसां
पंदरा
राकांपा
वनस्पती
वाडयला
शिस्त
उरलां
खर्चांत
जायराती
थारायतले
दोंगर
रांची
रावंक
लीगांत
वक्फ
वॉर्नर
अपडेट
अशेंच
आपत्कालीन
गांगुली
गोड
प्राणी
मतदारसंघांतल्यान
काडटा
पिता
प्लास्टीक
२५६
उपरांतची
उरिल्लें
कर्मचाऱ्यांची
दिसले
देसाय
पांवडो
पोट
विकली
शैली
##ंचे
पक्षांत
फाटभूंय
भुरगो
उक्तायलो
शिस्तभंगाची
इस्लाम
कसल्याच
गिमाच्या
तत्सम
दुपेटीन
पंडित
मोदीची
कुडीचेर
देगणांत
सांस्कृतीक
सुवाळ्यांत
२जी
कंट्रोल
छळ
डीड
नाकात
पत्रा
फेडरल
मारल्यार
रंगांत
अफगाण
जिणेंत
धव्या
पडल्यात
बारा
हेलियो
आवारांत
कोड
दिश्टी
न्यायालयाचेर
पयसुल्ल्या
भरिल्लो
मध्याक
हिताच्या
कुऱ्हाड
दुर्दैवी
परिस्थितीगत
महानगर
संपादना
संवसार
सीबीआयच्या
सेवां
अमर्यादीत
क्रमवारी
पंजाबी
पॅक
मरणाक
लायतात
कार्यां
रंगीत
संघटने
विक्रेते
नाशिल्ल्याचो
पीडब्ल्यू८
भाशण
रायपूर
व्हांवता
सांगूं
##वी
पाकिस्तानाचे
प्रस्नाची
मंदी
राणा
रॅलीक
वादींक
सुरवातीचो
अधिकाराचो
गुन्यांवकाराक
थारायल्यात
धोक्याची
पक्षा
बाय
संकुचीत
अॅमोलेड
कितली
तथ्यांची
फुडारपणाखाल
रुपयांनी
वचपाचें
हाउसिंग
अधिसुचोवणेक
आयपीओ
ऋषि
चार्टर्ड
जाग्यां
टायर
दल
धारक
नट
समर्थक
सरली
अजापीत
पालोवपी
प्रकल्पां
मजा
##मा
आक्षेपार्ह
उत्पादनाच्या
प्रगत
भरूंक
रावताले
व्हरूंक
१९७९
उलोवंक
दवरपाचें
धरण
पडपाक
रशीद
समजूत
सेवन
##डल्यान
जिखलो
टायगर
दावेदाराक
विनोदी
अर्द्या
आदारिल्ली
जवाहरलाल
मुखामळ
वचपा
स्कूल
हंगाम
अवशेश
आपत्ती
नायर
मेल
येजमानकी
लागतात
सारें
१०८
कॅलेंडर
बाराव्या
रतन
शा
स्थगिती
हिताक
रॉबर्ट
विसर्जीत
व्याजा
फॅशन
विश्लेशकांनी
स्टॉकांत
अश्विन
महतो
वयलीं
##ून
खंयचे
वेंकैया
संवसाराक
सादें
कॉलेजींत
मेळ
व्यक्तीची
१०५
४५०
कळपाक
घालतले
मेळिल्लें
##का
##ाचीं
चौक
कॅटरीना
गुलाम
धाडपाक
प्रताप
स्मारक
आरोपपत्रांत
उत्पाद
गाडयां
तथ्यांनी
दाखयल्ल्या
पर्यावरणीय
मांडल्या
सगळ्यां
आदान
पत
प्लॅटफॉर्माचेर
चवकशेच्या
चुकीचे
जेल
जोडिल्लो
प्रशासनान
मानले
मेळोवपाखातीर
सोडल्या
अंदूंच्या
थॉमस
मनोरंजक
##कडेन
खोट्या
पंकज
बरोबरी
मराठी
वाडपाचो
कुडी
खंडपिठ
गेल
निर्माती
१९७८
चाकी
देंवल्या
नांवाची
येणावळींत
कार्यकर्ते
खेळ्ळो
जोडिल्लें
पाटणा
मिडियाटेक
विदेश
श्रीलंकेच्या
सीट
उरले
खेळटात
बांदिल्लें
भवन
मार्गांतल्यान
रेशियो
आयपीएलांत
करचीं
खेळगड्यान
महाराष्ट्राचे
मागलो
समकालीन
कर्मचाऱ्याच्या
कामांत
आशियांतल्या
इंडियन्स
गुंतवणूकदारांनी
नैतीक
मागपाक
माती
यात्रा
विदेशी
सार्वभौम
हाताळणी
उत्पत्ती
कुडीची
जोडपाक
धाडपाची
बेन
मास्टर
मेळयल्यात
शिथीलताय
सॉफ्टवेअर
हरियाणाच्या
##ांतले
आध्यात्मिक
कितेंच
लक्ष्मण
वस्तूंच्या
स्थूल
एनर्जी
केंस
केल्ल्यो
मशीन
वादीची
चुकीन
दुबय
अलंकार
उबीं
केरोसीन
मिनी
मुळावे
शकलें
आशंका
इंग्लंडान
गुवाहाटी
दुरुपयोग
पिक्स
पिस्तूल
विक्रीचो
व्याख्यातो
टक्क्यांवयल्यान
निश्कर्शात्मक
नेमाचो
पळोवची
लावपी
वातावरणांत
हंगामा
##थ
ट्रेलर
डॉलराची
थारावपी
दंडात्मक
दस्तावेजांत
प्रस्नांत
विविधताय
वेवस्थापनाक
सत्यापन
गियरबॉक्साक
निर्विवादपणान
मंत्र्यान
स्थिरताय
हाडल्यात
##आड
अमेरिकेचीं
ओबामा
जोडपी
निर्णयांतल्यान
परिस्थितीची
रोशन
वापरपाची
वैवाहिक
ऑडियो
कोल
क्विंटलाक
प्रवाशांनी
मेरेनचो
उडयलें
एसओसी
जसप्रीत
पारदर्शक
मेल्ल्याची
वकिलाक
##वे
अभिनव
एसआय
चवथे
##वयल्यान
कृतींत
दंगली
दवरपाखातीर
फ्रंट
सत्यापीत
सुरवाती
इंदौर
कटिबद्ध
काश्मीराच्या
क्षमतेक
नोकिया
बँकेची
मजूर
मेळटालें
लायल्या
लेखापरीक्षण
विलीनीकरण
स्ट्रायक
खात्याचेर
गेला
ब्लूटूथ
रूंद
रॉक
सराव
सर्तक
अकाउंटाचेर
कात
कारकीर्द
चलोवपाची
जैव
रियलमे
लॉस
वावराक
वीरेंद्र
श्रीनगरः
अभिनेत्यान
धोरणां
नियोक्त्यान
शेंकड्यांत
सशक्त
##ेट
कर्मचाऱ्यांचो
कृतीचो
टायप
पत्राचेर
प्रकल्पाचो
स्फोटक
अपीलाच्या
इरफान
एबीएस
घोवाच्या
तात्पुरतो
मार्केटिंग
अख्तर
आपोवंक
तार
दवरल्यार
देशांक
सपन
हालीं
अभियोजकाच्या
उत्पन्नाच्या
कलमाच्या
क्षेत्रा
तत्वांचें
तिकेट
मुखामळार
वचतलो
सोदपाक
गोपाल
फिटनेस
वायव्य
शॉट
आफ्रिके
चलयेचेर
जगदीश
तरेची
त्रिपाठी
मोलाचो
४९९
ग्रेटर
जोडूंक
तत्वांक
दाखयला
धातू
प्रकरणांचो
भोंवडेकारांक
यत्नांक
अधीन
कराराचेर
काडचो
याचिकेचो
येवजणेक
वेंचणुकेचो
ऑडिट
टाळपा
युरो
विद्यार्थ्यांनी
सिस्टीम
स्टेडियमाचेर
##या
असुरक्षित
टेनिस
फ्रांस
मुखेल्यान
श्रीनगर
सौरव
आशीष
कामाची
जातालो
१९७५
आदेशाचें
ऑफिस
४जी
अबू
चिन्नां
तृणमूल
दितां
१९७४
अपेक्षीत
दाव्याची
न्यायाचो
मेलो
युरोप
अंतरान
एनआर
कच्चो
कबड्डी
कॉफी
जोडपें
निसान
परिपूर्ण
स्मृति
##लीं
##्ड
अशीय
छत्तीसगड
टी२०
डाय
तांबडो
वरांचे
स्वर्गीय
१८९४
उबारून
उल
ऑस्ट्रेलियेक
ओप्पो
दिवप्यांक
पत्तो
फाटलो
रानां
शंकराचार्य
५जी
आसतलीं
एस्सार
कळयलां
खातीं
गेट
घुसखोरी
पासवान
भुमिके
शेअराक
सचीवान
सुचोवणेक
आयच्यान
कॉम्पॅक्ट
मानलां
कुटुंबांतले
को
धोक्यांत
रानवटी
स्वतंत्रपणान
उतरांचो
एलपीजी
प्रभावित
भावनीक
मेक
शरीफ
अप्रासंगीक
आरोपांची
चडशें
जमनीर
जोडलां
वखदांचो
शहीद
सक्तीच्या
जिल्हा
फॅन
रस्त्याच्या
वयलो
व्हरपाची
सिलिंडर
५०००
अस्तंती
पळोवणी
प्रमाणपत्रां
सिम
सीतारमण
सुकणीं
१०१
कागाळीचेर
निधींतल्यान
प्रणब
प्रतिकात्मक
प्राचार्य
फ्रॅंचायजी
साहित्याचेर
##ापरस
##्
उबारपाक
ओएनजीसी
कॅमेरे
घुरी
फॉर्मांत
बेंगळुरूः
भागाक
भाड्याक
हित
इंच
उत्तराधिकारी
कळना
जैश
विष्णु
काडपाच्या
खोलाय
गांवांनी
जिणे
दुबळी
दूद
मोव
संस्थेक
ऑस्ट्रेलियांत
किंगफिशर
दुकानांत
न्हयकारता
मायक्रो
संकुल
संतोष
१०४
आराम
कृतीच्या
गया
धाव्या
सांठो
आशीर्वाद
कागदपत्रांचेर
गळो
धारणा
वाडूंक
श्याम
साक्षीदारांचें
साबार
आझाद
कंत्राटाच्या
डबल
तरतुदीचो
प्रस्तावाक
मोलाचे
येवचे
विकपाचो
कामगाराक
क्रूरपण
गुरवार
घोष
जोर
झगड्यांत
दीर्घकालीन
पोरनो
प्रदेशाच्या
मालकांक
व्हांवपी
सतीश
स्वताच
इन्फ्रास्ट्रक्चर
कार्बन
छत्तीसगढ
ट्रीय
विशाल
शारा
खरखरीत
प्रतिबंध
प्रदीप
शिकार
सभेच्या
सोंपल्ल्या
आरएस
चलयेच्या
धाडून
बाटली
मैल
राजकारणांत
##णी
##ेचो
कागदपत्रांचो
झा
दावेदारान
न्यायाधीशांच्या
परंपरा
फिक्सिंग
लावपाच्या
सांगिल्ल्यान
ओबामान
खर्चाचो
गरिबी
डॉलरांत
बिलां
माध्यम
वादींच्या
विक्रेत्या
खेपेची
चलतात
दळां
निकाला
भुरग्याच्या
शेतकारांच्या
श्वेता
सनी
सुनावणे
हिंसक
ऐश्वर्या
कुटुंबान
थोडे
धर्मार्थ
सुब्रमण्यम
कलंकीत
प्रदान
वाग
वाठाराक
वाडटलो
सरतना
स्टेशनां
एन्कावंटर
खावन
मलयाळम
१९६२
अटींनी
दुस्मान
राष्
वचत
सुरेंद्र
आरके
गर्भपात
मारल्या
वारसदार
ओगी
कविता
कार्यवाहीच्या
चलयो
पंगडाचें
मतदारांक
वचूं
समजता
आरएसएस
प्रकल्पाक
मारतात
माळेंत
मुलाखत
वापरिल्लो
संवादांत
संहितेंत
आदेशान
ग्रीक
जेवणा
पावपी
प्रेक्षकांक
मल्होत्रा
मांडलेले
राज्यसभा
कंत्राटदार
टॉस
पांचवे
माहिती
रविशंकर
लखनौः
हैदराबादः
कार्डा
बांदली
लायिल्ल्या
लोकपाल
शकतली
आवयन
आव्हानां
उद्धव
खणून
घोटाळ्यांत
जेएसडब्ल्यू
प्रवृत्त
मेरिट
वाडीचो
१९६३
कठीणपणान
काउन्सिलान
कापूस
माचयेर
राज्यांतल्यान
सविस्तरपणान
सुलतान
आनीकय
केरळांत
प्रांतांतल्या
फर्मा
मेळटाली
राजकुमार
क्यू
खन्ना
खीण
प्रजासत्ताक
प्रीपेड
बेंज
बॉलिवूडांत
रावत
स्कुटर
अनिश्चीत
जनरलान
निर्मात्यांनी
पळोवपाचो
प्रशिक्षीत
रानौत
वित्त
संयम
खेळटले
नैऋत्य
पीव्ही
अधिसुचीत
नागरीकत्व
मार्गांत
संस्कार
अरोरा
दंडाधिकाऱ्याच्या
न्हयकारप
परेड
शेअरांचे
संत
उप्रासना
एनपीए
कराराक
चिट
दुबळो
परिसरांत
प्रकरणाचीं
फाटले
बाजारांतली
मांडपाक
सूत्र
अधिकारा
आत्मसात
कारकिर्दींत
धाकटो
फायलीन
भारतांतलें
मध्यवर्ती
मॅचीं
विकून
हैदराबादांत
आरोपीचो
दामून
दाव्याचेर
पावतात
म्हयन्यांनी
लागलां
२४०
ऍटर्नी
एचसी
कळ्ळां
कारणान
खारिज
देड
प्रदशषन
राबितो
आरोपीचेर
काश्मीरी
दोरी
प्रणव
प्रतिबिंबीत
मंदिर
रागान
वटेनच्यान
हातांतल्यान
अपीलदारां
डेट
निवडलें
पे
बाजारांतल्यान
महामारी
रानांत
रेशेचेर
अंसारी
अॅड
खेळा
नोयडा
प्रमाणीकरण
म्हणिल्लें
व्हरतात
१९७७
उमेदवारांनी
ऑडी
गूढ
घडल्या
चे
दाखोवप
मागास
राष्ट्रकुल
संस्थेंत
हिताची
अहवालांतल्यान
एडिशन
गुप्तान
चौ
पंत
पुजारा
प्रकारचे
रॅलींत
विभाजन
श्रॉफ
सोसायटीच्या
हानी
खणकाम
चेन्नयांत
पीयूष
गांठ
समांतर
अजेंडा
आफ्रिकन
ईमेल
दूरध्वनी
पळयत
प्रतिनिधीक
मोलाचें
रहाणे
लॉ
वाटपा
सोडपाची
अपीलाचेर
आराखडो
केन
जिंदल
तलवार
फोनाच्या
माप
मोगाळ
राजदूत
लागींच्यान
शुल्का
जोडलें
बेंगळुरूंत
भितरल्यान
मतदारसंघांत
वंशीक
आकुंचन
आयपीएस
घोशणापत्र
दुस्मानपणाची
धांवून
लिपिक
वयले
सुदारपा
अर्जाक
कबीर
कवी
क्वचितच
धाडटात
मतांची
मोटो
लंडनांत
संलग्नताय
सहारा
आपल्याक
ग्राउंड
देवगन
पन्नास
पेशकश
रायपुर
रोमांचक
खर्चाचेर
गोविंद
देशांतले
फाटबळ
शिमे
हातूंतल्या
केंद्रांनी
केटीएम
चीनाक
नियंत्रणांत
पोस्टर
मॉर्गन
सभाघरांत
१९४७
##प्पा
उडयला
घन
ट्रेड
दूख
फायद्याच्या
वाजपेयी
संभाव्यताय
गायिका
जयपूर
थारचें
दराची
नकासो
विद्यार्थ्यांच्या
शिमेवयल्या
सुटके
हेमंत
अधिकाऱ्याची
उद्देगा
खर्चीक
घेतलीं
टाउन
ड्रायव्ह
प्रकरणांतय
विक्रेत्यांक
शर्त
सरस्वती
सांबाळपा
दिवपाचेर
देंवता
पॅन
रावली
वापरतना
शास्त्रज्ञ
१७०
##भायर
उरना
कॅनडा
खेळूंक
दोगांयक
पीडब्ल्यू१०
बळीन
म्हयन्याळ्या
रविचंद्रन
रिलीफ
वाराणसी
वेगवेगळी
सीआरपीएफ
हजारे
अॅटर्नी
ईएमआय
खबरदारी
विधानाक
विधानाचेर
सप्तकी
उत्पन्नांत
चलयल्ल्या
नेमिल्लो
सत्तेवयल्यान
##सा
केंद्रा
थळावो
यांत्रिक
ईव्ही
दाखयल्ली
रावपाचें
सोयीस्कर
११५
##िस
एअरवेज
ब्रिटनांत
मॅचींची
रिंग
शाओमी
सरल्या
साहू
सूड
केंद्राक
जितेंद्र
नाच
पद्दतीचेर
पयशांच्या
रस्त्यांचेर
आतंकवाद्यां
आसचे
थर
प्रेम
##ती
असोसिएशनाचे
आयएएस
कार्यालयां
प्रांत
बाबू
मुलायम
शेतकारांनी
सैन्याक
अर्जदारांक
आडखळून
क्रूझ
तोय
थारायतना
दितलें
वाडप
शेत
अजिंक्य
उडयलां
एकक
खात्यांतल्या
जतनायेन
दिल्लीचो
पंजाबांत
मुरली
मेळयल्ली
वांगड्याक
वांटणी
वापरपा
अर्थशास्त्रज्ञ
एकेरी
खरेपणीं
देखरेखी
पंप
परिक्षे
फोक्सवॅगन
बसपी
भयणी
भलायकेन
भाजपांत
भारतीयांक
भौसाक
म्हाविद्यालयां
युनिव्हर्सिटी
रिमांड
विशेषाधिकार
वेंचणुकांनी
वेंचणुकेचे
संस्थानां
एएसआय
गोळी
घडणुकेक
टॅक्सी
डीडी
निक
पीटर
पीडब्ल्यू९
बांदिल्लो
मिड
लश्करान
लायला
व्यत्यय
आमदारांक
इंडियाच्या
ऋतिक
दळाच्या
देवाची
धांवडावन
पळयतले
प्रतिश्ठीत
वचतली
आफ्रिकेंतल्या
एनफील्ड
कुडीक
चलये
टेक्नॉलॉजीज
बँड
व्यक्तीचेर
स्वताचे
आडावपाचो
क्षेपणास्त्र
खंयची
खात्रीन
चडशी
डिस्क
मागतात
माल्या
अदानी
मडीं
मोदीचेर
रिकाम्या
शोशण
संघटनांनी
##खान
एमओयू
करपाचीं
तेलाच्या
दाखयलो
बीसीसीआयच्या
युनिटाक
रबर
विधी
हवेचो
इलॅक्ट्रॉनिक्स
कुडके
चोरी
नामनेचे
पांयतणां
वाचपा
स्टोर्स
कैफ
चलोवप
टिप
भाजपाची
मताक
में
मोलाचेर
राज्याचें
वापरिल्लीं
सादला
हेलिकॉप्टर
३०२
आंगठो
करपाच्यो
क्लास
न्हीद
परिक्षेच्या
मालकान
वाडलां
शेअरांत
संबंदा
अयोध्या
आंगांचो
आर्थीक
ऑटोमोबायल
कार्यावळीच्या
टर्मिनल
दांत
फेडरेशन
वस्तूं
वादाची
सोडोवपा
ऋषभ
एचपी
प्रतिज्ञापत्राच्या
फांटो
वायटपण
शुक्ल
सुवाळ्याक
उपविभागीय
ऑस्ट्रेलियेचो
जाणीवपूर्वक
भ्रश्टाचाराच्या
मौन
राजवाडो
व्हडलीशी
शरीफान
सोदांत
१९५०
कार्यकर्त्यांक
ग्रेच्युटी
चुको
जात
टक्क्यांच्या
दाव्याचो
नागरीक
फार्सी
फावंडेशन
भांगराचो
म्हैसूर
वाडदिसाक
उद्यानांत
किर्र
कैलाश
धोरणाक
पावूंक
मादक
मिटर
मॉर्निंग
स्ट्रीमिंग
पार्किंग
विशयांत
सादरीकरणांत
सोऱ्याच्या
दर्यांत
धनी
पुराव्याचें
भौगोलिक
रेपो
अध्याय
आयकुपाची
आशा
तत्त्वाचेर
दराचेर
प्री
बॅरल
मार्टीन
याचिकादारांचेर
वापरचो
टाइम्स
दहशतवादी
पंगडांनी
प्रतिवादींचो
हांगासर
एकंदरीत
दिग्विजय
मंचाचेर
विद्यापिठाची
विनय
एफआयआय
लुक
सर्वेक्षणांत
अब्दुल्ला
कागद
कापणी
चहल
नेमाचें
रेनॉ
##ीच्या
##ेची
कालबाह्य
जिखलें
तार्कीक
थारायली
फॉर्मेटांत
लांकडी
लायली
सुप्रीमो
##पुरा
इशांत
कामांतल्यान
क्रूर
जिल्ह्याच्या
प्रेक्षक
फाटलीं
मंडी
रॉयल्स
व्याप्तींत
२५६जीबी
इमारतीच्या
कराच्या
टॉर्क
दाखोवपाच्या
फोड
सेडान
##पा
आयओ
आयोगाचे
ग्राहकांक
तेन्नाचे
न्हंयच्या
प्रेक्षकां
प्रोसेसराचेर
भुरग्याची
हरीश
आयडिया
कार्यपद्दती
दिशेन
मानल्यार
मेळ्ळ्यार
लायट
वेवस्थेंत
सीआयटी
सुरक्षे
अहवालाचो
उद्देजक
एंट्री
पक्षाचें
पेस
प्रस्तावाचेर
बंडखोर
बदलपी
बांद्रा
सध्याचे
साक्षीदारांचे
अडचण
आयसीसीच्या
एसटी
कायद्यांतल्या
कार्यावळींक
जुंवो
दुवो
नामनेचें
नेमणुकेच्या
पंगडां
पंचनामा
पावपा
प्रवाशांक
फॉरवर्ड
बोटांचे
ब्राझील
रेंव
वास्तव
श्रेणी
##दार
एमपीचो
घटकांचो
जर्मनी
पंगडाची
ला
वीर
सांगतना
साहित्याच्या
##ेल
अटींक
अर्जदाराच्या
कार्यावळीं
कोळशाच्या
झुजा
देशभर
परवडपी
रानी
सरतात
१५१
आठव्या
गर्ग
जोडिल्ली
पेशी
मेरी
युरोपांत
वस्तूंची
संचालकाक
१४१
अध्यादेश
ईडी
उपायुक्त
कामगारांनी
चाकू
जिल्ह्यांतली
प्रतिश्ठा
संविधानाचें
अभिन्न
अल्पकाळ
एनडीपीएस
ओपी
दत्ता
मापदंड
लायिल्लो
विकपाची
हाताळपाक
हारून
१९६६
आनिकूय
त्रासांत
थारायल्ली
दागिने
पक्षांची
राश्ट्रां
सदर
##ेच्या
आयुष्मान
कामगिरीचेर
खेळगड्याक
घाल्लें
मंत्रालयाचे
मलेशिया
लोकांचेर
सोडले
केकेआर
गुपीत
दरापरस
मान्यताये
म्हाविद्यालयांनी
रेल्वेच्या
लीला
१४४
##वांगडाच
अणकार
दरभंगा
देशाचे
नवनिर्माण
प्राइमा
भाचो
साई
सेवांचो
खात्यांतल्यान
गुन्यांवांचेर
ग्रंथांत
डिझेलाचे
धवो
पीई
प्रवीण
१०२
##ेंत
आज
आफ्रिकेचो
उदकांतलो
कच्चे
टप्प्यांनी
पॅनेलान
भारतांतले
मुख्य
शिवराज
सुटावो
हेड
अध्यक्षाक
आतंकवादाच्या
आवयक
इंक
उत्सुक
जोडले
पळयल्ले
मार्शल
राज्यांतलो
समज
सामके
सॉफ्टवॅर
हारले
अभ्यासा
देशांच्या
पत्रक
पॅसिफीक
फरार
मुलाखती
रियल्टी
वाड्रा
आतंकवाद्यांनी
आयटीसी
टेक्नॉलॉजी
देख
निश्कर्शाचेर
वाडल्यात
विद्या
हांगाय
##ेश्वर
आरबीआयच्या
आसिफ
उत्पन्नाचो
चळवळ
जाचें
धांवड्यांचो
नरेश
निधींत
पिन
मागपा
मागून
वकिला
उपयुक्तताय
एंटरटेनमेंट
खूबदां
भरपायेची
सिंगाचो
१३८
अपीलदारांचेर
दुबावाचो
मांडले
विकपी
सारकिल्ल्यो
स्तंभ
होल्डिंग्स
कोणूय
घडणुकांनी
दावेदारांक
निर्णयांच्या
फेसलिफ्ट
बीबी
अपघाती
उत्तराधिकार
करच्यो
जापांत
दलीत
प्रस्नांतलो
लोकांमदीं
सरपाची
१९६५
उडयल्यात
फकाणां
बॉडी
विधीन
सिनेमान
सुरक्षेच्या
##डा
इत्से
चिकटून
पळयतना
सावधान
इब्राहिम
कन्हैया
कबलाती
खात्याचो
टॉम
तारखेच्या
फायद्याची
भोपाळ
संचालकांक
हनुमान
##ु
अपूर्ण
प्रकारची
लेबल
वाडयता
शिक्षकांक
सप्तकांचो
##तल्यान
उत्पादनांची
उरिल्लीं
गटांतल्या
दवरपाच्या
देयता
पोर्ट
प्रकरणांची
प्रबल
मालिकेच्या
सर्तींनी
सायन्स
१०३
१२२
राधा
रेल्वेन
सईद
सायना
हुंवाराक
##ोन
आयडीबीआय
करताना
तेलाची
प्रकल्पांक
बॅडमिंटन
मुख्यमंत्र्यान
सुसंगत
अधिसुचोवणे
कांटबँड
पो
बदलपाक
म्हणालो
हक्काचेर
हल्ले
गुजराताच्या
चेतेश्वर
त्रासदायक
दुयेंतींची
मध्यस्थी
विमानांत
सोंपपाची
##व्या
आरसीबी
उपास
एसएचओ
कपूरान
गटाक
गाडयेचो
जाधव
तर्कशुध्द
धाडल्या
निरपराधीपणाच्या
पारदर्शकता
सनसनाटी
साइट
३जीबी
##कर
##दा
काळजाच्या
कुटुंबाच्या
गाय
गिल
तुच्छ
दबंग
नोटीसांत
फिल्माचें
भिरांकूळ
सक्तीन
सरकारांच्या
हिची
१९५७
ईद
कर्फ्यू
जोडल्या
तितलेच
प्रौढ
मतदारसंघांनी
संदी
सध्याची
स्वातंत्र्या
१९५१
इंग्लंडांत
उलयलें
एफएसएल
काळजाक
काळे
खावची
निबंधकान
परिणामा
लोकप्रियता
वावरांत
वाहक
सांगले
हांगाची
ईशान्येक
एक्झिबिट
क्लिनीकल
तात्पुरतें
द्रव्य
पद्दतीचो
पळयल्ल्या
पुरस्कारा
फाटभूंयेर
फ्लॅश
ब्युरोन
यामाहा
रंगांनी
समेट
स्थान
उप्रासलो
काळजाचो
किंग
गुन्यांवांतल्यान
जाल्यारूच
न्हंयो
पार्कांत
मडें
शेन
साधनसुविधांचो
हक
१०९
आफ्रिकेंत
उमेदवारांच्या
तीर्थ
दिशा
बंधनां
वैशिश्ट्यां
सिगरेट
हानिकारक
##गर
असंख्य
आरोपीचें
खनिज
खर्चाच्या
घुस्पागोंदळ
ज्यू
दीर्घ
नाशिल्ल्याची
पीपल्स
बांदलां
इराण
कागाळीच्या
क्लिक
घालपाच्या
रेकॉर्डिंग
सरव्यवस्थापक
आरोपींची
ईस्ट
करपासारकें
जेसन
नार्झो
परतफेड
बेईमान
रैना
लुटपाच्या
विज्ञप्तींत
शी
सम्राट
२५००
आरोपाची
खोटे
जाहिरात
जुळटा
निळो
न्यायाचे
बुमराह
विवेकबुद्दीन
सांबाळून
सुचयलां
सुरक्षीतपणान
हॉस्पिटलांतल्यान
जीप
तथ्याचो
तपशीलवार
दिवप्याच्या
दिसतले
निर्णायक
निवेदनाच्या
फायर
माळ्यार
वसाहत
विधानाच्या
सवलतीच्या
सेंमी
आयलीं
तीस
पडपाचो
फाटींफुडें
बांगलादेशांतल्या
माध्यमां
वळखताले
सहभाग
##भितर
गुलाबी
निबंधक
लद्दाख
स्पश्टताय
अधिकाऱ्यांची
अपूर्व
उर्बा
किशन
कॅम्पसांत
दुरुस्त्यो
बीपीएस
बॉम्बस्फोट
मुळाक
हॉटेलांत
१९६९
इमारतींत
कुमाराच्या
ट्रॅक्टर
थारावचो
धाडसी
पिराये
बीसीसीआयचे
मुद्रा
लिमिटेडचे
सिरिज
सीएसके
सीबीएसई
अब्बास
आरआर
दुयेंसाक
निरिक्षणांक
निश्क्रीय
प्राधिकरणाची
विधेयकाक
शिथील
हाऊसांत
##ेड
##्य
ऊंच
कॅडर
चलयतात
जोसेफ
तकलेचेर
धाडटले
परिस्थितींतल्यान
विशयांचेर
१९६७
एबी
कार्यालयाक
कॉम
खात्याची
जावेद
ट्विटांत
नृत्य
नौदल
प्रसंगांचेर
बरोवन
मॅट
राहुलान
वाहनांची
विधीमंडळाचो
शमी
सिल्वर
स्कोडा
१२००
##गंज
आरोपीची
उत्तम
काळांतलो
घटकां
चांचणे
जीन
थारावचें
थोडो
निशाण
परंपरेन
बोनस
वांटप
सुदारणां
कुटुंबांत
कोट
घाले
दोतोरांनी
प्रस्तावा
भासाभास
स्पोर्ट
आयल्यो
इश्टां
क्लासिक
घडोवपा
सरकारांक
साय
सोडवणूक
##एम
आरसी
गोंयांत
तारखां
परवान्या
पिकां
मुसलमानांक
वसलां
विमानांतल्यान
शक्ती
सारकेपणान
हाडटली
आमचीं
एजन्सीच्या
कर्मचाऱ्यान
कार्यालयीन
कोलकाताः
दाखोवपाचो
बायलेची
याचिकादारांचे
संचयीक
साहिब
हाचेकडेन
ऍमेझॉन
कम्युनिस्ट
किआ
कितलें
जोडिल्ले
तितली
दिवप्याक
पडप
फुलां
बोस
महत्वाकांक्षी
मिल्स
लॅटीन
वडोदरा
वाडोवपाच्या
##ीकरण
आरपी
आल्बम
आव्हाना
कामगारांच्या
काळीज
प्रदेशाचो
भायलो
मजकूर
शेखर
संकश्टाक
सप्तक
सिवान
१२४
##लाल
आमदारांनी
आव्हानात्मक
काडिल्ली
कुडको
जुंवे
थारावपाखातीर
रुंद
संवर्धन
##रान
उरतात
काँग्रेसीचेर
खरेदीदाराक
गटा
गाडयांनी
तज्ञांनी
मरणाचे
रिणाचें
रूम
सुनावणीची
केर्न
गेम
चीना
दिवाळी
पोशक
फिल्माचो
बांदपाची
लुईस
वाडपा
विक्रेत्यान
अटींचेर
कॅथलिक
दादलो
फटोवन
बंदखणींतल्यान
वापरताले
वॅट
संगीतकार
संभोग
साहित्याची
सुरवेच्या
स्पेस
आडखून
उदयाक
काडटले
गाडयेची
दुचाकी
मायक्रोएसडी
राष्ट्रवादी
श्रीलंके
सीडब्ल्यूजेसी
सेवांत
सोंपचे
हॅचबॅक
एकलोच
कार्यावळीचो
क्रमांत
खंडपिठाक
थळावी
दारुगुळो
पक्षांमदीं
पयशांचेर
पांचवो
प्रतिवादींची
बोईंग
भारताचेर
रुपयाचेर
हांकांय
हांगाचे
१०६
२२०
##नगर
औरंगाबाद
कळयली
कायद्याखाला
नियोक्त्याक
मरतल्या
वांगड्यान
##के
कार्यरत
गायन
म्हामंडळा
याचिके
वागलां
संक्रमण
सौहार्दपूर्ण
अनंत
अनिश्चित
उत्पादनाक
ढाका
देगण
निकालांत
पक्षाचो
बीएसएनएल
माता
लागतलो
वांगडीपण
विकपा
##झ
उदय
घेवपासारको
नागपूर
नियमितीकरण
बिन
भागांनी
लग्नाची
वाहनांचो
विकता
समुदाय
१७५
अभिनेत्रीन
अर्जाच्या
कर्नल
क्षेत्रांनी
खाणां
गैरवागणूक
माळो
मित्तल
मुफ्ती
मुळां
शिकप
सूर्य
हलके
हांचेकडेन
३जी
अविवेकी
आशिल्ल्यांक
कार्यालयाच्या
गोडेंमूत
जल्मल्लो
पक्षांचे
प्रतिनिधीत्वाचेर
फायद्याक
मेळयल्यो
लेट
शेजारी
सुटये
हाताच्या
##टा
करपाकय
नमस्कार
मसूद
शाराचो
सुवाळो
हक्काची
१९५५
अदलाबदल
अपीलदारांची
असमर्थ
उदरगतशील
कुटुंबां
देखूनच
मदन
संकश्टांत
सरूंक
सूरत
२२६
अपीलदारा
गळून
गाडयेक
घरांनी
चलयेन
धोरणाचेर
नोएडा
बॅक
भूमि
रत्न
लागींचे
स्वायत्त
##ाखातीर
अभियोजकाची
आंशिक
आडायले
कंपनींतल्या
कलमाचो
जमनींतल्यान
जीपीएस
बाधित
मता
ललित
लिंग
वाया
विधानांतल्यान
व्हरपाचो
सहकार्यान
१४९
अपलोड
आदारिल्ल्या
आलोक
घेताले
धाडूंक
प्रांतीय
फाटबळांत
मार्चा
व्यक्तिगत
साहित्या
१९५२
##ेस
अॅल्युमिनियम
आयुश्य
एनटीपीसी
थारायिल्लें
न्हयकारतना
पुराव्यांचें
फडणवीस
विवरण
एवाय
चवकशीची
फुडार
बेगम
म्हाविद्यालयांत
यमुना
लज
विप्रो
विरोधक
सिनेमांतल्यान
सैन्याच्या
१४५
६६५
##एन
इंडोनेशिया
जोडपाची
दिसपाक
प्रकरणांतले
प्रकारचो
मास्क
लग्नाक
विश्वचषका
संघटनां
१४७
##ंट
आतंकवादाक
एक्स्पो
कंपनीचेर
ड्यूक
तहसीलदार
थारल्या
दारां
पठानकोट
पोस्टमार्टमा
रंगाच्या
वॉर्ड
शीला
हर्ष
अपघाताच्या
धाडची
पोर्टफोलियोंत
माथ्यार
मिस
रायडर्स
लेडी
सुचयलें
सोडटात
##सारक्या
आरोपाक
बाजी
भागांतल्यान
रंगाचो
रहिवासी
शेअरांच्या
संवय
##िका
आंतर
उदाहरणां
करपाचीय
किसान
तंत्र
पक्षांचो
प्रचलीत
प्रतिभा
फर्मांक
बळ
मेले
राजपत्रीत
लंडनांतल्या
##र्स
##ांतली
कार्यालया
गरजो
घेतालो
दंगल
निगम
पूर्वतयारी
लावार्थी
विधवा
व्यास
१०७
##गढ
अपरिहार्य
अरोड़ा
अॅकॅडमी
कळटकच
खानाच्या
जंगम
पावपाची
भरपायेचो
मध्यान
मोहित
विकृतताय
श्रीराम
कव्हरेज
काडिल्ले
प्लांटांत
बसकेचे
वाठाराचो
विमानांची
सुटयेच्या
##पुर
अधिसुचोवणेन
एनआयए
कुडीं
प्रशासक
संग्रहालयांत
सगळेच
जखमां
जल्माक
टॉवर
फाटबळाचेर
फिंगरप्रिंट
भरसण
लेव्हल
वास
विद्यापिठाक
सादरीकरणांचो
सायबर
##िल
इंडिका
चार्ज
जाळें
जिणेचो
दस्तावेजाची
नंदा
बांदप
येवपाचे
संचालनालयान
संमिश्र
सोनाक्षी
स्पिन
हक्कांचेर
अय्यर
आधार
एलिट
ए१
डॉलराचेर
तरांनी
दाव्यांचो
मालाच्या
मॉडेलांत
रोव्हर
विकलो
सॉलिसिटर
स्वरुपा
११२
५९९
इंडियाचो
कुशळ
खरेदीदारांक
जनावरां
जिणेच्या
तोमर
त्रिपुरा
थारला
दवरताले
रक्
सागर
हांचेविशीं
११४
इंटरनॅटाचेर
गुळयो
पातळिल्ल्या
रणजी
लाहोर
विक्रेत्याक
संकश्टा
सीलबंद
सेवांनी
५५०
##व्ही
अर्जदारांनी
उडोवपाच्या
करपासारको
कामाचे
दरेकल्याक
निरिक्षकान
निवाड्याच्या
प्रकरणांक
मालकीदार
सत्ते
सांगला
अभयारण्य
अभिव्यक्तीचो
अमीर
उक्तायतना
उडयता
कारगिल
कोर्टान
कोहलीच्या
जमाती
देवीक
नामनेची
फॅन्स
रन
वायरलेस
हाडपाच्या
अभियंते
एनएम
ओबीसी
कृपा
सासण
सोडोवंक
उत्पादनाची
चक्र
डिपॉझिट
दिल्ल्याची
न्यायाचें
लिपोवन
वेगळ्याच
सांबाळटा
सिक्स
२३०
इब्न
क्षेत्रांतली
डबल्स
तीक्ष्ण
प्राप्त
मठ
राजपत्रांत
सुदारपाक
सॅम
सेन्सेक्सांत
गस्त
चित्रपटांनी
जोडप्याक
पेटींत
रुपयांचेर
वाठारां
व्हॉट्सअॅप
शिक्षकांची
संदर्भार
सभा
१३५
आसतनाच
इझ्राएल
चवकशींत
तरलताय
मुजफ्फरपूर
रामचंद्र
वापरतले
वावुरतात
सोंपलें
१२६
असहाय्य
आजी
कामा
ग्रंथ
तुमचीं
दादल्या
परिणामांतल्यान
पार्टीचो
यशस्वीपणान
वाडिल्ल्या
##ित
अर्थवेवस्थेक
आकाराच्या
कोणेंच
गुन्यांवांची
गेल्ल्यान
मजेची
समाजा
सरकारां
सायन
हिंसाचाराक
एफसी
गोळीबारांत
घेना
घोशणापत्रांत
जिवंत
धुवन
प्रकल्पाच्या
ब्रॉडबँड
मूर्ती
विधेयकांत
सादरीकरणांक
स्पेलिंग
अर्था
आस्पॅक्ट
जयंत
ताकाच
पावल्यात
फिल्मा
मॉल
लॅंड
वाचल्यार
समायोजन
##यू
उक्तायलां
उक्त्यान
जागृत
टाय
तीव्र
धाडल्यात
नातू
न्हयकारल्यात
पुरस्कारांत
बांदलें
भवनांत
राती
वापरला
विश्व
वेगळेपण
शांती
हरभजन
५१२जीबी
एलपीए
काको
घोटाळ्याच्या
जेएम
देवळाचो
पंगडांक
पांवड्यावेली
पॅकेट
फर्माच्या
फोनाक
बांदलो
याचिकेंतल्या
रॉयल्टी
वाचता
व्यक्तींचेर
सामान्या
हाडिल्ली
अर्जाची
अस्थिरताय
इंटर
ओएस
गुन्यांवकारपण
ग्रे
तमिळनाडूंतल्या
धुवो
संहितेचो
समाधानी
सिनेमाची
आडावपाच्या
आडावपी
आरआय
एमएफए
कार्यकर्त्यांनी
खर्चाची
जिवी
टोल
पीएसयू
बोट
भाशणांत
मेगाहर्ट्ज
राज्यांतले
लॅब
सादरीकरणाच्या
३५००
५१२
##एफ
ओडिशाच्या
चवकशीचो
धरपाक
ध्यान
नेमलो
पट्टी
पाकिस्तानाची
भोंवडेंत
मथुरा
महोत्सव
मीठ
वचना
विल्यम
वेळोवेळ
सहज
##वादी
अर्थपूर्ण
आपोवन
उंचायेर
कट्टर
जिखल्या
दरांचेर
पीडब्ल्यू११
पोरणी
पोरनी
प्रकाशन
बसला
मेट्रीक
राखणदार
व्यावहारीक
सोडप
हाचीय
१७३
उल्लंघना
कुडींतल्यान
क्षेत्रफळ
घटकांक
घाय
चारूय
ट्राय
निधीच्या
पब्लिक
पर्यायांत
बीएसईचेर
भाई
भितरले
मेळपा
मोदीचो
युनिटांची
विधेयकाचेर
१९५९
चित्रपटाक
जोडीदार
डीएलएफ
दृश्टीकोन
बांदिल्ली
बेंगळुरूंतल्या
वापरिल्लें
श्रीनिवासन
संकरीत
सेलुलर
स्कोर
##ेर
आयर्लंड
कथन
खूनाच्या
घालना
दया
मांडटा
रानटी
वायफाय
सावळी
११८
१९६८
अॅमिकस
आकांक्षा
आदाराक
उत्तराखंडांतल्या
एकटोच
क्षेत्राक
गाडये
जयंती
तुका
पळयले
पिक्सेल
पुता
ब्रिटनांतल्या
मातशें
विरोधाभासी
सर्तींतल्यान
१२३
उडयल्ल्यान
तेंदुलकारान
दस्तावेजाचेर
निकालाक
निवृत्तीची
बचावा
बिनशर्त
रिझोल्यूशन
विक्रीच्या
विद्युत
व्यक्
व्यर्थ
शाळेंतल्या
सहसंस्थापक
स्टार्टअप
हक्कांची
आयिल्लीं
उल्लेखान
नांवाचें
बेंगळुरूच्या
येवजणेची
सांगतले
३१०
##ुल
आत्मघाती
कॉर्पस
गणित
गीता
जिवाक
दवरिल्ली
धबधबो
पदाच्या
पळयला
मारल्यो
रिव्हर्स
अटींचो
आशिल्ल्यां
कंत्राटा
कोश्टकांत
ग्वालियर
तळ
न्यायालयानय
पिक
पीआयएल
पेन
प्रकारांत
प्रशांत
भुरग्यांची
भुरग्यांचो
सरला
सहभागी
अभिजात
एएनआय
केल्ल्याच्या
कोर्टांत
जोधपूर
देंवलें
महबूबा
वचपाचे
वाचप
विभागाच्या
विरोधांत
सौम्य
हिस्सेदारी
१२१
कळूंक
चलपाक
जान्हवी
जिखपा
जिखपाची
जैताक
जोडप
ट्रेंड
डॉन
देवता
मतांनी
मयंक
रणजीत
विध्वंसक
समितींत
हॉस्पिटलाच्या
४०००
आजम
आयडी
उब्या
तुर्की
दोतोराच्या
निवेदनाचेर
नीरज
बिंदूचेर
माउंट
मेळिल्लीं
सनरायजर्स
साउथ
अघटित
उपराष्ट्रपती
एकमतान
एनसीआर
ग्रामाक
जशीं
तरतुदीच्या
धाडला
न्यूयॉर्कांत
पोटांत
महाराज
मोला
युजवेंद्र
वर्क
व्हरप
संस्थेचो
सिन्हान
स्थलांतर
आयकुपाक
उत्सर्जन
कुटुंबाची
चेन्नयः
टॅग
टेलिफोन
निकालाचेर
मेन
मॉडेला
लेग
कटऑफ
घेवपाखातीर
झारखंडांत
डिप्लोमा
तिखें
थारली
निराशा
न्हंयचेर
बंसल
बळीची
मतदारांची
मनयता
यूएसबी
रोस
लेन
वर्णीत
समीर
सेक्टर
सेबीन
हुंवाराची
११९
ऑपरेटिंग
ठोस
तमिळनाडूंत
धोक्याच्या
नवीकरणीय
निर्मात्यान
परंपरीक
पी१
प्रमाणा
सीसी
१२जीबी
##राज
##्यो
आगरा
आयआयएम
इकबाल
गटाची
गांवांतल्यान
चीनाचे
तास
धरूंक
प्रकल्पांचें
प्रचारांत
मणिपूर
येताले
रितो
सोनम
कसोटीच्या
कागाळदाराची
खेळपाचो
गैरहाजेरींत
गौरव
देवळाची
बंगालाची
सज्ज
सेवे
स्टेशनाचे
११३
आपयली
काउंटी
खुर्शीद
तृतीयांश
दुख्खाची
निमित्त
बसकेच्या
भायले
मालिकेचो
रेकॉर्डांत
लोकायुक्त
समीकरण
सिक्किम
हल्ल्याची
अडचणींत
कॉर्प
तथ्यांचें
तिबेटी
तुलनात्मक
निर्णयांक
पंतप्रधान
प्रभावीत
प्रोबेट
बेगीनच
मालकाच्या
म्हणपाचो
यादस्तीक
रुपयाचो
वस्तूंचो
विहार
सैमाच्या
१९६४
##बा
##राम
आवडीच्या
एरोन
कार्यालयांतल्यान
खेळगडी
गो
जायरातींत
तण
तालिबान
थळार
दिवप्यां
पृ
प्रक्रियात्मक
प्रस्नां
फुडारा
भागलपूर
सिंगा
हांचेमदलो
##वन
उरलें
कमाईच्या
केदारनाथ
चंद्रयान
डच
थारतले
फायद्याचेर
भलायके
भविष्य
मतदारसंघांतल्या
वळेरेंतल्या
सुशांताच्या
##ळ
अनिश्चितताय
इंग्लंडाच्या
घडिल्ली
तिमाहीच्या
रायफल
१९०
आयुक्ता
ईडीन
क्रांती
जाति
दाखयल्लें
दिसल्यार
निर्देशीत
नेक्सन
मागला
युनिटां
वेव्हाराचो
सिंधू
हरियाणांत
होंय
अपीलाची
अहवालाक
करिश्मा
कोरियन
बंड
बेगीनांत
मालकीचे
वतालो
वाक्य
सोयीचें
हांचेमदल्या
१४२
इंग्लंडाचो
कोविड
गवायाचेर
ताकाय
धान्य
लुटमार
सानिया
आयुक्ताच्या
आस्पावतात
कंत्राटदाराक
कंत्राटदारान
कॉपीराइट
खटल्याची
गंतव्य
जोडटात
तत्वांचेर
ब्रिक्स
रेस्टॉरंट
लागपी
वन्यजीव
वाजिब
वेवसायांतल्यान
आदेशांतल्यान
आरोपांचेर
उरपाची
काडटना
कार्डां
कोहलीक
क्लियर
ग्रुप
जयराम
ट्रांसमिशन
डिग्री
निरिक्षणांत
भरपाये
याचिकेची
शिकपी
श्रेयस
सरपाचो
इन्व्हेस्टमेंट
इस्लामिक
एओन
खूनाची
परवेज
पूर्ववर्ती
प्रामाणीकपणान
प्रायमरी
फरमानाची
साह
##वाद
अमेरिकेचे
आतांच
उपनिरिक्षक
कम्युनिकेशन्स
जेएनयू
भट्टाचार्य
मालमत्तेचे
मेळ्ळ्यांत
वचपाच्या
विभागा
स्विफ्ट
आक्रमण
उबारूंक
एकलो
डिफेंडिंग
दर्शन
न्यायाधिकरण
न्यूझीलंडाक
फिल्माच्या
बिहाराच्या
साक्षी
स्वयंसेवक
१५३
##्यांक
इकरा
कार्यान्वयन
खेळगड्याच्या
गजालींक
गुणवत्तेचेर
तरेचो
पुरस्काराची
प्रांतांत
बाह्य
मनीसबळ
म्हयन्यांचो
येवपाच्या
वारसा
संकुलांत
साठवण
सामुहीकपणान
सीए
सेवेच्या
१९५८
आदेशां
उपरांतचे
एनआयएन
एलआयसी
गुजराती
दवरचे
दावेदारांनी
निलंबन
पाळपाची
प्रतिवादीचें
येवची
रितें
संरचनात्मक
सुचयता
अपमानकारक
अवयव
गुन्यांवाचे
डावपेच
तारा
दिसाच्यो
दिसाळ्यांनी
प्रायोजक
भोंवपाक
येतना
विनिवेश
शिकलेले
१९०८
क्षमतायची
गळ्यांत
गैरहाजीर
तेराव्या
दुकळ
द्रविड
नड्डा
नर्सिंग
पटियाला
मध्यभागांत
मोटारी
मोटोकॉर्प
विकतीं
सोडपा
स्वरूपांत
आहार
कायमस्वरूपी
कार्यावळीचेर
केदार
क्षेत्रांतल्यान
घडूंक
जयललिता
टिम
टीझर
देशाचें
प्रीमियर
मीरा
लिमिटेडच्या
##वो
अप्रत्यक्षपणान
जेनेरिक
म्हालगडो
सापेक्ष
आजो
नगदी
पीएच
मालिकेची
वेळापत्रका
शारासावन
सुवातीं
हेडलॅम्प
##की
उमेदवारान
ऍडव्होकेट
जखमीं
ट्युशन
बसकांनी
बहुजन
मांडावळ
येवजण्यांनी
समजतात
अफजल
दुरुस्तीच्या
निःसंशयपणान
पोशण
मधुबनी
यात्रेकरुंक
व्यक्तिपरक
षटके
सोडलें
गंभीरताय
फ्युचर्स
भरिल्ली
मिस्त्री
म्युझिक
वकिलाच्या
सांगल्यात
१४८
आभासी
औपचारीकपणान
कायदेशीरता
जोडिल्लीं
दोतोराक
प्रतिवादीचेर
वापरली
वेवस्थापनांत
शिक्के
सुझुकीन
१८७२
नदरेंत
पर्रीकार
प्रायोजीत
लक्षण
व्हील
सर्कल
हक्काचें
हक्काच्या
हांगाचें
कायद्यांचो
चित्रीत
तंत्रगिन्यानाचो
तर्कसंगत
दलाली
फिल्माची
बदलपाची
वसणूक
हक्काक
१९४८
अपीलांक
आयएएफ
किम
पर्याया
रिपब्लीकन
रिमांडाचेर
व्हरतना
सांगण्या
अमीन
अविभाजीत
अहमदाबादः
कौल
क्वांटम
खणी
झटपट
तोंडार
नमुन्यांची
नोटरी
पावणी
पीएमएलए
पूर्वावलोकन
प्रमाणपत्रांत
बांदल्या
मोड
रुपयांत
वापरिल्ले
विक्रींतल्यान
विस्वासपात्रताय
शास्त्र
संघटनेची
सीएनजी
स्वरुपाचें
##ुर
##ेशन
अ१
कन्सल्टन्सी
घसरण
चीनांतल्या
जातीच्या
प्रॉपर्टी
फिलीप
भायली
मेळयता
वापरल्यार
##नाथ
खरोच
घडणुकां
थारले
निर्यातींत
पडचो
पीपीपी
बहिश्कार
वेवस्थे
शर्ट
सामान्यपणान
सैन्या
सोंपयतना
सोडचो
अनौपचारीक
आपोवपाची
आर्यन
उलयले
एक्सटॅ
कारणाचेर
गजर
घोटाळो
पेयां
फर्मान
मॅनेजर
रेशन
सिंगाचेर
हुंवारान
##ते
##लागीं
##ाल
अत्याधुनीक
अपघाताक
करप्यांक
कार्टुज
केंद्राच्या
खंडांत
जयशंकर
जितले
टिप्पणीं
डेल
दिग्दर्शित
नेहा
पदाचो
पाईचेर
वागप
व्ही१७
शिकपाक
शिमेभायर
हाताळपा
८५०
अस्वाभाविक
घृणास्पद
जबाबदारी
निर्देशक
पल्सर
बायलेचेर
वापरल्या
शोक
##तले
अमेररका
उदार
एसएमई
खटल्याचो
दिताली
प्रसंगाचेर
भरपायेच्या
मॅचींचे
रिमेक
लायटी
व्यक्त
सुओ
##गी
##सन
अलायन्स
गतीचो
जमात
नोंदीच्या
पार्सल
पिरायेचे
प्रजनन
माध्यमांक
मार्गांचेर
मुखेल्या
संरक्षणाची
##सान
गिरायकाक
जनेलां
न्यायाधीशाचो
पावतले
पोरणें
फटीचो
बदलता
बेसुमार
भरिल्लें
भूंयकांपाक
मजेशीर
मौलाना
रगताच्या
स्नायू
##ंड
##ें
अफाट
एअरलायन्स
एन्जेल्स
एलके
कॅनव्हास
क्रूरपणान
घालें
जाताली
ताचेकडेन
दर्याथरासावन
दर्यावेल्या
मुंडकार
सप्तकाचे
स्कूटर
हक्कांच्या
इंजिनियरिंग
उद्यम
ऊंस
कमान
क्रिया
खानाक
जिल्हे
धुकें
पार्टे
बाध्य
मायावती
मोगी
येवचो
रंगाची
रावताली
वाडोवपाचें
सवलतीन
सोडटा
हिताचे
हॉस्पिटलांतल्या
२२७
२७०
आंगां
आरपीसी
इंजिनाक
टँक
टीएमसी
तमिळनाडूच्या
दलाल
देंवपाची
दोंगुल्ल्यो
धावे
संवसारांतलें
सोनू
१११
अधिकाऱ्यांचो
कोणा
चक्रीवादळ
थारावची
पोती
भलायकेक
मुळांतूच
रोगप्रतिकार
वेवसायाची
सामान
सीता
##ीय
आर्ट
ऑक्सिजन
चांचणेंत
जिल्होधिकाऱ्यान
डान्स
नेट
पगाराची
प्रतिज्ञापत्रा
प्रिय
फरहान
रिणाचे
व्याख्येंत
अमेरिका
डीसी
न्यायालयांचो
न्हयकारपी
पगाराचे
प्रदेशा
भाजप
महंमद
लोड
वळखता
११६
४२०
औपचारिकताय
चलयेची
डिझायनर
तरुण
दर्जेदार
दाळ
देशांतलें
धाडलें
निर्णयान
बांदपाचो
मापन
म्हण
रिणाचेर
विमानन
शेक
संचांत
सुपरन्युएशनाची
सोडटले
स्वरुपाक
##यन
अधिसुचोवण्यो
आरोपां
गुप्तताय
यादवाक
वाचनांतल्यान
सीसीटीव्ही
##ीत
##्यां
अधिसुचोवणेच्या
इटली
एकचार
कलाकारां
गुडगांव
घालची
तळाचेर
नितीमत्ता
नोकर
पदांची
पांयाच्या
बल्क
वस्तुनिश्ठ
वेव्हाराच्या
स्टेज
हॉटेलां
१३२
अनुसुचींत
आडावपाची
एमएफ
कल्याणकारी
कार्यकर्तो
गियरबॉक्स
टेलर
दहशतवाद्यांनी
दोळ्यांनी
नांवा
पंगडाचे
पदाची
भुरग्या
महामारीक
वायुसेनेच्या
सादरीकरणाक
सूत्रान
हुवावे
##गांव
##मी
आसामांत
उगडपाक
उलोवपाची
करिअर
कार्यावळींचो
चकमकींत
टर्बो
दारांत
नया
नीरव
प्रधानमंत्रीपदाचो
महमूद
रघुराम
रावूं
लाइट
लिस्ट
वस्तूंचेर
संस्थेचे
स्टुडिओ
अमृतसर
अविस्वास
एमएसपी
कंत्राटाचो
काळांतली
कॅडरांत
केजी
धर्मनिरपेक्ष
बडोदा
बरोवपाक
मारपा
रकमे
ल्हार
सावंत
अपग्रेड
एमआय
कटिबंधीय
खावपाक
गुंतागुंत
गोल्फ
डीडब्ल्यू१
निबंद
निर्मात्या
फुडाराच्या
भेटवस्तू
मेटल
रजिस्ट्रार
वसीम
वेवसायाक
१३७
१४३
##ेचें
अमेररकी
आशियांत
इव्हेंट
एमसीएक्स
गार्ड
चित्रांत
जौहर
तत्वांच्या
ताळयो
थारलें
नेमाक
प्रकाशीत
मात्तूय
वाडयतले
विकसनशील
सुशीलकुमार
सेलिब्रिटी
उद्देगांक
एंगल्स
एफएमसीजी
कलेक्टरान
चारय
थारना
न्यायालया
फूड
सक्तीचो
साहित्यांतल्यान
१६१
अपार्टमेंट
आयिल्ल्याचो
कोरांतून
झुजपाक
नबी
निर्मात्यांक
पुराव्याक
बरयिल्ल्यान
बापायचो
मागलां
वंश
वर्धापन
शारांतलें
संघटनेन
##गा
आयोगाचो
एचसीएल
खंडपिठाचो
जीओएम
जॉन्सन
दिसाची
धोरणाची
नाणीं
बुडून
भिंग
राजान
राज्यांतलें
लिपून
वारें
सनरायझर्स
हेंच
##वान
अधिवक्ता
कुस्तीगीर
दीसभर
देयदारी
पडटलीं
प्रसंगवश
फायली
बियर
बुराक
बौध्दिक
भेटीचेर
रेखांकित
लि
विषम
शैलींत
स्फोटांत
हैदराबादच्या
अब्राहम
आख्यायिक
आनुवंशिक
इन्फोटेनमेंट
क्विंटल
तालुका
पूनम
प्रमोद
मोतीलाल
रेसिंग
लायिल्ल्यान
वयलें
वादविवाद
विभागाचो
विश्लेशणा
श्रीलंकेचो
##तल्या
इंट्रा
एमबीबीएस
काली
कोनशाक
घोशणां
चवकशेचो
चॅटर्जी
पुनर्मूल्यांकन
बहादुर
बाजारपेठेचेर
भाशेंतल्यान
मॅचीच्या
येवजणेचेर
राज्यकर्तो
वकीलान
वसीयताची
विक्रीची
व्हिक्टोरिया
सारकेंपण
सॅन
सोदतां
##रे
अक्षर
उतार
एमओ
जिविताचेर
जीटी
तोंकाक
पद्दतीक
पृथ्वी
पॉप
प्रोग्राम
बरयल्ले
रुपयाचें
वकिलांनी
विद्यापिठां
सोळाव्या
११७
उगम
कळावाक
काप
काश्मीराक
खेळ्ळे
चरबी
पीएमएल
प्रतिकृती
प्रतिबंधीत
वळेरेंतल्यान
वीस
समाचार
सहानुभूती
सोव्हिएत
स्टेशनाक
१३९
अविश्वास
आचार्य
कुंबले
कोमुनिदादीच्या
खानान
झुज
ड्रोन
तज्ञांच्या
नियोक्तो
प्रदेशांनी
बलात्काराच्या
बापायची
यांच्या
येणावळीच्या
संबंदाक
१२७
१६५
अर्जांतल्यान
आरटीआय
एनएसईएल
कळोवंक
जुंव्यांचेर
ट्रस्टाच्या
थारिल्ल्या
देगणांतल्या
पुण्यांत
फारूक
बहुराष्ट्रीय
भोंवडेच्या
मनमानीपणान
महाराजा
मांस
मिर्झा
मेळनाशिल्लो
व्याजाचो
शिक्षणाच्या
संकेतथळ
सेवकाक
हाताळटना
अभियोगाची
उत्तराखंडांत
घेवपासारकी
पडदो
बादल
मीना
लायता
वेवसायाचेर
सगली
१९५३
खेळिल्ल्या
गरजांक
दोंगरा
निधीची
मानचो
मेळयल्लें
वाठाराच्या
विकी
साहसी
स्टुअर्ट
हुंपून
२६०
अधिकाऱ्याचो
आरोपाचेर
एमसी
कशीं
क्रमांकान
खरीफ
खसरा
चलत
ताज
त्रैमासिक
धाडपाचो
बरयल्लीं
बायलेचो
भरत
मेघ
शूटर
संरक्षित
संरचना
सादे
##ंद
##ींग
आलम
दुबळे
भागीदारांक
मोडण
राखी
विधानसभेच्या
शर्माक
शस्त्रांचो
श्रीनिवास
सन्स
सांबाळ्ळें
सिंगल
हांगाच
हुजाची
##वर
उबारल्यांत
एपिसोडांत
एसए
ऑफिसर
गप्पा
जोडटले
परिशदेच्या
ब्रँडा
भागोवपा
वास्तवीक
सादो
आपोवपाचो
आरबीआयचे
आस्पावपी
और
गोरवां
घराची
डिसेंबराच्या
ताचोच
परिक्षेचो
परिच्छेदांत
पिंक
पुनरुज्जीवन
प्रक्रियेक
मागपाचो
मेकळी
रशियेचो
रायड
वादळ
समाजाचो
सुटसुटीत
उपाध्याय
काळाची
क्रिकेटांतल्यान
जीआर
झगड्या
तरतुदीचें
थळां
दिल
देशहित
नखेत्र
पाचवो
पावसाचो
प्रमाणांतल्या
प्रशासनाच्या
फुडाऱ्याक
फोर्स
विद्यापिठाचो
संयोगान
साधनांचो
२०१
अमेरिकी
असोसिएशनान
आम्ल
आयओन
उत्पादनाचेर
उरपी
कामगारांची
कावासाकी
गुप्तपणान
ग्लेन
जाणांचेर
जॉनी
तळ्यांत
धांवपळ
पाळून
भूंयगत
विधीमंडळाक
शिया
सभ्य
सांठोवन
हक्कां
##को
##ेज
आयचो
कागदाचेर
गोदरेज
घालचो
घोटाळ्या
जातल्यो
झॅड
तिहार
दशका
निंदा
न्यायाधीशांनी
प्रकरणांच्या
फर्नांडीस
भरपाचो
मेगास्टार
रिपोर्टर
रेनो
लागलें
लोकसंख्येच्या
वाठारांतले
सांबाळप
स्पिरिट
अजापाची
ऑपरेटर
कराराच्यो
कार्यावळींतल्यान
जवानांक
जोडलो
तितलोच
नागालँड
नासप
पळयल्ली
फ्री
मंत्रालयांत
मनी
वसंत
सचीवाक
स्पॅनिश
हस्तांतरित
##पाक
कसलोय
क्रमीक
क्लस्टर
गवायेक
गुन्यांवाचेर
चॉपर
दिसांतल्यान
देवळाचें
निरोप
मांडूं
रघुनाथ
राश्ट्रांनी
लिलावांत
सोंपले
स्वरुपाचे
८५५
##ेश
आरोपींचेर
ईडन
उडयतले
उरी
एससीआर
खर्चाक
चलयांक
जोडप्यान
परिस्थितीचें
पळयल्लो
बदनाम
मनु
वेव्हाराचेर
स्पेसिफिकेशन्स
##ाय
##ीस
अपात्रताय
अपीलदाराचें
आयकलो
एक्स्पोंत
कायद्यांक
खंडणी
गांधीचो
जन
झोपडपट्टी
निर्दिश्ट
नुस्तेमारी
पेट्रोलाचे
प्रशासना
वेवस्थीतपणान
शाराचे
सौरभ
होय
अर्थशास्त्र
एअरबॅग
कक्ष
कॉलोनी
टेप
दवरिल्लो
धरता
पीडब्ल्यू१२
फोटोग्राफी
भ्रश्ट
मंगल
मिक्स
राऊत
विभागान
शेअरधारकांक
१५५
३२०
##बाई
##शी
काँग्रेसींत
काका
कार्यवाहीचो
जाट
देओल
धारदार
प्रस्नांची
भाजी
रसायनां
शुभ
स्कॅन
हळुवार
अभिनीत
अर्दो
उदेंतेवटेन
काश्मीराचे
ग्लास
पुलिसांची
भारतभर
म्हणटले
लॉर्डशिपांनी
व्हरतले
संसदेचें
हाचेवयल्यान
उक्तायिल्ली
एकुणिसाव्या
करपाचोय
चार्ल्स
जम्मूः
निश्र्चित
नीतू
पुल
रिचर्ड
विभागाचे
वेपारा
शिवाजी
संघर्शांत
१५४
अवतार
अहमदाबादांत
उत्पन्नाचेर
एनएच
कागाळीची
गटांनी
गैरवेव्हार
ग्रॅम
दाखोवचें
नवाब
पंचायतीच्या
पिशें
बरेंच
मुंबयंतल्या
लायले
स्वताचेर
स्वभाव
हातूंतल्यान
१९५
##रिया
अर्थसंकल्पा
अशक्त
करप्यान
कीटकनाशक
घडणुकेचेर
जनावरांक
पयशांचे
पयसुल्ल्यान
पिडेस्त
फिल्मां
फेज
रांदचे
वजनाच्या
शिक्को
हल्लेखोर
हातूंतले
१३४
आताक
आसलीं
उत्सवांत
उलोवपाचो
घडणुकेचे
चलतालो
जोडपाचो
धाडस
नागरिकाक
पगारांत
पुर्विल्लें
भावाच्या
मध्यस्थ
मॉडेलाची
यूजीसी
लंडनः
लांकूड
श्रीकांत
स्थानक
हुबली
३६०
३९०
अध्यक्षतेखाला
आंगांत
आयटीआर
चित्रांनी
जाणांची
थारायल्लो
दुर्भावना
देशमुख
फायबर
फायलींनी
बारीकसाणीन
भरप
भलायकेवंत
मंचा
वाडलें
साहा
सिडनी
सृजनशील
हुड्डा
##ेचे
ईयर
ऑफिसांत
काबार
खुबूच
चॅम्पियनशीप
दिल्लीची
नवोदित
प्रधानमंत्रीपदाचे
भोजपुरी
मांडल्यांत
मेंदू
रमन
वापरप्यां
विंग
विद्यार्थ्याक
श्रेणीबध्द
समृध्दी
अर्क
एसके
गहलोत
गूणांक
ज्येश्ठ
धाडटा
पर्यायान
पाळटात
फर्माक
फोडून
बशींत
मानव
म्हायतीचेर
वस्तूंचे
सल्ला
आर्य
उमेदवाराची
चरित्र
छप्पर
तरतुदीक
नक्सल
नुतनीकरण
न्हयकारपा
फरमानाच्या
मेलबर्न
विरोधकांनी
हाड
हिलेरी
२२५
अमूर्त
कादंबरी
कॅम्पस
गडबड
तपासात
दवरिल्ले
दोतोरा
नरसिंह
पळोवपाचें
पुरस्कर्ते
बदलपाचो
भौसा
राष्ट्रांच्या
वापराचेर
विंडिंग
वितरीत
वेवसायांक
हानीकारक
अकबर
अनवळखीपणान
अपक्ष
कंपनींची
चलोवन
दिसताली
पिवपाच्या
फाटलें
मोडलो
विमानतळा
संचालनालय
संस्थांचो
सरप
अपुर्ण
आयसीसीन
कामार
गेल्या
गोगोई
जुंव्याचेर
झलक
तटस्थ
तत्वीक
नानक
बंदखणींतल्या
येवजण्यां
विद्यार्थ्यांची
वेवस्थापनाच्या
श्रेश्ठ
संकेतथळा
साहस
सुरक्षेची
हाचेरय
##वाला
अपघाता
उडयल्लो
केअर
गिरणी
ग्रांड
जीएमआर
टोन
ट्रेंट
डंपिंग
डेरिव्हेटिव्ह
ड्रायव्हिंग
धोक्याचे
नंद
नेपाळी
प्रकल्पाची
प्रक्षेपित
प्रोडक्शन
बायलांचें
भाजीपालो
मंडळां
मालमत्तेंतल्यान
रा
रिणकार
वाचपाक
विभागांनी
वेळापत्रकांत
व्याप्त
हुंवाराच्या
##वाल
अलर्ट
एंड
कंपनींचें
कायमचे
घाल्लीं
घेवपाचेर
जांवय
डीएमके
थांबून
थारावपाचें
देखरेखीच्या
निर्णयाचें
न्हयकारपाचो
पाचवी
मरणाचें
मैदानांत
म्हयन्यांतल्या
लोकस
हिंडाल्को
हेन्री
अनु
आयएनएस
आयोगाची
उदरगतीची
उरतलें
कॅरी
खाद्य
खेळून
छत्तीसगडांत
टाईम
देशान
नियमना
पत्राक
फटीची
भोवमतान
मुखेलीपण
युनिटांक
योग्यतायेन
रचनात्मक
राजाक
लेखांत
वाडयल्यात
विकार
शाहाक
सुटयेचो
हक्कांक
अडेज
अपोलो
आव्हानांक
उपक्रमांत
उरपाक
जिनपिंग
झाड
ट्रेडिंग
दोळ्यांचो
धर्मेंद्र
निरपराधीपण
पक्षपाती
बॉलिवूडांतल्या
मुख्यालय
मोगल
रिणांचो
रुंदाय
रुपयाच्या
लवचीक
लार्सन
लिंक
व्यापून
स्त्रोतां
हाताचो
१५८
अनुसुचीच्या
अमेरिकेक
उणोच
उत्पादकता
एटीएम
कण
करुंक
जनगणना
जीओ
नियंत्रकान
नेहवाल
पक्षांतल्यान
पात्रां
पिठो
पॅनलांत
फिल्माक
फिल्म्स
लोकांचे
विधीमंडळाच्या
सल्ल्यान
सिंह
सेस
हॉलीवूड
##तलो
##ांतलें
असमर्थताय
आवृत्तीच्या
कळटलें
काळार
खेळप
जीए
नग्न
पातळ्ळा
प्रमाणपत्रा
भीम
रवि
विवेकबुद्दीच्या
विव्हो
सरना
३२जीबी
अझहर
अधिकाराक
अन्ना
इंजिनान
गोल्डन
जुळपी
त्यागी
देंवपाक
न्यूझीलंडान
पाठक
पार्टीचे
पावपाचो
फोटोंत
माईक
लेन्स
शेल
संवादांतल्यान
सामकेच
सूरज
सोदना
१६२
अध्यक्षा
अर्पण
करीनात
काडलें
कृष्णा
जुडिकेटा
धांवड्यांच्या
निर्मल
पुण्यांतल्या
प्रभु
बदलप
बऱ्यो
भितरली
लग्नांत
स्लॉट
हवेंत
१३६
इतिहासांतलो
एमएसएमई
एसआरएच
एससीए
कमला
काडपी
काळापयलीं
कॅमियो
कैदी
जेवणांत
दर्याच्या
देवीन
निवडक
निशाणो
फिल्मफेयर
मेरेनची
वाडीक
संयुग
१९५४
उदरनिर्वाह
उद्देगांतल्या
करप्याक
कोचर
चौकोनीपणान
ट्रस्टी
नियाळांत
निळ्या
प्लॅनांत
फरमानाक
मनशांक
यंत्रीक
युनिटांत
रॉकेट
लायन्स
वाठारांतली
विनंतीचेर
७टी
अर्जांचेर
आयकलां
आसामांतल्या
इंग्लंडांतल्या
करतारपूर
गांजा
जॅकी
नांवाचे
प्रिन्स
भाशेचो
मिडियाक
रिजल्ट
लद्दाखांतल्या
वायव्येक
विशींचो
संघा
समाजाची
सलीम
सुकी
१९४९
६०००
आपयल्या
इस्लामाबाद
कल्याणा
कौशिक
गुंतागुंतीच्या
घरांक
घाट
जावपाचीं
झिंबाब्वे
थारावचे
देखावो
न्यायाधिकरणान
पक्षांचें
परिणामाक
पावलें
फाय
बांदकामा
भोंवडेकार
मि
मेनन
म्हणसर
युसुफ
रु
वेवसायाचे
समानताय
सूफी
हिमालयाच्या
आश्रम
उगडलें
एसएस
कश्यप
क्वा
गुणधर्म
चीनाची
जीएम
तरतुदींची
परिपक्व
फाटीर
भोग
मांडून
मालकीची
राज्याचेर
रितेश
लोकसभेन
लोगो
वाडदिसाच्या
वेल्स
संविधानांतल्या
सुवाळ्या
सो
स्टोक्स
स्थितीचेर
हांग्कांग
##्री
अभावांत
अस्वस्थताय
आय२०
एओ
कोरीव
चोरून
जोडल्यात
झारखंडांतल्या
डिस्नी
तंतू
दंत
पावसाची
पावूं
बशींतल्यान
वाटावपा
सभापती
##ही
उत्पन्नाचें
कामगिरीचो
कारणाचो
काळाप्रमाण
कुलूप
खेळ्ळी
गांगुलीन
जनजाति
जोहर
टोकियो
पगाराचेर
पृथ्वीराज
प्रवाशांची
मनयलो
यो
वागणुकेक
वाचल्ल्या
विस्तारा
वेपाराच्या
व्लादिमीर
सक्सेना
समावेशक
सर्वेक्षणांतल्यान
सारण
सेवांच्या
आयोजन
उदकान
एसआर
ओबेरॉय
औंस
कॉरिडोर
खानाची
गणितीय
घाल्यात
जपानांत
फटाके
बदलल्या
युनिटेक
योगेश
लायिल्लें
वर्सभर
वस्तूंचें
वाडदिसाचीं
विचारले
वेपाऱ्यांनी
हुशार
१९४०
अस्पश्टताय
आयदनां
ओव्हरीं
ओसीसी
कान
खाशेलीं
गोस्वामी
तपासपा
ध्वनी
न्यायाची
पावतली
बीपीसीएल
भागवत
वंशज
वनडेंत
विजेती
सीपी
अँड्र्यू
अनुपम
एकसारको
चवकशेंतल्यान
थारतात
दवरतलो
दुख्खान
परिच्छेदांनी
बसपाक
बाउंड्री
महाराष्ट्राच्या
वागचें
वाहनांत
विक्रेत्याच्या
शिकून
सिंगापूरांत
हरि
##सीसी
अझीज
आवयचो
इंडियाक
किरिस्तांव
कोव्हिड
गुंतला
जातूंतल्यान
टूर
धारकाक
निरोगी
पांवड्यावेले
पालकांक
बँकांचे
बांदपाच्या
बॉक्सिंग
भागांचेर
मागले
युनिटा
राजधानींतल्या
ल्हानशी
सांबाळपी
सोंपपा
हेल्थ
अंकिता
अपीलदारांचे
आरक्षणाची
इक्विटींत
उमेदवाराच्या
एचआर
काठी
गवायांत
जयपुर
जॅगॉर
तपासाच्या
दस्तावेजाच्या
धोनीच्या
नॅनो
बदलूं
संघटणेच्या
सीबीआयचो
सेझ
हाडिल्ले
हातांनी
५५५
अवस्था
कर्नाटकाचे
कावेरी
दाखयले
देंवपी
निवासस्थाना
पर्ल
प्रवाहांत
मुजरत
मेळटल्यो
याचिकादारांचो
युके
योग्यताये
वॉटसन
सीएनएक्स
सीतारामन
हाडटलो
हाणेंय
कामगिरीची
दूरचित्रवाणीचेर
पळोवचो
वर्सांची
वाडयतात
स्मार्टफोनाच्या
##ाकडेन
अध्यायांत
आन्येक
आपणावंक
उक्त्यो
उगडपाची
उद्दिश्ट
कॅपिटल्स
खात्याचें
खेरीज
थायलंड
दिसाळ्यान
बात
युरोपांतल्या
वाठाराचेर
विशेश
वेफ
सिक्वेल
सिरिया
सैनी
हाडां
##हा
अरेबिया
कारखाने
क्रॅश
गोपाळ
चिप
जल्मल्ल्या
धरपाचो
धर्माच्या
धोनीक
पडटल्यो
प्लेसमेंट
फाव
फॉलोअर्स
भाटिया
भोवतेक
भौसाच्या
महादेव
म्हायतीच्या
रॅलींक
हाताळपाची
हिल
अरुंद
इश्टांक
कुणाल
कुलकर्णी
कृतीचेर
चावला
छापून
टिकून
ट्रेकिंग
डोस
तपकिरी
थारायल्यार
पराक्रम
पुनरावृत्ती
बसकेची
मरणाचो
मागपाची
रोहन
सहवाग
२८०
उपनगरांतल्या
घडलां
तरणाट्यां
दाव्यांक
नखेत्रां
पॅरिस
प्रक्रियेंतल्यान
प्रयोगशाळेंत
प्लेट
भगत
माओवादी
मुंबयचो
राधे
रावल्या
वादांचो
व्हिडियोचेर
सवो
सोसायटीन
३३०
##जा
आग्रा
आसनां
कार्यवाह
कुरैशी
केके
चलोवपाच्या
जबरदस्ती
जातींच्या
तत्वगिन्यान
नीट
प्रदेशांतल्यान
फिंच
बच्चनान
बजेट
भागाच्या
येत
सामक्या
हँडसेट
हळडुव्या
हेरांच्या
##ोर
आपल्याच
उदकाचें
ओसवाल
कॉलिन
कोस्ट
गजालींच्या
गोदावरी
गोयलान
घडणुकांची
जंक्शन
झगडटा
डीएनएच्या
डु
थारल्यार
दीन
नाजूक
पटनायक
पत्रान
मारपाच्या
मुक्तपणान
मेघालय
मेरठ
राजौरी
लागलीं
वर्गाची
सांबाळपाची
साहित्यीक
सिरीज
हायवे
हॅरी
आंगणांत
आपणायिल्ली
उंचेलो
कार्यात्मक
कौशल
घेवपासारके
दवरपाचे
दिसपट्टो
धर्तरेचेर
धूम्रपान
न्हिदिल्लो
बळग्यार
मेजतात
म्हामार्गाचेर
रेसिडेन्सी
वळीक
वेदांत
संघटणेक
समृध्द
सिंधु
सुनीता
सुहाना
स्पर्धा
स्वयंचलीत
हैदराबादांतल्या
७२०
अनुयायी
केमिकल
कॉलिंग
गुन्यांवांच्या
घालतना
जापो
तेंदुलकार
दुख्खद
पाकिस्तानाचेर
पॅट
बाजूक
बाराबर
बॉलाचेर
भरिल्ले
माधुरी
येणावळीचो
रायडर
रूमांत
वागता
वायु
विल्यमसन
विशींय
हरियाणाचो
हल्ल्याच्या
##ीचो
अमृता
अर्थवेवस्थे
अॅव्हरमेंट
उबारचीं
ऑक्सफर्ड
कोलेटरल
खेर
दवरतना
धाडप
नळ
प्रतिबिंब
प्रायस
बायपास
भासो
म्हजीं
म्हणटलो
रियाज
रॅपिड
शीर्षका
सारकिल्ल्या
स्केल
स्कॉट
स्टीफन
६९९
आकारांत
एमए
कियारा
खंयच्यान
खेळटालो
जगन्नाथ
जमनीवयल्या
जोडपा
डी१
दिसाळें
धीर
न्हयकारूं
पळोवपाच्या
पीके
पेटी
प्रवासांत
बियो
मतांचो
मोहल्ला
लागींचें
लावपाचें
व्हॅट
संकल्प
संजू
हँडलाचेर
हस्तक्षेपा
आडायला
आयओसी
ओएसक्रमांक
कडेक
काडयो
काळजीपूर्वक
काश्मीरा
खेळ्ळ्यात
जुळ्या
ट्रॉफींत
धांवपी
नाट्य
निधनाचेर
पुनर्विलोकनाच्या
प्रक्रिये
बेदी
मतदानांत
शिमेच्या
संरक्षणाक
सुसेग
हातबरप
##डब्ल्यू
##सर
30
आडावपाक
आयकलें
उदरगतीचो
उलयताले
एस२१
कारखान्याच्या
कार्यकर्त्यां
कुस्ती
गैरसमज
चॅम्पियनशिपांत
चेन्नयच्या
जखमेक
टचस्क्रीन
पीपी
प्रतिज्ञा
भागांतल्या
मंत्रीमंडळांत
मधु
मिनटांनी
म्हयन्याळी
युवा
रोहतास
विशिश्टपणान
सक्रीयपणान
सत्यम
सर्किट
सल्ल्या
स्काय
स्थितीचो
स्मिथान
हॅरियर
३०००
अश्वनी
आपल्यो
उत्पादनांच्या
उदकाचे
ऋषी
काडचे
क्लीन
ज्ञान
ड्युटीचेर
तज्ञताय
निश्कर्शांत
पिच
पीएनबी
प्रदर्शनां
प्राधिकरणाचे
फ्युचर
बाळगून
बीघा
बीजिंगः
मीर
मुल्यां
रसेल
ल्हारां
वर्मान
विद्यापिठाचे
विमानांक
सुन्नी
हस्तक्षेपाक
हातूंतय
२१०
##ाई
आफ्रिकेक
आवडटलें
चंदन
जाणांच्या
जोस
दे
नेमपाचो
पेरणी
बॅग
मरणाउपरांत
मालकांनी
मेळोवपाचे
म्हाविद्यालयाच्या
रेशे
लागण
वांटेकार
विद्यापिठ
शाराची
श्रीनगरांत
साहित्यांत
असुविधा
कांदो
कामाचेर
घराक
घेवप्यांक
चरण
चोपडान
जहाजां
टेलिकॉम
ड्रायव्हराक
धवें
निपक्षपाती
नौदलाच्या
प्रयोगशाळा
बदलाचो
बांका
बांय
बॉबी
संस्थेची
सोंपेंपणान
१२९
##ॉन
अमेरिकेंतल्यान
आशुतोष
इतलीं
चंद्रशेखर
डीन
थारावांत
दिसाळ्यांत
नॅथन
पावप
पुराव्यांवरवीं
बरयता
बांगलादेशाचो
भोगची
मान्यतायेन
मामाचो
मालकीचो
मेट
रेंजांत
रेल्वेक
लायिल्ली
सुदारल्या
स्वातंत्र्याच्या
१७२
##देव
10
असीम
आयरन
उरफाटो
एकता
एजन्सीनी
कटक
कोरियाच्या
गौरी
चालान
जाणां
जिल्ह्याचें
धाडचो
धाडपा
धोरणांतल्यान
नवजोत
निशेधा
फाटली
बाजारपेठेच्या
मिश्रण
मुद्द्यांचेर
मॅंडमस
मोटू
वाठाराची
वावराची
विकूंक
समवर्ती
सारकेपणाचेर
हमीद
##भर
अटिकावू
आसपाचो
उत्पादनांचो
उस्वास
ऑस्कर
कलाकारांक
काळजा
कुडीचो
गाडयेन
चावी
जावडेकार
जेईई
पेय
फर्मांनी
बदलत
रुप्याच्या
रॉबिन
वाडयले
स्लिप
हत्ती
##क्स
अभिनेत्याक
अर्जदाराची
आपयलें
उपकारी
एमएलसी
एम्स
कुटुंबांतलो
कृतीची
क्रमवार
खानाचो
घडणुकांच्या
चलयेचो
तळाक
थोडी
नेमाची
पंजाबाचे
पडल्यो
पोल
पोलो
प्रत्यर्पण
बीं
संविधानान
सदां
स्टोरी
##ंतलो
##चोय
अटींच्या
अभियंत्यान
अमरनाथ
इज
एजन्सींक
एजन्सींतल्यान
करप्यां
कायद्याप्रमाण
गुड
तपासपाक
थ्रोबॅक
पृश्ठभागाचेर
प्रशासनांत
फांटे
बांगलादेशाच्या
बापायचें
मानतां
लव
विरोधकांक
शिक्षणांत
शेअरांची
शेहनाज
संयोजन
सेंटरांत
हारली
३४०
असोसिएट्स
आंगांचेर
आकाश
आयटीएटीन
आवयची
उलोवपांत
एफएम
करांतल्यान
कागदपत्रांतल्यान
खालिद
जिम
टाळपाक
दिसनात
दुखप
पाई
प्रतिभावान
बादा
बिपिन
बुलियन
बॅकअप
भंयकर
युनिलीव्हर
राखपा
रिकॉल
वाचवपा
विद्यापिठा
विधानाची
विश्वस्त
संरक्षणाच्या
सभाघर
सोडची
##वार
आदारिल्लें
आपयतात
आयकले
उपकरण
एरिया
गाळी
चारा
तपासूंक
धरपा
नामनेक
नाममात्र
निरिक्षणाक
नोव्हेंबराच्या
पद्दतशीर
परिशदेन
पाटणाच्या
प्रदेशांतले
प्रॉव्हिडंट
बँकेचें
बीसीसीआयचो
मेळटाले
युट्युब
रिणाकाराक
वराक
शेंकड्यांतल्या
संविधानाचो
१६६
##टन
अधिकाऱ्यांचेर
इंडेक्स
किलोक
क्ष
जेवणाची
जैविक
धुल्ल
निश्ठावान
बसपाची
बारांत
भुरग्याचो
मध्यमवर्गीय
मुळाव्यो
लुधियाना
वस्तूक
वानखेडे
वापरलो
वितरक
सणाच्या
##डे
अँडरसन
अल्प
आस्वाद
इंजेक्शन
इंडो
उरफाट्या
एसडी
कसलेंय
छातीचेर
दवरतली
निरिक्षणांचो
निर्दोश
नेमणुकेची
परतले
पुरस्काराक
प्रशासनाक
फातराचेर
बंगालच्या
बेकार
मजती
मनाच्या
मुखेल्याक
मोशन
म्हणणें
वर्गाचो
वेंचणुकेक
सज्जन
सीआरएल
##कुमार
##जे
##यर
अधिवेशनाच्या
उंचेली
उप्रासतात
उलयलो
खेळांतल्यान
गाडयांची
चलयेचें
जीएस
प्रकरणाचें
ब्लॉकबस्टर
मटेरियल
राजस्थानाच्या
लायल्यात
वेगवेगळ्यो
शिवाक
संशोधकांनी
सचीवा
सुदारपाची
सेठ
सोयरो
६६२
६७५
अपंग
उत्सवा
कपांत
कॅब
गुन्यांवांचे
चलयां
जनावरांच्या
तिरुवनंतपुरम
दिसतालो
निवासस्थानाचेर
पयशांचें
परब
पुरस्काराच्या
बाबर
बेबी
माध्यमांच्या
रचलां
वर्गांतले
वर्गांतल्यान
वाचलां
व्हिडियोकॉन
शक्ति
शांघाय
शेतकारांची
१९९
अधिकारांत
खंयचीं
खेळाचो
घालपाचें
जातीचो
दाखयल्लो
देवाच्या
नॉक
पळयल्लें
पुनर्बांदणी
प्रतिज्ञापत्राचेर
बांदपाचें
मदल्यान
मारची
रिपोर्ट
विचारांक
सूज
हिजबुल
१४६
आकांक्षी
उद्देगाच्या
कार्डाच्या
कॉन्फरन्सिंगांतल्यान
गांधीनगर
घेवं
जम्मूच्या
डीजी
निर्णयांनी
प्रकारांनी
बाजारांतलें
लुकसाणा
लोकांखातीर
वेव्हाराक
संदर्भित
संसर्गजन्य
सुगम
हिंसाचाराच्या
१६७
##्याक
आयकली
इकराव्या
उबारपाची
उमा
उमाशेच्या
कमोडिटी
काडपाचें
काळजांत
कूली
क्षेत्रां
चलो
डॅनियल
दलाचे
नुस्तेमारांक
पोरने
फर्निचर
भितरलो
मर्यादेच्या
महाजन
मुक्ती
मेळनाशिल्ली
शॉन
सोळा
१८२
##ियम
आसपाव
एनडीआरएफ
कमलेश
चतुर्वेदी
जरदारी
डायरींत
तत्वाक
नमन
नम्र
नानावती
नैऋत्येक
नॉट
पानाचेर
पीसीआर
पोतयो
फेब्रुवारीच्या
फेस
बॉय
रगतांत
वापरचे
वेद
व्यक्तीचो
शिकले
शॉ
संस्थे
सर्विस
१३१
१८५
##विशींच्या
##ि
अस्थिर
आंबेडकर
आशेन
केंद्रांतल्या
कोशिका
गरीबांक
घेतिल्ल्याचें
घेराव
जयप्रकाश
ठाणे
दडपशाय
नकाशे
पंदराव्या
प्रकरणांतलीं
बांदला
मुस्लिम
रामविलास
व्हरपाखातीर
शोच्या
सुरवातीक
हय
हाडपाचें
हाडल्यार
३०४
##मान
##्याच्या
आयोजक
इंडियाची
इश्टांचो
उजवो
उडून
उस्मान
काळाच्या
कृति
कृत्यांक
केल्ल्याचेर
खात्यां
खासदारांक
गुन्यांवकारपणाची
ट्रायल
डेस्कः
ताहिर
तितलीच
दयाळ
दादल्यां
पळोवया
पांचवी
बांगलादेशा
युएई
वगडावणी
वादाचे
विकासा
सुमन
सेवेचो
१६४
१७७
##ात
##ोल
अॅडम
आपणायली
आरपीएमचेर
आस्थापन
इतिहासकार
उजवाडांत
उद्दिश्टां
एकसारकी
एनआय
ओव्हरसीज
कागदी
कैद्यांक
खाटीर
घुंवपी
तिचीं
पाउंड
पाळप
फिल्मांनी
भाजपाचेर
मारूंक
रिणान
वर्साच
विश्वनाथ
वेगळेचारवादी
समाधानाक
सोपणां
स्वरुपाच्या
हाचीं
३७६
४८२
४९८
अनुदानीत
उक्तायता
कॅप्शन
कोर्स
घडयल्ल्या
चित्रपटाची
जाणवता
तिलक
दुयेंतीच्या
नागरिकांच्या
पुरातत्वीय
प्ले
बरोबरीचेर
मर्यादेंत
माधव
वर्गाक
वादीचें
वैज
समाजान
हस्तक्षेपाची
हायस्कुल
१६००
२०३
२४५
३१३
##ाम
##ीची
आंतरराज्य
आरोपाच्या
आस्पावना
उतराची
उदारमतवादी
एज
एटी
ओए
कार्यवाहीचेर
ग्रिल
घुंवता
जूट
तरतुदींतल्यान
दुदाचे
दुबयंत
निर्णयांची
निवेदनाचो
नेटवर्किंग
पडटाली
पडूंक
बॅट
वैशाली
साक्षीदाराचें
सिमेंट
सीएस
१५६
८६५
##तली
उडोवचो
एनओसी
काळी
कुक
जयपूरः
जाग्यांतल्यान
जापसालदारक्यो
तकलेर
थोडें
देवळ
पडटालें
पार्वती
पोस्टांत
प्रभार
बर्थ
महावीर
रक्कमेची
लीन
लोकहिताक
वापरप्याक
वेबसायटी
व्यक्तींचें
व्हिएतनाम
संघांतल्या
संपर्कांतल्यान
सरपंच
सांबाळिल्ल्या
सोडला
स्पीड
९५०
##्ली
अफगाणिस्तानांतल्या
आपापल्या
एएमटी
एट
एडवर्ड
कडू
गिरीश
गोपुर
जावडेकर
जिखूंक
डावन
तरांचे
थांबयली
दळाक
धांवड्यां
पबजी
प्रासंगिकता
बांगलादेशांत
मुकुल
राज्यपालान
वायदा
संघटनेचें
समुपदेशन
सवलतीचो
सीताराम
हारोवन
५०००एमएएच
##ियस
अंकित
एकसुरे
खोंकली
गवायांतल्यान
चंडीगढः
चंद्राच्या
चालीत
चिन्नाच्या
डिलरशिप
न्हंयांत
पावसाळी
बाला
बासू
ब्रायन
मुजतवाड
रोजगारा
व्हॉयस
समजुती
समस्तीपूर
सामनो
स्वरुपाचीं
हांचेखातीर
हालचाली
१५७
##पुरी
अनिता
आभार
आवृत्तीक
इन्फ्रा
एआय
एसआयटी
कमांडर
टीव्हीचेर
तथ्यांचे
तपासांत
तळीं
दरांक
धरले
निर्देशां
प्रतिदावो
बोर्डाचेर
राज्यांतली
लावपाचे
वाटपाच्या
विक्रेत्यांनी
सांगपा
हल्ल्याक
हांचीय
२जीबी
अनियमीत
अशरफ
अॅसेट
आपयल्ल्या
एलिझाबेथ
एसएलपी
कोयंबटूर
क्लबांत
गार्डन
घालचे
निवडी
भक्तांक
भागधारक
मतांच्या
मांडपाची
मित्र
म्हणपाचें
लावचे
वचतलें
विसरूंक
व्हायट
शाही
सुख
सोंपपाचो
सोंसपाक
हॉटेल्स
३०६
##्साच्या
अन्यायकारक
उदरगतींत
उदरगतीक
कराचे
कार्यावळींचेर
किट
जीण
झांसी
तांतयां
ताजो
थारायिल्लीं
दस्तावेजा
बाजपेयी
बोल्ट
रस्त्याचेर
रुपयाचे
शवविश्लेशण
शाळांक
सदस्यताय
##ेचेर
अकादेमी
अपवाद
आशावादी
आसतल्यो
उत्पादनांतल्या
एकदांच
कंपन्यांनी
घडणुकांचो
चंदा
डी२
नाटकीय
पडल्ल्या
पाद्री
मिणटार
मॅथ्यू
यंत्रां
रुबीना
वसीयताच्या
वेगळ्यावेगळ्या
शोएब
सशर्त
सोल्युशन्स
##ींत
अधिकाराच्या
एमआययूआय
ओटीटी
ख्वाजा
गतींत
गव्हर्निंग
चॅम्पियनशिप
तपासणेंत
ताच्यो
दुसऱ्याक
देवीच्या
पूर्णेया
प्रकरणांचेर
प्रॅक्टीस
बांगलादेशाक
बुदवंत
मानकां
मेड
मेळटलीं
म्हयन्यांची
युपीचे
शाराचें
शेंकड्याच्या
समस्यांक
सोदप
सोपी
हवेली
५७७
६२०
##्रा
अन्नधान्य
अश्लील
आवडीचो
उत्पादकांक
एकल्याक
काडटलो
कॉन्फरन्सिंग
छेडछाड
जमले
जेएनयूच्या
झुजपी
दाऊद
देवान
निवासस्थान
फळ
फ्युचर्सांत
बेंगळुरूक
भेल
मिग
राजाच्या
वर्धन
वांगड्याचो
वाडिल्ली
सुलभ
हार्ड
##िट
##्मा
अर्बन
उजवाडाचो
उपविभागांतल्या
करपांत
गुन्यांवकारपणाच्या
टाळूंक
ताचेपरस
दितलों
देशा
पूर्वज
बोटां
ब्राह्मण
मोडांत
युक्ती
विघटन
विधानांचेर
शरीफाक
सीडीआर
स्पेन
हरकती
०५०
१८००
##दी
##शा
##िनी
आदारिल्ले
आयएनएक्स
एंटरप्रायझेस
कंपनींचे
केपी
गाडयेचेर
गुळी
चुंबकीय
तीय
दबावा
दाखयल्यात
दुर्भावनापूर्ण
पाळनासतना
पॅलेस
पेसर
प्रस्तावना
बॉलिवूडाचो
भूक
म्हामंडळां
रक्कमेचेर
रडप
रास
विभागाक
संकोच
सरफराज
सर्तींतल्या
सैम
हॉलांत
##लान
असंतुश्ट
आघात
आराध्य
इंडिगो
उत्पादनांचेर
एलजी
कर्मचाऱ्याची
गांधीची
गोरिला
चलतलो
झगडपी
ट्विन
तंत्रगिन्यानाच्या
न्यूयॉर्कांतल्या
पद्दतीची
पारस
पुराव्यान
फिल्ड
फुडाऱ्यांच्या
बिट
मेगाहर्ट्झ
रगतस्त्राव
शाळेचो
सहजतायेन
सावधानताय
सुसंगती
हाफिज
हुस्क्याक
३७५
##शास्त्र
##ासावन
अतिताय
आयएसआय
जपानाच्या
तुलसी
दोंगरी
नियंत्रणाखाला
परिपत्रकांत
पाळपा
पुस्तकाच्या
बाजारपेठेचो
मधेपुरा
मागूं
रशमी
साधनसुविधां
##राव
##िल्ले
##ैया
अमरिंदर
करपासारकी
पतपुरवण
पत्रकारांक
पळयल्यात
पोर्टल
प्रकल्पांची
भावान
मदलें
मोहंती
म्हणटां
रामदेव
वाडटले
सीरीज
हरण
हॉट
१३३
अर्थवेवस्थेच्या
आरोपपत्रा
एज्युकेशन
केशर
झगडटात
तालुक
थंडी
धाडिल्लो
पद्दतीच्या
प्रवेशाची
मनान
रगताची
रिणकारांक
विथ
विशयाच्या
व्हॅन
सीबी
सुविधां
हाडचे
##ियर
ऊर्जा
एंटरप्रायझ
एनजीओ
एनसीबीन
एन्जल
ओव्हरी
कुंड
कॉमिक
गटां
चवकशेचेर
जाग्याची
नाटकांत
न्यूझीलंडचो
पूर्वनिर्धारीत
प्रीमियमाचेर
फटोवपाचो
बसता
मतदानाची
मागलें
म्हणपाची
म्हान
येरादारीची
वळेरे
वॉटर
सुचोवणेंत
२०५
अदमासांत
ईपीएफ
उद्देगान
उपविभाग
कारणांचो
काशी
कृषी
कॅमेरॉन
केविन
कॉलेजीच्या
चुक
टिप्पणींत
दर्ज्या
दर्ज्याचो
धमक्यो
नवादा
फंडांत
बटलर
बर्
ब्रेझा
भागा
भेस
युनिटांनी
रायन
लॅबोरेटरीज
लोढा
वंशपरंपरेन
विचारांचेर
व्हॉल्वो
शोपियन
सप्टेंबराच्या
स्तंभांत
३२५
अपीलाचे
आपोवपा
उलयलां
ऑफरिंग
गिरायकांच्या
गुलाब
देंवल्यात
निचरो
नियोक्त्याच्या
नोकरे
पक्षांतल्या
पट्टा
परिणामांक
पिकाच्या
पुतान
प्रमाणाचेर
प्रोटोकॉल
बाजारपेठेंत
बाजारपेठेची
बाजूच्या
बीजिंग
म्हायतीचो
वाडोवपाचे
विचारिल्ल्या
विद्यापिठांतल्या
व्हांवून
व्हाळ
हारपी
अधिकारक्षेत्रांतल्या
अन्नधान्याची
आदलें
उतारे
ओरिएंटल
जितलें
तुकडे
दराक
नील
नेपाळांतल्या
प्रतीं
मांडटात
मुळावीं
रणदीप
रसायन
वागपाची
वादांचेर
वाहनांतल्यान
विजेते
विद्यार्थ्यांचो
व्यक्तिगतपणान
शिबिर
श्रीलंकेंत
संचालकांनी
सेवकान
स्टार्ट
हिंसाचारांत
â€
अपॅची
आकलन
आकाराचो
इनामां
उपराज्यपाल
कायद्यांतल्यान
कुड्ड्या
क्रमांकांत
गुंतवणूकदारांच्या
घाण
जोन्स
टप्प्याच्या
डेव्हिस
प्रणालींत
फटोवप
फेस्टिवल
बीडीए
मध्ययुगीन
मिस्टर
रेडी
वखदी
वाव
शुल्काची
हाडूं
००१
२०४
२४३
अपीलां
आंद्रे
आडायतात
आपयलां
आरोपांच्या
आसाराम
उक्ताडार
उर्जेचो
एकदिवसीय
एनआयटी
एलआर
कंपन्यांक
कलरओएस
केशव
जबलपूर
डीजीपी
तरतुदींचेर
दयाळपणाच्या
द्विवेदी
धर्माचो
नातें
निर्मात्यां
पांवड्याचो
प्रॉब्लेम
बदलांक
बिलासपूर
बेकायदेशीरताय
मार्केटांत
मुजाहिदीन
मॅट्रिक्स
रिकी
वाडोवपी
विधीपुर्वक
विशयाक
शाओमीन
संशोधक
सरबजीत
सादपाक
स्वित्झर्लंड
##ेंट
##्यान
आदेशांचो
उक्तायिल्लें
उलोवपाच्या
ऑफशोर
कार्यक्षेत्रांत
धाडिल्ली
पश्चिम
प्रोग्रेसिव्ह
फॉक्स
रानांनी
रिव्हिजन
शाळे
सर्तीची
हॅक
##पाल
अकार्यक्षम
आर्थर
इंडियस
उगडासाक
कार्यालयांतल्या
कुडीचे
खबरांनी
गजालींची
तहसीलदारान
तोडफोड
त्रिवेदी
दूत
धुंवर
नेदर्लंड्स
प्रवाहाक
बेंच
महाविद्यालय
मालमत्तेक
मिल
मेक्सिको
लीड
वापराक
संघाचो
संस्थात्मक
सीडब्ल्यू
सेक्स
१८६०
##्ना
अतुल
अप्रिय
अयोध्यांत
आयएसआयएस
आयुश्यभर
ऑफलायन
कर्णधारान
कार्यावळीची
काळोख
खडप
चलतली
जगत
थळावें
नेमपाक
परिशदेचे
पावतलो
पेनल्टी
फातराच्या
भांगराचें
मानाची
योगदाना
लायल्यार
विमानाची
हाकाच
हॉस्पिटलांनी
२७५
३२३
##बाद
##श्वर
##ूंक
आपणावप
काडलां
कार्यावळींच्या
कोलंबिया
क्रमांकाची
टौब्रो
तपशीलां
थोडीं
दाखयतले
प्रामाणीकता
मिश्रान
राज्यभर
रिटेल
रेखाटन
वाचपी
विभागांतल्यान
सर्वपक्षीय
हांचेवांगडा
##िल्ली
अनुकरण
अश्विनान
असमान
आशयाची
एण्ड
कंटेनर
कप्तान
काउन्सिलाचे
काउन्सिलाच्या
क्रेटा
चतुर्थांश
देंवलां
निबंधकाक
निरिक्षकाक
नेमणुकेचो
परिशदे
पात्रतायेचे
बॅक्टेरिया
ब्रँडेड
मॅन्युफॅक्चरर्स
याचिकादारांचें
राज्यसभेचे
लायनी
वाठारांचो
वेपाऱ्यांक
संरक्षणांत
सचिवालय
सहमत
सांगतां
हाडिल्लो
अवमानाची
उज्यांत
उत्पन्नाची
ओडलां
करांत
कांत
घडपी
जाण्टे
तमिळनाडूचे
तरणाटी
प्रोफायल
बीएसएफ
मंडळांनी
रुपयाच्यो
लागूनय
वादींचो
विख
विवेकाक
व्हीव्हीआयपी
शटलर
सरचें
सरलां
सिक्युरिटीजचे
सुक्या
सेक्टरांत
हायस्कुलांत
२५१
४९१
७३७
##िल्लो
उना
कपूराक
केएक्सआयपी
खिशांत
गुण
घुस्मटमार
चॅनलाचेर
तूं
दबावाक
दावेदाराच्या
दोंगुल्लेचेर
न्यूझीलंडाच्या
पीडब्ल्यू१४
पुनर्गठन
पॅकेजींग
प्रवाहांतल्या
प्रामाणीकपण
बदलली
मराठा
रामाच्या
रिटर्निंग
रुपयांचे
व्हिजन
शाळेची
सध्याचें
सिब्बल
सीमा
२०३०
##रो
##िल्ल्या
आफ्रिकेन
कलाकारांनी
काडपाखातीर
कुल्लू
कोर्टाच्या
खोटीं
जल
झुजपा
डिव्हिलियर्स
तरेकवार
नामांकनां
नियमनाच्या
पीए
पुताच्या
पॅसिफिक
फर्मांत
फिरोज
बॅनरा
भाडेपट्टी
मशीद
मातयेच्या
माय
राज्यपालाक
वटेनचो
वाफ
सांगल्यांत
##पुरम
##बेन
उत्पादनांचें
कक्षांत
क्वीन
गांधीचेर
गुंटा
छप्पराचेर
जोनास
ट्रायम्फ
तरेच्या
दुसऱ्याच्या
देवाक
धवे
न्हंयांच्या
परिशदेक
पुरवणदारांक
बुलेट
मुर्ती
वारसदारांक
शत्रुघ्न
शिश्य
शीट
शेतकारांचें
संघटनात्मक
सिंगाचें
##नाक
आफ्रीदी
एकांत
गोंयच्या
गोरखपूर
डायरेक्ट
तृतियांश
दशकाच्या
दुकानांतल्यान
नियोक्त्या
न्हयकारची
पिळगेंतल्या
प्रधानमंत्रीन
फिल
फुटेज
बंगालची
बुद्धी
भरता
मॅक्सवेल
लायतना
विजेंद्र
व्हॅली
शिकलो
सांगपाचो
सिंध
सुविधेंत
##0
##आ
असल्या
उपसंचालक
कबर
खरेदीदारान
खरेपण
निकोलस
पयल्याच
पॅंट
फटोवपी
बटण
बॉलिंग
मार्चाच्या
रुप्याचो
रोमान्टिक
वकिलींत
वाडटलें
विल्यम्स
व्याख्ये
शकतालें
शिकागो
संवादाची
संसदेचो
सूद
एएमजी
कर्तव्याचो
कर्मचाऱ्या
कुडीचें
गजालीक
टिकाऊ
डीएसपी
पठान
पुट
पुनरुत्पादन
फटींगपण
फ्रांसांत
बूथ
बोगस
भागधारकांक
मोलावणी
रातभर
लागतले
वर्सात
वर्साय
विकल्यात
संघान
१७४
अतिरेकी
अफगाणिस्तानांत
अॅलेक्स
आग्नेयेक
आवांठा
इंजिनां
एपीपीन
एमटी
क्रिकेटाच्या
गांवचो
गावस्कर
घेतिल्ल्याचो
चर्च
जाग्याचो
जिया
जिल्ह्यांतल्यान
झीरो
टीडीएस
टेलिफोनीक
ताळेबंद
थ्रिलर
धरला
नवजात
नोंदीचो
पळयतलो
बोलीदार
मागयल्ली
विचारांचो
शिफ्ट
शिबिरांत
स्पेसिफिकेशनां
हप्तो
हिना
१५२
##न्स
##ारी
##ुआ
अलीगढ
आडावपाखातीर
उपक्रमाक
एकापरस
एजी
कॅप्टिव्ह
क्रूरताय
गांवांतले
गेलें
जर्नल
टाळचें
टोनी
ड्रायव्हरा
दहशतवाद्यांक
देहरादून
निरिक्षणाचेर
निश्ठा
पिक्चर्स
प्रायमा
फटींगपणान
बलात्काराची
बॅलिस्टीक
बॉक्साचेर
मारूं
मोगा
मोनो
व्हिज्युअल
व्हेला
सेना
सेमी
स्वातंत्र्याचो
हाताळूंक
हायलायट्स
##पल्ली
##बीएचपी
##राक
अर्थवेवस्थेचेर
कंपन्यो
कर्तव्या
कामगिरीचें
कॅनडियन
क्लार्क
गॅलरी
चुकून
जितलो
ड्यूटी
तरेचें
तापमानांत
धनबाद
पदाक
पौराणीक
प्रक्रियेचेर
फांट्यान
फावटी
बँकर
भंसाली
भावांक
महिंद्रान
युटिलिटी
रावचे
राष्ट्रा
वाजवीपणान
शेड
संदेशांत
संसदेक
सोऱ्याचो
स्टेशनांतल्यान
स्वेच्छा
##िना
अनंतनाग
अनिवार्यपणान
अर्दवेळ
आसतालो
उरचो
ऑपरेटिव्ह
कंत्राटांत
कंस्ट्रक्शन
क्षेपणास्त्रां
ग्रस्त
घड्याळ
चेंबर
तथ्याच्या
धैर्य
निधीन
निरुत्साहीत
पाटणांत
पिळगेची
प्राधिकरणांनी
फी
वर्किंग
वेव्हाराची
सीटी
सुखी
सोडियम
हाडचो
हिचेकडेन
१६९
१७१
१८९
##एच
##ुद्दीन
आकृती
आल्टो
आसना
इमारतीचो
उलटून
उलोवपाचे
ओव्हलांत
गुंतवणुकदारांनी
गुजराताक
घेतिल्ल्याची
चार्ट
जिवनसत्व
डझन
थोडच
दुबावाच्या
देवीची
नगरांत
भयणीक
भुरगेपणांत
मेल्ल्याच्या
यंत्र
यशवंत
रसद
राठौर
लोखणाच्या
वांट्या
विध्वंस
वेवस्थापकान
शेंकडो
श्रीलंकेन
सादूर
हिंदींत
२०७
अपीलांतल्या
आपयला
आयपीएलाच्या
इंचाच्या
उरल्यार
ओडलें
काडिल्लीं
कापसाच्या
क्वारंटायन
गटांक
चार्टांत
जर्सी
जिखले
जोडली
तळ्याचे
दिवाळे
पदांचो
परमार
पोजीशन
पोस्टिंग
बदलपा
बालकृष्ण
बिल्ट
भाशेंतल्या
मुल्यांकनाच्या
मेला
रत्नां
रस्त्याचे
वादांतल्यान
वेग
वॉरियर्स
व्यक्तींचीं
शिवसेनान
श्रीलंकेक
संगणकीय
सम
स्ट्रोक
हक्कदार
२२४
##्यांनी
आडय
इराक
उमेदवारांचीं
कर्मचाऱ्यांचेर
काळाचो
गार्डन्सांत
टॅबलेट
डब्ल्यूए
डिझायनांत
डीए
दिसाच
नोंदींचो
प्राधिकरणा
बेगूसराय
वायएसआर
सीएमडी
स्कॉटलंड
स्टार्क
हाताळटा
##ये
##ोस
अर्जदाराचेर
आरएसए
इमाम
उडयल्ली
कर्नाटकाच्या
क्रमांकाचे
क्रांतीकारी
चकमकी
चित्रदुर्गा
जलविद्युत
जिखल्यात
ज्वाला
टॅप
तितलो
तेमक
थारावपाचे
दृश्टी
धनंजय
धांवलो
निरंजन
पांयान
पायपलायन
प्रमाणाचो
बूट
भूतान
मेळनाशिल्ल्या
रावल
रिचार्ज
रुपें
रूच
रूट
वायुसेना
विकसक
समलिंगी
साजिद
सैन्यांत
हॉर्न
२९०
##दास
##ानी
अधिकारक्षेत्राचेर
असिस्ट
आपोवप
उरफाटे
एकलीच
ऑगस्टा
कड्डणां
कॉक
गिरेस्तकाय
गोधरा
चलनाच्या
तळ्याच्या
तीव्रता
दोट्टी
निरपराधीपणाची
नेमाचेर
नोबेल
न्यायाधीशांक
पतपुरवठ्याची
पर
पीटीआयन
पी३
पृश्ठाचेर
फाफ
भावनांक
मार्जिनांत
मोदीचें
युट्युबाचेर
येदियुरप्पा
रंगाचे
वांटपा
वाद्य
संमतीनूच
सुस्त
सोंसचे
सोमनाथ
स्थिरपणान
हीय
४५००
आर्मी
उपनिबंधक
उपायांक
काश्मीराचो
चिंटू
ज्ञानांत
झोनांत
नमाज
परिणामांत
पोज
प्रतिनिधींक
बँकांची
बटाट
भरसून
भास्कर
म्हाल
युनिटान
सगल्यांक
सुमित
सुर्यान
हिंदुस्तानी
अण्णा
आचरणाक
आपणायल्या
एलए
ऑगस्टाच्या
ऑपरेशन्स
कॉर्पोरेशनान
क्षेत्राचो
खेळाक
गेज
ग्राहकाक
चवकशीक
ज्वालामुखी
ड्वेन
धर्मशाळा
परतली
पावून
पीआर
पीडब्ल्यूडी
बाबरी
भरलो
मेळयल्लो
रायजिंग
लॉकडावनाच्या
वाठारांक
शिवसेनेचो
सदच्या
सेगीत
स्टॅनली
हिंद
अधिकारक्षेत्राक
अस्मिताय
आयरीश
कलंक
खेळपा
डायमंड
डावनलोड
दस्तावेजाचो
दोंगुल्ली
द्वेष
पत्रवेव्हार
पॅनलाचेर
प्रमाणपत्राची
प्रायोजकत्व
प्रिया
बांदल्यात
मंत्र्यांनी
मनशां
मॉड्यूल
रँक
रिकव्हरी
रियलायझेशन
वास्तुकला
वेपाराचेर
सक्तीचे
सांता
स्वर
हक्कांत
१८८
२०२५
##हल्ली
आदरपूर्वक
आपणावपाची
इंडीजाक
उदेता
कमिन्स
कल्पिल्ले
कळावाची
किंगडम
केसी
खाशेलपणांत
खेळगड्यांनी
खेळटना
चलताली
जानेवारीच्या
जायमेरेन
डब्ल्यूपीएनओ
तपशीलांत
तींच
दर्यांतल्या
दुराचार
धरतात
पप्पू
बळीचो
ब्लॉकांत
भांडवलाच्या
मंडळांतल्या
महसूलाच्या
मांडटले
मार्केटींग
यादीक
वर्गांक
विकतले
विधानसभेची
विलोपन
शुल्काचो
सुटावे
हरमनप्रीत
हळूच
##झी
अजमेर
अभयारण्यांत
अभियोक्त्याक
अॅसिड
इन्स्ट्रुमेंट
ईआर
एनबीएफसी
ओली
क्लिंटन
चंद्रबाबू
चवथें
चीनाचो
झगडून
डीआरटी
दरांतल्या
दाव्यांतल्या
पेट्रोकेमिकल
बोर्डान
मतदारांनी
म्हाझुजाच्या
रंगान
वावराचेर
विकप
वीर्य
वैद्य
शास्त्रज्ञांनी
संघटनांक
संचालकाच्या
सर्तीचो
१५९
##मदल्या
आकाराचे
आयओएस
ईटीएफ
उल्लंघनाचो
करारांतल्या
कॅलिफोर्निया
केशीची
गुंतवणुकेक
जेव्ही
डिफेन्स
डोमेन
तत्वगिन्यानी
थारावाच्या
दयाल
नोडल
न्यूयॉर्कः
पडटालो
पोर्श
प्रसिध्दी
फातरांनी
बरप
बुडटी
मालदीव
म्हाविद्यालयान
लायिल्ले
वेत
शाळेचें
संबोधनांत
संरचनेंत
सिद्दीकी
सिसोदिया
सोंपला
सौराष्ट्र
हरकतीं
हांचेवरवीं
हार्ट
##झा
20
अँथनी
उदेंते
ओपनांत
कागदपत्रांच्या
कार्यावळींचें
कुंभ
गुणवत्ता
चीफ
जात्रा
जिविताच्या
जोश
डेली
तियात्र
दरेकल्यान
दादल्यांक
धाडिल्ले
पंजाबा
पडदे
प्रुडेन्शियल
बालाजी
भारद्वाज
मंदीक
मातयेचेर
माथुर
मुजफ्फरनगर
मोती
राजपूताचो
रॉस
वसीयताचेर
विधेयकाच्या
संबंदांचेर
समाप्ती
सुदारप
सोदपाचो
स्थापीत
हांचेपसून
२१५
२४९
##टो
##पाची
##्र
उडपी
उत्पन्ना
ऑस्ट्रेलियेच्या
कराराचें
क्षेत्राचेर
गुंतल्यात
चिंता
टंडन
तुमच्यांनी
दवरिल्लीं
देशाचो
नर्मदा
निवेदनांतल्यान
नेगी
प्रकल्पांचो
फटीचें
फार्मास्युटिकल्स
ब्राउन
मर्यादेचो
महोत्सवांत
मॅट्रीक
येजमान
लोकसंख्येंत
लोकहितांत
वाहनांक
शशी
सकाळ
समर्थकांनी
सामकीं
हवामानांत
२०२
२३५
आंखता
आदेशांची
एचयूएल
केल्ल्याचे
कोश्टक
गौडा
चवदा
चुकां
जिवे
दुरुस्तीचो
देणगी
दोतोरांच्या
धडो
निवडलां
प्रदेशाक
फरमानांतल्यान
फावनाशिल्लो
बेड
भुरग्याचें
मसुद्यांत
मानपाची
मालमत्तेंतल्या
मेमोरियल
मेळयतात
रबी
राजवटींत
रॅनबॅक्सी
रोलिंग
लता
ले
वेंचणुकेचें
वेंचणुकेचेर
व्हिप
सैन्याचो
सोंपेपणान
स्वरूपी
स्वाभिमान
हाडांचो
१६३
इंडीजचो
इटलींत
ईएसआय
उत्सवाच्या
एमबीए
कलमां
कागाळीं
काडपाचे
किनारी
कोलकाताच्या
घराब्याच्या
टिप्पण्यां
तृप्ती
नागरिकां
बरेली
बैल
मागप
मातशी
मार्कस
मेजपा
मोलाक
म्हणटाले
लश्कराच्या
वागलें
संरक्षक
सहाय
स्थायीक
##ॅट
##्ला
अर्दी
अश्विनी
अहमदाबादांतल्या
उदासीनताय
उपायुक्तान
ऑस्ट्रेलियेची
कळयल्या
केंद्राचेर
खनिजां
जमशेदपूर
दवरिल्लें
दुकां
धांवडायलो
नाक
निर्णयां
निर्मितींत
फोनाचो
भांडवलाची
भारतभरांतल्या
मारिया
येत्न
येवचें
रक्तदाब
रानांतल्या
रामाक
वर्गां
वाठारांतलो
शशि
सपनां
साठ
साराधा
सेंद्रीय
सोडोवपाचो
स्टँडअलोन
आशिल्ल्याच्या
उपजिला
कमांड
कापपाची
काळांतले
काश्मीराचेर
चित्रीकरण
चिन्नीत
जटिल
जातना
जिखप
ट्रस्टाक
तडजोडीच्या
दिसल्या
नवीं
निर्मणी
परिशदेचो
परिश्रम
पळोवचे
फोर्ट
फ्रेमिंग
बॅरलाक
बोलींत
मक्तेदारी
मा
मुद्रीत
मोलांत
रिमोट
लायनीचेर
वॉर
व्हान
व्हीआरएस
शिलालेख
सुटकेचो
सोदपा
१७६
२२८
४२५
##ंतले
अमेरिकेचें
उडोवपाचें
उद्देगाची
ओएसाचेर
कापप
खरसाण
छाती
झुजाची
देंवूं
न्यायपूर्ण
पद्मश्री
परिक्षेक
पारा
फिलीपीन्स
बंपर
बहु
बोटी
बोध
बोस्टन
भारतीयांनी
भोंवतना
मशिदींत
मागल्यात
मेजपाची
रकमेचेर
रक्कमेचो
रणनितीचो
लास
लासून
वण्टींचेर
वादीं
व्यूज
शंबरां
सदचे
सातवो
सेंसेक्स
सोंपयली
हाकाय
हाडपाखातीर
२८८
एकूणच
कडल्यानय
कळ्ळी
केरल
चौताला
डोपिंग
निवडूंक
निवाड्याची
प्रतिनिधीं
भंयान
भागधारकां
भात
मरपी
म्हत्वाच्यो
युतीन
राष्ट्राच्या
रिटर्नांत
वर्सांतलो
वसीयतांत
विटारा
शिंयाळ्या
सांगात
सिंड्रोम
सुचयतात
सैन्याची
स्पश्टीकरणांत
##ंडा
अब्जाधीश
अवर
अवलंबून
अव्हरमेंट
आर्जेन्टिना
एंटनी
एक्सक्लूसिव्ह
एस२०
कपड्याच्या
कपूराची
कश्मीर
कार्मिक
कोमल
कोरोनाक
जस्त
जिणेची
ज्योती
धारकान
नगराध्यक्ष
नालंदा
निर्वासित
पद्दतींचो
पुतीन
फेक
महेश्वरी
माया
मार्श
येवजणेंतल्यान
रकमेच्या
रिसायकल
रोमान्स
लॅपटॉप
विकेटींचो
वेतन
वॉच
शारांतल्यान
शुल्काच्या
सफारी
सिद्धू
सीआयडी
सुटावी
हार्ले
१९८
##ंगा
##ल्ली
##ास
आंगाची
आपणायिल्ल्या
आवांठात
एथलेटिक्स
एमएमटीसी
एसडब्ल्यूपी
ओल्ड
करपासारक्या
कामगारान
गांवचे
गुन्यांवकारान
ग्रेनेड
जॅझ
जोय
टेल
तहरीक
निवारणा
परिपत्रका
पानांच्या
पालकांनी
पावचे
पीडीपी
फळादीक
बाळगितात
मनरिजवणेच्या
मिलर
मेळाव्यांत
रशियेन
रहीम
राष्ट्रपतीच्या
व्हरतालो
शिक्षणाक
सहरसा
स्फोटाक
हल्लेखोरांनी
हाताळपी
१७८
३०७
##तात
अधिकाऱ्याचेर
आयएमडीन
इंडस्ट्री
इन्व्हेंट्री
एंकर
कंपनींचेर
कापले
कृष्णन
कोका
गांवाक
गियर
चायना
जखमे
जांचो
डीटीएच
तिडक
देखरेखीचो
नवीनतम
नारे
न्यायाचीं
पांड्यान
पिल्लई
प्रकारचें
प्रसंगांनी
फरमानांत
बलुचिस्तान
ब्रावो
भूवैज्ञानिक
मुंडा
यादवाच्या
युग
राजकोट
रिणांत
वरी
साहित्याचें
सुदृढ
सोरोप
१०चेर
१९२
##ुरा
अस्वल
आतंकवादाचेर
इजिप्त
उखलपाक
उदेलो
एक्सचेंजाच्या
एर्टिगा
कपूराच्या
कुटुंबाचे
केसरी
दुयेंसांत
निवळावंक
न्यायाधीशांची
परततना
परेश
पोर्तुगेज
प्रतिनिधीत्वाच्या
प्लॅटफॉर्मांचेर
फिएट
बॉम्बे
भलायकेचेर
मिझोराम
मुन्ना
मोडपाचो
रथ
रासायनीक
वांगड्यांचेर
विचारता
वेशभूषा
शिक्षणाची
सद्याच्यो
होंडान
१४००
२९९
४४९
७१०
७६५जी
अठराव्या
असोसिएशनाच्या
आपणावन
उच्चार
एकतर्फीपणान
एमटीएनएल
एलेन
करप्याच्या
कल्पिल्ल्या
कोटला
गनी
घालताले
जातालें
जुलूम
जॅकेट
ज्वेलरी
टर्म
तत्वांत
दिस
देवळाचे
परफॉर्मन्स
प्रतिनिधींनी
बंदरां
बहुपक्षीय
बॉलिवूडांतली
भोपाळः
मागयल्ल्या
माध्यमिक
मायक्रोसॉफ्ट
रामलीला
रिते
विचारसरणी
वेरिएंटांनी
संवसारांतले
स्थळार
स्विडीश
हावड़ा
५७०
##नो
अमीरात
उच्चायुक्त
उलट
ए२
करप्यांनी
कुटुंबाच्यो
गुंतवणुकदारांक
चौकी
ज्ञात
डुप्लीकेट
डेरा
तळ्या
तोंडांत
दिवप्यांच्या
दुकाना
पाकिस्तानांतल्यान
पुलिसांचो
प्रचाराक
प्रतिवादींचेर
फॉरेंसिक
भलायकेचे
मुकुंद
मॅरेथॉन
मोहाली
म्हणजे
यादी
राज्यांचे
रावतना
लेखन
लेह
वागणुके
वाडयल्ली
सवय
सेकंद
हाडपाचे
हुडा
१६८
२१६
##गिरी
##बर
##िस्ट
##्क
अनुप
अनैतिक
अर्जांक
आंकडेवारींतल्यान
आयन
ईबीडी
उबारप
ऑटोमोटिव्ह
कनेक्टिव्हिटी
गवायाची
गांवांक
गाझियाबाद
गुंतवणूकदारांची
ट्रस्टान
दुयेंसाची
देंवप
धाडचे
निमंत्रक
बरयल्यात
बासमती
ब्रदर्स
मंगळूर
मायलेज
मायावतीन
मेळोवपाचें
म्हणजेच
येरादारीचो
लॉग
वापराचो
वे
शिबिरां
शौचालय
१८४
##ंतली
##मेंट
अज्ञान
अस्थीर
अस्पश्टपणान
आशयाचेर
आसन
उपरांतचें
एपेक्स
एसआयपी
कलेक्शन
कामगिरीक
कुंडांत
गोलंदाजांक
जंग
जदयूचे
जफर
जैवीक
टाळप
टेस्ट
तेय
दांवाचेर
नवदीप
पक्षांमदल्या
परवानोधारक
पीडब्ल्यू१३
पीर
बक्सर
बांगलादेशान
मोगाच्या
रशियेंत
वांग
वाडटात
विधानांक
शेंपडी
संगमरवरी
समीक्षक
साडी
हवामानाक
##ंमदीं
15
अविभाज्य
इंडोनेशियन
उपाशी
उबारपा
उल्लंघनाक
एसएल
कथानक
खांच
गूणांच्या
चॅनलांचेर
जुलयाच्या
झेल
डेटिंग
दमन
दिल्लींतल्यान
नेटफ्लिक्साचेर
परिणीती
पलतडीं
पुडुचेरी
पृश्ठभाग
प्रकल्पांचेर
बरयला
भयणीच्या
मंत्रालयाची
मारतले
मुष्टियुध्दपटू
वाचनाचेर
वादीचेर
वापरल्यात
विचारतात
वेवस्थेक
शिश्टमंडळ
सीएडी
सैनिकांनी
हेल्थकेअर
२३७
४४०
##बगर
##बल
##िटी
##ौर
अदमासाच्या
अन्य
उंचायेचो
उत्क्रांती
उबारता
उबारलीं
ओळींचेर
कारवायेक
कॉमेडी
जोड
झुजाक
टीएस
ड्रेसिंग
दार्जिलिंग
धाडटलो
निवास
निश्फळ
परेरा
पुरस्कर्तो
पॉयंटांनी
फायरिंग
फिफा
फिल्मान
फॉर्मूला
बदललां
भौतिकी
माळे
वाडयल्ल्या
वाडोवपाखातीर
वापरलां
वेंचर
सिनेमाचेर
सुचयल्लें
सेठी
अदमासाचेर
अॅथॉरिटी
आफ्रिकेच्या
आवृत्तीचेर
उदरगतीचेर
एचडीआर
ऑर्डरा
कुमारा
कोच
खट्टर
खुराना
गूगलान
ड्रम
थोडक्यांत
दरबार
नासले
निरिक्षणांतल्यान
निर्देशिका
निश्कर्शाक
पांचूय
पाळची
प्रकल्पाचेर
बांदकामाचो
मतदानाच्या
मानवतावादी
मेळपाचें
मोबायलाचेर
योनी
रणनीती
रसायनशास्त्र
राश्ट्रांक
शाखेंत
श्रीकृष्ण
सगळ्यांचो
सायन्सेस
हाताळटात
हिंसाचाराची
हेक्टराक
३९९
अटींचें
अधिकारां
अॅश
आठवे
इनोवा
ईएमआयचेर
कल्पित
किल्ल्याच्या
खात्यांतली
गोवा
चिन्ना
जलतरण
जॅकलीन
जॉर्डन
तिगूय
थंडसाण
दिल्लीन
दुवे
नाईट
निक्की
निधनाक
पत्त्याचेर
परेडांत
पाळ्ळी
पोखरियाल
पोटाच्या
फरमानाचेर
बागायती
बोर्डिंग
ब्रिटनाच्या
भयणीन
मंत्रीमंडळाच्या
मार्गांनी
मालका
मोस्ट
म्यानमार
लद्दाखांत
वांटपाक
वाडयलां
वेगवेगळो
संमतीन
समस्यां
सस्तन
सिध्दांताचो
सुदारून
सॅम्युएल
स्थितींतल्या
हंगामी
हरकतींचो
हुंपलो
हॉस्पिटलां
२२२
२३४
##ंडी
##ुन
उशीराच्या
एपीपी
कम
खांब
खावपाच्या
खुशाल
गाडयांचो
ग्रेडांत
चीर
जिल्होधिकारी
जिल्ह्याचो
टिकपी
तोंडांतल्यान
निकोबार
निर्यातदार
नीती
परफॉर्मिंग
प्रिंट
फलंदाजांक
भरतात
मूर्ति
मेंदवाच्या
म्हजेर
युद्धविराम
रामा
रायडिंग
वसाहती
वादांतल्या
व्याजाची
व्हीपी
शिफारशीं
समाजांतले
सार्
सीबीआयची
सेन्सेक्सान
हाडना
##डू
##हान
अधिकाऱ्याचें
आंगाक
आंतकड्यो
आरएफए
इंडियन्साक
इलॅक्ट्रीक
उन्नाव
उपक्रमांक
उल्लंघनाच्या
एसई
कत्तल
कर्मचाऱ्यांचें
कलाकृती
केशीक
खातात
चक्रीवादळाक
चलयतालो
जपानांतल्या
जसवंत
जातलीं
जैताची
ज्योतिर्मथ
डॉलराक
दिवे
दोंगुल्ल्यांनी
धारण
नेताजी
नेपाळांत
पाळटा
पाळ्ळ्या
पेपरांत
प्रचंड
प्रस्तावाची
बदलो
बुद्धीन
ब्रॉड
मजुरांक
मेमोंत
यूटीआय
ये
रक्कमेच्या
रावल्यात
रेणुका
शाहरुखखान
सीआरआर
सुविधांचो
सुविधांनी
स्टंप
हिताचेर
हुतात्मा
१९६
२११
२६५
##ठ
आडावन
आयडीएफसी
आयतार
आश्रमांत
आसताली
एनसीआरांत
एनसीबी
एमपीव्ही
ऑस्ट्रेलियांतल्या
काऱ्यक्रमांत
गर्ल
जनावर
ठोकून
तेजस
दक्षीण
दिवप्या
नांदेड
पश्चाताप
पुराव्यांतल्यान
पुसून
फुलांची
बरोवंक
बिबटो
मंत्रालयीन
मानची
मालिकेचेर
यंग
रामपूर
लागूनच
लेप
वास्तुशिल्पी
शारदा
सुचयल्ल्या
हरदीप
३८०
अनुमान
अप्रत्याशित
अर्दशतक
आपणायिल्ले
आव्हानाक
ईसी
कॉन्फरन्स
जंयच्यान
जगपाक
जाण्टो
दस्तावेजांची
दिलजीत
न्यायिक
पीडब्ल्यू१६
पुरातनवादी
पॅलेस्टायन
फुडाराचो
बालन
बेल्जियम
मंत्रालयांतल्यान
महानदी
युपीच्या
राज्यसभेचो
राबित्याच्या
रोस्टर
लागूं
वरांचो
विस्तृत
वैभव
सब
सरपा
सांबा
सांबाळटात
सायरस
हवेच्या
१९३
१९७
##चा
अणभवांतल्यान
अधिकारक्षेत्राची
आकाराची
आडायली
उद्देगां
उरिल्ल्यान
एलओसी
काश्मीराची
कास्ट
क्षयरोग
गोंयकार
घडणुकांक
चेन
जीडीपींत
जोडप्याच्या
ड्युटी
ड्रीम
दवरतालो
दवरना
दस्तावेजीकरण
धातूच्या
धारवाड
निवाड्याक
पाटणाः
पावना
पुनर्स्थापना
बदललें
बॉब
मात्शे
मानसिकताय
यूपीए
रोहितान
लढोवपाक
वगडावन
वाडोवपाचेर
विधानसभेचे
विवेकानंद
शस्त्रान
सशक्तीकरण
सुटयेंत
स्टेशना
हायड्रोजन
हार्वर्ड
##स्ट
अत्याचाराच्या
अभिनेते
अभिनेत्याचो
आरक्षणाच्या
उक्तायिल्लो
उदारीकरण
उपनियमांत
एमव्ही
किक
कोरोनाची
दिसाळ्याच्या
ध्रुवीय
नैतिक
प्रगट
फुडाराची
फ्लोर
बडटीच्या
बायलांची
भाशेच्या
मधुकर
रामान
रामायण
लाब
वापरची
विचारूंक
विसाव्या
व्हीकल
व्हॅल्यू
शिक्षणतज्ञ
शिमेचे
साधना
स्मार्टफोनाचो
हस्तकला
१८६
३६५
अधिकारान
अभियोजकाक
अ२
उक्तायले
उगडपा
ओवैसी
कर्तव्याच्या
कुमाराची
केरी
कोक
कोच्ची
क्रोम
क्विंटन
गटांतले
जायसवाल
जिमी
ट्रॅव्हल
तांकांय
त्याग
दादल्यांचो
द्वारका
नक्कल
पटेलाच्या
पडलीं
परगना
पराकाष्ठा
पोसवण
प्रभाकर
प्रस्नाचो
भाड्याची
मॉस्को
मौर्य
वेवस्थापनाचे
व्हीसी
सर्जन
सांगतलो
सैध्दांतिक
सोयाबीन
हप्त्यांनी
हवामानाची
हेज
##पणाची
##रण
अपेसांत
आयबी
इसरो
उजवाडाच्या
ऑक्टोबराच्या
करीम
कायद्यां
चढा
जिणेंतल्या
नेमले
नेल्सन
बँडांत
बरयली
बीपी
बॉला
भुरग्यांचें
मनोवपा
मियां
राक्षस
लियोन
लोकसंख्येची
सन्मानार्थ
साम्राज्य
सुटयेची
सोंपप
सोदाक
स्लॅम
४३०
अध्यक्षाच्या
अध्याया
आयएल
आरती
आस्थापनांत
उप्रासूंक
एकतर्फी
एकामेकांच्या
एपिसोड
एसबीआयन
किल्ल्यांत
खाशेल्यो
खेळटाले
गिक्सर
ग्रिड
घटकांचेर
जियेवंक
जिविताचो
ज्यांतूंत
डीबी
तिमाहींतल्या
दर्जाचे
दाव्याचें
धडे
धवनान
निर्णयाचे
पाणबुडी
पुरातत्व
बंडल
बीटी
भाजयो
भोंवपी
भोगता
मंडळाचें
मंत्र्यांक
मुजती
मेन्स
मेल्ले
म्हणपा
यशा
येवजणेचें
लोकसभेची
लोकसभेचे
वापरिल्ल्यान
विजयवाडा
वेवस्थेच्या
व्ही१५
सरोज
सेवांतल्यान
सोडूं
स्टोन
##ख
##यो
##्को
अपुरबायेचें
इंधनाचे
ईपीएफओ
उतराक
एफटीआयएल
कंपनींतलो
कार्यालयाचो
कितलेंय
जल्मा
जहीर
डीआरएल
दिवप्याचो
नाखूश
निंजा
पडची
पावोवंक
पिरामल
पिळगेच्या
फावशी
फ्लॅटांत
बसले
बारामुल्ला
बेयरस्टो
भक्ती
भुरग्यान
महिला
मेजाचेर
याक
रोजगाराच्या
शकतलीं
शाकिब
सगळ्यांचे
सरकारांचो
हाडची
हेवीवेट
हॉटेलाच्या
##राच्या
अभय
अभिनया
आंतकड्यांनी
इमारतीचें
एमरान
कंज्युमर
किराणा
गोलंदाजांनी
गोलकीपर
घेनात
जाकिर
जीएसएम
जोडल्यो
डावे
दस्तावेजाक
नूर
न्हिदिल्ले
पीजी
प्रकल्पांतल्यान
बाउंडरी
भेटीदार
मामा
मालाचे
मोगाची
राज्यांची
रिफ्रेश
रेल्वेमार्ग
वळण
विशाखापत्तनम
वेस्टर्न
संभाव्यते
११००
##पयलीं
आपणावपाक
आमचेर
इबाडिल्ल्यान
उत्पादनाचें
एड्रेनो
कमाईंत
कापली
कार्यावळीचें
कोरोनाचो
घर्षण
जिव्या
टप्प्याची
डिझेलाचेर
तपासपाची
तरीपूण
थर्मल
दिसतालीं
दुख्खाचें
निखिल
नेटवर्काचेर
फालोअप
बरयल्या
मंत्रीमंडळाची
मनोरंजन
महाझर
मोदीचे
युपींत
रिक्शा
रॅब
विकल्ल्या
शिखा
संगीता
सुदारणांचो
सोंसचो
सोसायटीचो
२७२
३१५
४८०
##शन
##सीन
##ांचीं
अररिया
अहमदाबादच्या
आज्ञापत्रा
इन्स्टंट
उरपा
ऑप
कराचीः
कुपवाडा
केशीच्या
क्वार्टरांत
चंडीगढांत
जाग्याचें
जाग्यावयल्यान
तेरा
दुरुस्तीक
देशांचो
दोळ्यांत
पंजाबाच्या
पार्थिव
प्राथमिक
फाटी
बीपीओ
मालकीचें
मिडल
मुकुट
रातचें
वाठारांतलें
शिमेची
शिल्पा
संघटनेंत
सुपरन्युएशन
हरिद्वार
हालोवंक
हाशिम
हेवी
७२०जी
##ंचीं
##चीय
##था
##लर
##लू
##ियो
##ेरी
##्टी
उलटी
एक्टिव्ह
एचपीसीएल
करुण
गिरी
चांचण्यांनी
जडेजान
डार्क
तंत्रगिन्यानाची
तालुक्याच्या
दळाचे
दवरलीं
दारांतल्यान
दोतोरांक
निकालांतल्यान
निर्मात्याक
नेमकी
पटरीवयल्यान
पांयांनी
पीएफ
पी२
फटींग
बांदतले
बायलेचें
भाशेची
मंत्रालयांतल्या
मसणभुंयेंत
मानली
मोडपाक
येरादारीच्या
रातचो
लावची
वर्सांतली
वस्तूंक
वाराणसींत
संवेदनशीलताय
स्पोर्टी
हाताळपाचो
१३००
२१२
४६०
आंखली
इंडस्ट्रियल
उद्याना
एनसीसी
ओळ
कळयले
कारकिर्दींतलो
कॅन्टीन
कॅश
कोची
खर्चाचें
गिरायकांनी
घडटात
चौकोनी
जापसालदारकेंतल्यान
जेलांत
टर्नर
टीस
टेलीसर्व्हिसेस
तांणीय
तांबें
ताणून
थारिल्ल्यान
दर्ज्याचेर
दशक
धारकांक
नेव्हिगेशन
पकड
पर्यावरणाक
पोटाक
फ्रंटाचेर
भारदस्त
मागची
मीनाक्षी
मूत्रपिंड
मेजपाचो
येरादारींत
राजपाटण
वर्गांतलो
वाडयलें
वेवस्थेची
वेवस्थेचो
वॉल
संसदे
सत्रां
सरकारांतल्या
सविता
सिंघल
सुचोवणे
स्वताकच
हिच्या
##चंद
##डो
##नान
##पणाक
##ों
अध्यक्षपदाचो
अयशस्वी
अस्तंतेवटेन
अहवालां
आग्रहाचेर
आयपीसीचो
आसामाच्या
उगडून
उतरा
एकराक
एचयूएफ
एपल
कातीच्या
कापपाक
कोलकाताांत
खैबर
चलनांत
चळवळींत
जेटी
डायना
डॅरेन
दयाळपणान
नायब
परिणामाचेर
पर्सनल
पारिश्रमिक
फाडून
बॅच
मिरवणूक
म्हणचें
रावलें
रेकॉर्डांतल्यान
लादप
वण्टीचेर
विमानतळाच्या
शारांतली
शोचो
सिक्युरिटायझेशन
सोडोवपाची
हस्तांतरणाच्या
२०६
२२३
६४०
##चंद्र
##ेरा
अधिकाराचेर
अभ्यासांतल्यान
आंगाचो
आकृतीबंध
आदिल
उंचायेची
क्षेत्रांतले
खजिन्याक
घेतकच
चलना
चलपाचो
चाकां
चिंतन
तपासप
तशीं
दिसपट्टे
देखरेखीखाला
नवाजुद्दीन
निकालाचो
नीना
नोंदींनी
नोटीसीक
पातळ्ळ्या
पार्टीच्या
पाळ्ळें
फिगो
बे
मनाली
मालीश
मुद्द्याक
मोटारसायकलाचेर
येणावळीचेर
लीगांतल्या
लॉज
वर्क्स
वाडीची
शर्मान
संचांतल्यान
सोदपाची
हॉटस्टाराचेर
१९४
अंकांच्या
आडवें
आपयल्ले
उदेला
एर्नाकुलम
एलसीडी
ओमान
कटाच्या
कपड्यांत
कमांडो
काडिल्ल्यान
काळें
केशीचो
गॅरंटी
घडणुकेचें
झुजां
डीव्हीडी
धांवड
नॉर्थ
पदाचे
पिडा
पेन्शनरी
प्रमाणच
प्रमोशन
फर्माची
मिर्जापूर
मुख्यालयांत
रंगा
रावूंक
रेणू
लाला
शासित
शिश्यवृत्ती
समीक्षकांनी
सादतना
स्टिंग
हॅंड
हेतूचो
२०२४
##ात्मक
##िल्लें
अॅलन
इकोनॉमिक
उज्जैन
केंद्राची
कॉलेजींतल्यान
कोनांतल्यान
गुन्यांवांनी
घराचें
चवकशेक
जाणकार
जान
जिखपाचो
जिविता
टप्प्याटप्प्यान
टोपण
थापट
धर्तरेच्या
निबंधका
पर्यायीपणान
पार्ट
प्रोडक्ट्स
फोर
बागेंत
बीटा
भाशीक
मळब
म्हामंडळाचो
रोमँटीक
लैंगिक
वाचवपाचो
संस्थांची
सारकेपणाच्या
सिध्दांतांत
सुवातो
सोंपोवंक
स्टोरांनी
हंगामाच्या
हत्याकांड
हळू
२९५
##करण
##वेल
##िला
अटिकना
अर्थवेवस्थेची
अस्तित्वा
आद्यप्रवर्तक
इंडसइंड
इकोस्पोर्ट
उडोवचे
कार्यकाळांत
कितल्या
कॅरिबियन
कॉन्टिनेंटल
ख्यास्तीच्या
गीतकार
गुंड
गुंतागुंतीची
चिन्नाचो
जावा
जोडयेन
टिप्पण्यांक
तलाक
दीपा
निर्धारीत
पणजीः
पदभार
पुंछ
पुराव्यांवयल्यान
फॅमिली
बदलल्यात
बळीचेर
बाबूलाल
बेल
भाट
मलाइका
रेक
रोजगाराची
लग्नाचे
वैदिक
शौर्य
श्वसन
सरफेसी
सिंडिकॅट
सुशांताची
सूर्यवंशी
स्केच
स्थितीच्या
आदि
आयटीआय
आल्फा
उडोवन
उपवेंचणूक
एरोस्पेस
ओला
कारवायेंत
गजालीचेर
घेतल्यांत
चावन
टिप्पणीचेर
ट्रेन
थारावाक
दिवाळेच्या
दैवी
धोक्याक
निःसंशय
पदार्पणाच्या
पाटानी
प्रदर्शनांत
बसकेचो
बीएचपी
बुध्द
बोपन्ना
भावनांनी
मदर
मॅक्रो
लावून
वंदे
वळ
वापरले
व्याजाच्या
सांगल्यार
सामुदायिक
सुकाणू
सोरेन
२५७
##बर्ग
अर्जदारांच्या
आयकॉन
आश्विन
इमिग्रेशन
एलसी
करत
कलमाक
कापलो
क्षेत्राची
खेप
गुंतागुंतीचो
घात
चलोवचो
जामिया
जीडी
टायगोर
ट्रेल
दागिन्यांची
दिसपट्टी
नांवानय
पाळपी
बायलांन
बोटांच्या
महत्वाकांक्षा
मार्गाच्या
माळयेची
मेजपाक
म्हाविद्यालयाक
याचिकांक
रावचो
वापरपाखातीर
वाऱ्याच्या
विद्यापिठांनी
शाळेंतल्यान
सकयले
सारकिल्लीं
स्विंग
हातूंतलो
हिमालयन
२१३
##धर
##रांत
##साच्या
##ाना
अनिवार्य
ईश्वर
उदरगतीचे
एअरसेल
काळजाची
कुटुंबाचो
गुरूक
जीर्णोध्दार
जोडल्यार
ज्युनियर
ड्रेस
ढाल
तारवां
दिपक
दिसप
दुदाची
निष्प्रभावी
पात्रताये
प्रक्रियेच्या
प्रसूती
बंगलो
बाजारपेठेक
बास्केटबॉल
भागाची
मास्टरमाइंड
रंगराजन
रजिस्टर
राष्ट्राचो
लेखिका
विलीनीकरणा
व्हांवतात
शुक्लाक
श्रेणींत
संपादनाची
संस्कृतायेचो
समस्तीपुर
सेसा
सोहेल
हांगां
हिंदु
२०२३
३०५
##ियल
##्यांत
12
अध्यक्षपदाचेर
अविवाहीत
आपल्याचेर
उत्पन्नांतल्यान
एचएएल
एचएसबीसी
कळ
कामरूप
गटार
गिरणींक
गेस्ट
जातींचो
जायद
डेव्हलपर्स
डॉक्टरेट
थ्रू
दर्ज्याची
निर्यातीचेर
पायन
प्रदेशाची
प्रवासाक
प्राचीन
मनभुलोवपी
मास्टर्स
मुशर्रफाक
मून
मेजप
यशाक
यादवा
रचपाचो
रामेश्वर
वर्गाचे
वाक्यांश
विनीत
शांति
शाहीन
शिल्पां
शेतांतल्यान
संसर्गाक
संस्कृतायेंत
सबस्क्रिप्शन
समजावंक
सरकारांची
सहकार्याक
सांजे
साबरमती
स्टर्लायट
स्टर्लिंग
स्पायसजेट
हॅट्रीक
६३६
६६०
##ऊ
##पारा
##ाकय
अभिव्यक्तींत
आपयता
आर्ट्स
इंगेजमेंट
इतलीच
उद्धृत
उल्लंघनाची
एक्सचेंजाचो
एनालॉग
कठुआ
कांट
कीटकनाशकां
कॅफे
केंद्रांतल्यान
क्षतिपूर्ति
गाजियाबाद
चलनवाडीचो
जनेला
जमानत
जिल्होधिकाऱ्याक
टेबल
दुपेटी
ध्येयां
नोंदणींत
पवारान
प्राधिकरणांत
बधीर
भलायकेच्या
मतांत
म्हयन्याळो
वकिलाचो
वांट्याचो
वैधतेक
शास्त्रांत
समाजाचें
सुरक्षेचो
स्वित्झर्लंडांतल्या
हार्डवेअर
२४४
##थी
##सतना
##्याचो
अपार्टमेंटांत
अपेक्षां
इरानी
एकटो
एपीएमसी
कटांत
कटिहार
कितलोय
केल्यारच
गजेंद्र
गूणांचेर
गेल्लें
घडोवपाचो
चित्रपटांतल्यान
चित्रपटाचे
जाणांचो
तत्वा
थारपी
दुदाच्या
निर्यातदारांक
नेमाळ्यांत
पांयांक
पिकाळ
पॅकिंग
पेटीएम
पोलीस
बापायचेर
बीजापूर
मिताली
म्हामंडळाची
रवींद्र
रानांतल्यान
विचारपाक
विश्वास
वेंचणुको
वेवस्थापनाचेर
शूट
सादतात
सार्क
सोदताले
स्टाफ
स्वीप
१८३
३११
४७१
##हर
##्त
##्याची
आरोपींचो
इथेनॉल
उदासीन
उप्रासपी
उबारपाचो
एअरबस
एकीकरण
एक्सपोझर
एनएसजी
एसीसी
कंट्री
कच्चें
कार्यावळींची
क्षेत्रीय
खालाय
चवदाव्या
जनक
जिखता
टपालांतल्यान
डिव्हायसाक
ड्युकाटी
तंजावूर
तारवटी
त्योच
थप्पड
थारायतलो
दा
देशहितः
निराशाजनक
निशाणा
पंचायतीन
पवित्रताय
पिवपाचें
प्रचारक
प्रमाणपत्राच्या
फर्स्ट
फॅन्सांनी
बदलिल्ल्या
ब्रह्म
मर्यादेन
मॉरिशस
म्हटल्यार
म्हामंडळांत
म्हामंडळाचे
राधाकृष्णन
रावना
विकृती
विधानसभेचो
वेंचपा
वेवसायांतल्या
व्यक्तींचे
शाळेक
शेड्यूल
संकश्टाच्या
संबंदाचो
सर्च
सिंगापूरांतल्या
सुरम्य
स्टीवन
स्त्रोता
हाचोय
हावरा
होल्डर
१८७
२२१
##ापसून
##ारा
अलेक्झांडर
अॅडव्हेंचर
उडयल्लें
उपायाचो
एनसीटी
काजल
काडची
कार्यवाहीची
कोन
खांबे
गुन्यांवकाराची
गुरद्वारा
घटकांची
जर्मनींत
जालंधर
टक्कल
टाइम
डीएमकेचे
थार
दुश्ट
नवल
निफ्टीक
निष्क्रिय
नोंदींच्या
न्हयकारचो
पर्वत
पेमेंट
प्रतिनिधीन
प्रत्यायित
बत्रा
बाळक
भाडेकारान
मिनटांचो
मूड
याचिकाय
राहुलाक
रोडशो
लावार्थ्यांक
वचचो
वेंकटेश
शिक्षकां
शेअरां
संदर्भांतय
सिरियाच्या
स्टँडाचेर
हुस्के
३२४
##एक्स
##तेच्या
##रू
अनुक्रमणिका
अभिनेत्रीक
इंदौरांत
उतरावयल्यान
उत्पादनांतल्यान
कार्यांत
क्रूझर
खेळगड्यानी
गुन्यांवकारांचेर
घाल्ल्यान
घोवाची
चॅनलाक
जयपूरांत
जेके
डी६
तात्पुरते
तेंदुलकाराक
ध्रुव
नेटवर्का
न्हाण
पटेलाक
परवडना
पोतयेंत
प्रेक्षकांनी
बायोपिक
म्युझियम
म्हयन्याळें
रावन
राश्ट्र
लज्जास्पद
लीगच्या
वांगडाय
वाडदिसा
विकासांत
विचारविनिमय
वेवस्थापनाची
वो
शाळांच्या
सगलें
सचीवाच्या
सिनेमाचे
स्टँडा
३७७
##कय
अनोळखी
आडायता
आदरणीय
आदेशांच्या
आयएनडी
आयकतात
आवडना
आसल्यारच
उगडपाचो
उलयिल्लें
एलओसीचेर
एलजे
ऑर्डरांत
कुटमाच्या
कोला
खेळाची
घोटाळ्याची
चड्डा
जयदेव
जाणवपी
जीपीयू
जुळोवन
टर्न
तीव्रतेचो
दत्ताक
दुर्लक्षाक
धरूं
धाकल्या
नांवाजिल्ल्या
परदेशांतल्यान
पालकांच्या
पोर्ट्रेट
पोलार्ड
प्रत्यक्षदर्शींनी
बायलांचे
मार्क्सवादी
मिरसांग
मेळिल्ल्याचो
रिणाकार
रुचीक
रेडिओचेर
लाँचिंग
लावन
लिटल
लेणीं
वकीलाच्या
वचनासतना
वसाहतवादी
विकपाच्या
व्हाऊचर
सण
सहवागान
स्मृती
हाताचेर
##ीं
##ुरी
##्ता
अभ्यासाचो
आतुरतेन
उणावा
उपक्रमांतल्यान
उमेदवारांचें
एनसीएलटी
कर्रान
कल्लू
कसलेय
कायद्याचीं
कोरियान
खलीफा
गिरायकांची
चांचणेच्या
जुळना
थिएटर
दुयेंतींचो
दोसांझ
नागपूरांत
निष्फळ
न्याया
परिशदेचें
पाळपाचो
प्रतिकारशक्ती
फ्लॅगशिप
फ्लोट
ब्युरोच्या
ब्लॉकांतलें
मरत
मुख्तार
मुशर्रफान
मूडीज
मॅचीचो
यकृत
यत्नांतल्यान
युएईंत
वादींत
व्यापकपणान
शशांक
शींव
शुक्राणू
शेतकारांचो
संशोधनांतल्यान
समन्वयक
सुदारता
स्फटिकी
हडप
हावभाव
##लाक
##लीन
##ेंद्र
अधिकाऱ्यांचें
अन्नधान्याच्या
अभ्यासक्रमाच्या
आउटसोर्सिंग
आचरणाचेर
आणीबाणीच्या
आपयतले
आफ्रीदीन
उदकाक
उपरांतच्यान
एआयसीटीई
एबिटडा
ओझा
केक
खेळ्ळा
गंभीरान
गोल्डमन
चोळपी
जाग्यांची
जाताले
ज्येश्ठताय
ट्रॉफीच्या
तारखो
निर्णयांतल्या
पंजाबान
पत्रांनी
पार्टनर्स
प्रबळ
फिचर
फ्रांसाचो
बांदकामाच्या
बेंजामिन
भौशीकपणान
मंत्रीमंडळाचो
मिस्ट
मॅक
मेल्ल्याचो
यूबी
वांटपाची
विकत्यो
शिवम
संशोधनांत
सुरवेकच
सुर्याचो
सेवेची
हर्ट्झ
##यल
##वाय
##िर
अतुलनीय
अनवर
आयएसएल
इमेज
इशरतजहान
उद्देगाचो
ऊतक
एकामेकांकडेन
एलएनजी
ओडिशांत
काडचें
कुमाराचो
कूक
केआर
कॉर्नर
कोणेंय
कोरियाचो
खातीरच
घडिल्ले
घडोवपी
घालपाचे
चीनांतल्यान
डेव्हिडसन
तपासले
तरांच्या
तेलंगणाच्या
तेलांत
दर्जाचो
नदरेनय
निफ्टीन
नेचरल
नेमाळ्यान
पुनर्विलोकनाचो
पुनीत
पुरावेय
पुलवामांत
पूर्णवेळ
पेन्शनाची
प्रीत
फांशीची
भावनां
भोंवडेची
मलिंगा
मामेभयण
मार्गा
मॅथ्यूज
मेळयल्ले
मोलाचीं
राजस्थानाचे
राधिका
रेफर
ललिता
लाचेस
लोखंडे
लोजपा
वाडपाचें
वातावरणाक
वायएस
विवेकबुद्दीचेर
वैधतेचेर
वॉलमार्ट
व्हरचो
शाई
संस्थान
सवाई
सामकीच
सोंपिल्ल्या
सोंसपी
सोयरे
स्पेनांतल्या
हळडुवो
हाताळटले
१बी
७९०
##दान
अधिनियम
अभिनंदन
आडायलो
उद्यानां
एक्टिवा
कचरो
कारणांचें
केव्ही
गुलबर्गा
घुंवडावन
छान
टीक्यू
तुर्कस्तान
थारपा
धर्मांत
नंदन
निरपराधीपणाक
पदार्थांत
पावसांत
पीडब्ल्यू१७
पूर्णपणान
प्रभास
प्रस्नांचो
फर्मायल्ल्या
फादर
बायोटेक
ब्रँडाच्या
मनयतले
मानपाचो
मोसमांत
म्हासागर
वस्तूंत
विमुद्रीकरण
सिप्ला
सुवातेक
सोडपाचें
सोय
हाचेविशीं
४९०
##णे
अर्थवेवस्थेचो
आत्मनिर्भर
आयबीएम
आयाम
उपचारांत
ऍप्लिकेशनां
एआयएडीएमके
कतार
कळयल्लें
कागाळदाराचे
कार्ल
कीर्ति
कॅम्प
केनिया
गटांच्या
गुणां
गोदाम
जनार्दन
ज्यो
डालमिया
दवरल्यांत
दिवपाच्यो
दिसताले
दुख्खाच्या
दूतावास
द्विभाजन
पीडब्ल्यू१५
पी६
प्रकल्पाचें
प्रज्ञा
प्रवासाची
प्रावधान
फांट्याच्या
फुटून
बरयिल्ली
बांदिल्ले
बॉलर
बॉलांतल्यान
भसीन
मताचेर
मनयली
मळां
मातसो
मालिकेंतल्यान
राजिंदर
विमानाक
सलामीच्या
सांबाळूंक
सिराज
सिस्टम
सुखद
स्फोटा
३०३
३३५
##ंतलें
##ंद्र
##गड
##व्ह
##ाचीय
अध्यक्षते
अर्दे
असदुद्दीन
आल्ट्रोज
इयान
उडयलीं
उदकांतल्यान
कळयतले
कानपूरांत
कार्यवाहींतल्यान
गाडयेचे
घोशणापत्राचेर
छाबरा
जवाहर
जाळी
जेड
तिच्यो
धोके
पक्षाघात
पराभव
परिषद
पानांचो
पावसा
प्रतिसादांत
प्रदुशीत
प्लग
फटोवपाच्या
फलंदाजांनी
बांदतात
ब्रुअरीज
भटक्या
भागीदारींत
भारतीयां
माँ
माल्याक
मुल्यांकनांतल्यान
मेरिटाचेर
मॉरिस
राजकुंवर
रिकामे
रेटेड
रोजगारांत
लावप्यांक
वायुसेनेन
विद्यालय
शिवसेनाक
संपादनाक
समितीचें
सांगिनासतना
सिस्टम्स
सीआयएल
सीएए
स्थळां
हजारीबाग
हाशमी
हेरोइन
आराखड्यांत
उज्याक
उज्याच्या
उपेंद्र
कबीरधाम
कर्तव्यांत
किआरा
किशोरवयीन
गंज
जखमींच्या
जेवणाच्या
टक्कर
डिफॉल्टर
दोगांयच्या
धातुकाची
पट्टे
परमजीत
परवान्याच्या
प्रतिध्वनीत
बलराम
बेइज्जती
भरपायेचें
मंत्र
मनदीप
महानिरीक्षक
महामारीच्या
मानकांक
मेहरा
रकमेचो
राष्ट्राची
लॉजिस्टीक
लोकांकडेन
लोकांचीं
शिक्षकांच्या
शेअरधारकां
संभाव्यपणान
सत्तेची
सोपो
स्वरूपाच्या
१९१
##त्मक
##ूं
अमेरिकेंतली
आंतराश्ट्रीय
आवृत्त्यांनी
इन्व्हेस्टमेंट्स
उगडप
उतरांक
एनडीएचो
कर्म
काँग्रेसीचें
कापला
कितल्याश्याच
चिदंबरमाक
डिलीट
तिरुनेलवेली
त्रिपक्षीय
देवळांनी
नागा
नाफाविरयत
नायट्रोजन
निगेटिव्ह
नोंदीची
पदांच्या
प्रतिज्ञापत्रां
फरीदाबाद
फारीकणीचेर
फ्रांसिस
बाली
बीच
बृज
भावांनी
मल्लिकार्जुन
मसाला
मांझी
मुंडकारान
यान
रावतले
वजनाचे
शारांक
संस्कृती
साओ
सीडब्ल्यूपी
सेल्टोस
हंगामांतल्या
हत्या
हर
हातांतल्या
हिंसाचाराचेर
४६५
##लां
अटलांटिक
अटिकपी
आपणावची
आपयल्यात
आरोपींच्या
उध्वस्त
उपायांचेर
कच्छ
काळांतलें
कुमारस्वामी
कॅनडांतल्या
खरेपणाचेर
गटाचें
गुणक
चलयलो
चेस
टॅक्स
दळांच्या
धरपाची
धांवपाक
परिक्षेची
पेटंटाच्या
बळार
बालेनो
बीएसईच्या
बेकारी
भगवती
भूपिंदर
भ्रम
मंत्रीमंडळा
मार्गदर्शना
राजकोटांत
रेको
वचन
वाचवपाक
वापरपाच्या
विमर्शीक
विशाळ
विस्वासघात
वेवस्थेचेर
सामन्यांत
सुनावणीच्या
सेलिंग
हैदर
१७९
३४२
४०१
##घाट
##भाय
##लँड
##सयत
आविश्कार
इजिप्तांतल्या
उषा
एफए
कवच
किशनगंज
कूप
कृतीन
कॉन्फरन्सांतल्यान
कोळशाचो
खांदार
खूनांत
घटकाक
चडून
चेन्नयांतल्या
डावपेचवादी
ड्युश
तंत्रां
ताजीं
दी
देवाचो
धरपी
नर्स
निदर्शकांनी
प्रभावा
प्रोटेक्शन
बरयतात
मंत्रालयां
मलाईका
मुळसांत
यासीन
राज्यांचो
वाठारांनीय
वाडिल्लो
विधानांचो
वेगळ्यो
वैधपणान
वैशिश्ट्य
व्यक्तीचें
संपाक
सतराव्या
सभे
समजना
सस्पेंशन
साहनी
स्थापना
स्पेशॅलिटी
हँडसेटांत
२०८
##गे
अभिनेत्याच्या
अशिक्षीत
आयटीए
आरटीआर
आवृत्तीची
इंद्र
उपसीएम
एअरएशिया
एनआरसी
एमव्हीसी
करतालें
काडिल्लें
कारभार
कोचीन
गुंतवणूकदाराक
चिराग
जगांत
जितली
जीई
तत्वांची
तातूंतलें
तिगांय
दवनागेरे
दाखोवपाखातीर
निवळावपा
नोव्हेल
न्यायालयांतलो
पदार्थाची
पालव
प्रगतीशील
फ्रॅक्चर
बरोवपाची
बळग्यान
बीडीएन
ब्रँडां
भ्रश्टाचाराची
मशाल
मारतालो
मुंडकाराक
मॉडेलाचेर
मोईन
लायलें
लॉट
लोकहित
लोणी
वानी
वृध्दिमन
वेवसाया
शिपिंग
शिवशंकर
सत्यापना
सर्तीं
सवे
सुशेग
सूरी
स्वातंत्र्याची
१८८२
२०९
२५४
३४९
४१५
७३०
##पणाच्या
##्प
अनन्या
अभिनेत्या
आंगांतल्यान
उक्तायतात
उडोवपाचे
उत्पादनाचे
उद्देजकांक
उप्रासले
उलयतालो
एकवट
एमआरपी
एसआयटीन
कामांचो
झुजाचो
टँकर
डावाच्या
दिसाचे
दोळ्यांची
नमुन्याच्या
नागरिकत्व
निशंक
पडनासतना
परताव्या
परोपकारी
पांयांचेर
पिकावळ
पोरनें
प्र
प्रदुशणाक
प्रिव्ही
फॅन्सी
बंदखणीच्या
बळींक
भी
मैदानाच्या
मोगीं
युतीक
रेकॉर्डाचेर
लेबर
वर्सांचे
वाहिनी
वेपाराक
शेकातळा
सांगिल्ल्याचो
सिनियर
सुत्रबध्द
सोडचे
सोडचें
हकारात्मक
हरियाणाचे
हेताक
१८१
##तना
##निया
##वती
##ाला
##ॅक्स
##्यू
अनुज
आठवो
आत्म्याक
उतावळ
उत्तरेकडल्या
उपमा
उर
एएमसी
एएस
एनिमेटेड
एम्ब्युलन्स
कपडो
क्रमवारीन
क्रिकेटाक
क्लबा
खटल्याक
गांवकारांनी
गोविंदा
घरांची
घसघशीत
जीवन
टागोर
तोंडाक
दुयेंसाच्या
देवीचें
न्यायवेवस्था
न्यायान
पशुपालन
पाळी
पीएमओ
प्रकारचीं
प्रतिजैव
फुडारपणाची
रू
रेफ्री
रोहिणी
वसुंधरा
व्हरपाचें
शाहबाज
शुध्दपणान
शेल्फ
सेक्टरांतल्या
सोलंकी
सोसायटीक
स्वताचीं
हरी
१५०व्या
२४८
##जन
##िम
##ीर
अराजक
आवडी
एकमेकांक
कापपी
कार्बनी
गुन्यांवकारपणाचे
चांचणेचो
जापसालदारके
जिग्नेश
डायनॅमिक
डिस्कवरी
डीडब्ल्यू२
डॉलरांतल्यान
तरतुदीची
थाना
दंडाच्या
दिसांचे
दुयेंतींचेर
दैनिक
धरली
धांवले
धाडलां
नर्सरी
निफ्टींत
निमण्या
नेमणुको
नोरा
पक्षपात
पसंती
पासिंग
प्रवेशाचेर
बटालियन
ब्रिटीशांनी
भाग्य
मृदु
मेळत
मोयली
रविंदर
रस्त्याची
राउंड
लेक
वखदाचो
वटेनची
वताले
वसणुकेच्या
वाचनालय
विश्लेशकांक
वीणा
व्हेंचर्स
शिकारी
शेर
संरक्षणात्मक
सबंद
सेल्स
स्टंट
स्वरूपाचो
##ॅक
अनिरुद्ध
आतुर
आदाराची
उत्सवाक
उद्देशाक
ऍप्लिकेशन
कांठार
कॅन्सरा
केंद्रीकृत
कॉर्निंग
कोणाकच
क्विड
गतीचेर
गाडयेचें
गुप्ताक
घोवाचो
चोर
जाल्ल्यो
जोडयेक
डाउनलोड
डॅटसन
तालुक्या
तोंक
दुस्मानकायेक
दोंगराच्या
नासत
पंगडांचो
पडद्याची
पापा
पुनर्विलोकनांत
प्रदेशांतलो
प्राधिकरणांतल्यान
फर्माचो
फाटीचो
बायो
भरला
भोंवडेक
मंत्र्यां
मास
मुसलमानांनी
मोटारसायकलीन
रामकृष्ण
विश्वासघात
व्हरपाच्या
व्हर्च्युअल
संचालकांची
सर्तकांक
सलमानान
साक्षीदाराचे
सादरीकरणा
हॉस्टेल
होल्ड
ह्यू
२३३
##ुल्ला
##ोव
##्याचें
अणकारीत
अनुदानाच्या
अमृत
इंजिनांत
इको
उडयल्यार
उत्पादनांक
उदयपूर
उपकरणांचो
कर्मचाऱ्याचो
कलाम
क्रि
खाण
खासदारांनी
गणने
गिलानी
घडोवपाची
चित्रात्मक
जळिल्ल्या
जीवाश्म
डीआरडीओ
तरणाट्याक
तरतुदीचेर
तर्कशास्त्र
तलो
तांबडें
देखरेखीची
दोळो
दोळ्यांक
धवी
नगरसेवक
नम्रपणान
नेटवर्कांत
पार्टींत
पीएचडी
पोरण्या
प्रत्येक
प्लेऑफांत
बदललो
बनारस
भावाची
मतदारसंघांतलो
मानेसर
मुकेर्जी
मुश्ताक
मेळोवची
याचिकांचेर
येवजण्यांक
राज्यसभेन
रेलिगारे
रेल्वेमार्गान
लेटर
विराम
विवेकी
व्याजांत
शेंकड्यांतलो
श्रीनगरांतल्या
समिक्षक
समोर
सांज
सांबाळपाचो
सार्वभौमत्व
सिकंदर
सीतामढ़ी
७७७
##तेचेर
##ने
##सारको
##ॉल
##ोरा
##्म
अँडी
अध्यक्षाची
अनलॉक
अनुमानीत
अपयशी
अपीलदारांचो
अर्थाचो
इंडस्ट्रीजचे
उपन्हंय
ऍक्सॅस
एफआयआरची
एफएस
एमओ१
एससीओ
कबलातींत
कागाळींतल्या
काळाक
किल्ल्या
कुकर्मो
कोलंबो
क्रिस्टल
खबरांपत्रांनी
घोड्याचेर
जनगणनेचें
ट्रॅप
डिफेंडर
डेटाबेस
तथ्यांतल्यान
तारखेचो
दरेकाक
दोगांयचो
धांवता
पक्षांचेर
पन्नू
पुनिया
प्रमाणाक
फोल्ड
बीपीएल
महानगरीय
मार्जिनाचेर
मेळयलीं
राबित्यांत
लॅरी
लेखकांनी
लोकेश
वर्धित
वसाहतींत
वापरप्यांनी
विच्छेदन
विजयनगर
श्रीदेवी
सिंधुन
सिध्दांताचेर
सुदारली
सोडटलो
स्टॅलर
स्तब्ध
स्वाभावीक
हॅक्टर
२६२
##जीत
##ल्स
##शिल्लो
##हार
अंकां
आपणायलो
इश्टा
एचएलईसीन
कॅनडांत
गुणाकार
घाम
चंपा
जादू
टाळपाचो
ताणांतल्यान
तिवारीन
तैवान
थळाक
थारायतली
दुर्ग
देशांमदीं
धोरणांक
धोरणाचे
निवळावपाचो
निशाण्या
न्यूजाक
न्यूझीलंडांत
पट्टो
पावडर
प्रत्यक्षदर्शींच्या
प्रवाशांचेर
प्लाझा
फार्म
बँकर्स
बुन्यादी
भरले
मेजपाच्या
मोर
रिणकारांच्या
लागींच
वर्दी
वाचलो
वॉरियर
सत्तेक
सरचे
सहकार्याची
साक्षीदारा
साक्षीदारां
सिध्दांताक
स्टोरीचेर
स्वच्छ
स्वरुपाचेर
हाजी
होल्डिंगांत
३२६
##िच
##ोक
##्टन
आयपॅड
आवडटात
उद
उरची
उशीर
एक्सटी
एडिलेडांत
एलएसी
ऑफरांत
कार्यवाहींतल्या
कॅलिफोर्नियांतल्या
कोल्ड
क्षणीक
चित्रपटाच्या
जातलों
जिनस
जेडीएस
झाडा
ट्रस्टाचे
डेअरडेव्हिल्स
तकलेच्या
तणाच्या
थळाव्यान
दिवप्याची
देवस्थान
दोंगुल्ल्यांच्या
धर्मा
धोनीचो
नुपूर
पंथ
पतंजली
पाकिस्तानाचें
पारेख
पेट्रोलाचो
प्रतिवादीचे
प्रेसो
प्लेबॅक
प्लेयर
बक्षी
बरोबरच
बांगला
बॅरन
मंत्र्यांच्या
मारताले
म्हाविद्यालयांतल्या
युनिटाच्या
येनात
रकमेची
रिपब्लिकन
रीता
लाहोरांत
लिफ्ट
लुटप
लोकसंख्येचो
वल्लभभाई
वळून
विचारांतल्यान
व्यक्तिमत्व
शेंकड्या
सिनेटर
सुर्याच्या
सोडलां
स्वरूपाचेर
हाडलीं
होस्ट
२१४
##झेड
##म्मा
##यम
##लिंग
##्का
आरोपांचें
इंडियन्सान
उत्पादकांनी
उर्जेची
कल्पनेक
क्रिकेटाची
क्लिप
क्षीण
खलील
जमनीपोंदा
टप्प्याचे
टाटान
डीएम
तत्वांनी
थारायिल्ल्यान
दुबळें
देवा
पिकनिक
बहरीन
बाजारांतले
बीएनपी
बुरहान
बोकारो
मालिकेचे
मिणटां
मॅजिक
यंत्रणे
रजत
रणधीर
रणनितीन
राजपूताची
राज्यभरांतल्या
लेगांत
वसुलीचो
वादांची
व्हीआय
शक्तीं
शेतां
संघाक
सरल्यात
सिंगानय
सीएजीआर
सोऱ्याची
स्क्वेअर
स्मार्टफोनाचेर
हब
हाताळ्ळा
हारल्या
हुंवारांत
४७०
##ध
##वरी
##वाडी
##्टर
##्पा
##्रे
अप्रेंटिस
आल्बर्ट
इओन
उदात्त
उरलीं
ऍपलान
एमई
एलटीई
ओव्हल
कांटबॅंड
कोषाध्यक्ष
क्षेत्राच्या
खाटीचेर
खूबशीं
गुंतून
गोंयांतल्या
घुंवळी
चढाव
जखमेच्या
जगन
जायसर
ट्रॅकाचेर
ट्रोल
तरा
दावेदाराची
दुर्भावनान
नांवार
निवाड्यांत
पीडब्ल्यू१८
पी४
पोस्टा
प्रथिन
प्रसिध्द
फेरये
बांदले
बेनामी
भावनांचो
भोंवडेचो
महेंदर
युनिटाचे
येणावळीचें
रस्त्यान
रांदचीकूड
राजे
रि
रिसॉर्ट
रुप्याचे
रॅप
लायनअप
लायनींत
विकसकांक
विटो
विश्लेशकांच्या
शोचेर
सत्तेचें
समर्पण
सांगातांत
सीबीआयचे
हवेंतल्यान
हाडिल्लें
हॅबियास
४०६
५०६
##भोंवतणी
##िड
##ुक
##ोली
##्टा
अपुर्णांक
आय१०
उपकरणांत
एनएसए
एमी
ए५
कापल्या
कामगाराची
कारणांचेर
किरणोत्सर्गी
कुकडां
क्रीम
खांद्याक
खाडी
खेळगड्यांचेर
गलवान
गिर
चळवळीक
चौकीदार
जाहीरनामो
थाई
दत्तान
दवरनात
दिसपट्टें
दुर्लक्षीत
नकाशांत
नासिक
निमाणीं
नियमितीकरणा
निर्धार
निर्धारण
पंगडाचेर
पंजाबाचो
पातळिल्लो
पारितोशिक
पेजीचेर
प्राधिकरणाचेर
बद्रीनाथ
बशीर
बांदिल्लीं
बापायचे
भाडेकाराक
भोव
मदीना
मनोबल
मागतां
मादी
मुष्टियुध्द
मोडपाची
रंगाचें
रुप्याची
लवचीकता
लिस्टांत
लुकसाणाक
वकिलीचेर
वाचपाची
विकासाक
विधानांची
विस्वासपात्रतेचेर
वॉरंटी
शिक्षा
शिवपाल
समजलें
सांतो
साहब
सुत्रां
सेवांतल्या
सोंपना
सोदतालो
सोल
स्मॉल
हसीना
होली
२१७
३५४
अंडमान
अमेझॉनाचेर
आडायल्या
आपणावपाचो
आयएन
आरटीई
उग्र
एकमुश्ट
एक्झिट
एनसीटीई
एफसीआय
कल्पनेच्या
काजोल
कार्लोस
कालवो
कुटुंबाचेर
कोहलीचो
क्रुनाल
क्लच
चवक्यो
चुंबन
जमनीक
जया
थांबयलां
नकवी
परवानोधारकाक
परवीन
परीक्षक
प्रकाराचो
प्रकाशक
प्रदुशणाची
फुडारपणाच्या
फेऱ्यो
बेल्ट
ब्लूज
भूत
मरपाची
येणावळी
राठोड
रिणकारान
रोझ
लसिथ
लादपाक
लिस्टिंग
लॉर्ड्सांत
वांट्याक
व्याजदरांत
शेजार
संकलन
स्क्रेप
स्थितीची
स्वभावीकपणान
२९८
३५३
##टेक
##पीएल
##लिया
##साक
##िओ
अक्षरां
अजेंडेंत
अदमासां
अरबाज
अॅसेसीन
आणीबाणी
आयसीसीचो
आरएंडडी
आरएम
आलायन्स
आवडीचें
आवाजांत
इंचाचे
एडन
एसयूव्हीची
ऑरेंज
कमर्शियल
किरणोत्सर्ग
खोली
गली
गुरवारपण
घेवचीं
घेवप्यां
जामा
जीडब्ल्यू
डिझायनाची
तांबडे
दशहरा
दाराच्या
दिव्या
दिसाळीं
नियतकालिक
निवासस्थानाक
निविदांत
नीलम
पुष्कर
पोकळ
प्रसुती
फटीच्या
फ्रंटलायन
बेंगळुरूचो
भंडारी
भावनगर
भोजपूर
मको
मलखाना
मुशर्रफ
मॅप
मोडली
म्हणूनच
म्हाविद्यालयांक
रावात
लेखाकार
वेदनादायक
व्हरतली
शेनवार
संघांत
संवादाच्या
सांत्वन
सातवे
सिंगापूरच्या
सीआरए
हारोवंक
२५५
##ॉक
##्की
अडचणींक
अभिमानाची
आपणायतात
आपणायला
उदकांतल्या
उदरगतीचें
उपक्रमाच्या
एनएमडीसी
एम्सांत
ऑटोरिक्शा
कागाळदाराचें
कार्यशाळा
किंगडमांत
कॅबिन
केंद्रबिंदू
केंद्राचो
कोंकणी
कोतवाली
खेळणीं
गंवाची
गटांतल्यान
गुरवारपणांत
चिन्नाची
चोक्सी
ट्रांसमिशनाक
तथ्या
ताचेखाला
थरूर
नेमल्यात
पयलींचो
पळोवं
पुंच
प्रधानमंत्रीक
फिल्डिंग
फुफ्फुस
बांयत
बाळगूंक
भारांतल्यान
मशिद
मशीनां
यूपींत
लोधा
वकिलीच्या
वगडावपाचो
वाचक
वापरप्यान
शिकपाची
शिबिराचेर
श्रुती
संगम
संविधानाखाला
सदानंद
समाजाचेर
सर्जिकल
सर्वेक्षणाच्या
सॅमसन
सोंपयिल्ल्या
स्वातंत्र्याचेर
हेमराज
हैं
३४१
##ुला
अभियोजकाचे
अविनाश
आकर्शणां
आयुर्वेद
उपभोग
उलोवपाचें
कागदपत्रांत
कितलींशींच
किमि
कॅनरा
कोटांत
खंडीय
खिळे
गोंयचे
चलनवाडी
जळप
जहाजाचेर
जाल्ल्याचे
जुनियर
जेजू
डझनभर
डायरेक्टर
डोवाल
तुज्या
थारल्यात
धनुष
धोकादायक
परराश्ट्रीय
पासवर्ड
फुडाऱ्या
बसंत
बुध
मनमर्जी
मापां
मेळोवचे
यंत्रणेचो
रायडू
लावपाचेर
लेसर
वांट्यांत
वागणुकेंतल्यान
वागपाचो
वापरपाचे
वार्ड
वास्तववादी
विकल्या
विभागाचेर
व्हरताले
शकुंतला
शब्दकोशांत
शाबू
शुध्दताय
सफदरजंग
सिरियांत
सोंपमेरेन
स्पंज
हाताक
२३२
२८५
३९७
##यत
अथांग
अमन
अमेठी
अयोध्याक
अशांत
असद
आरोपींचीं
इंग्लीशींत
इशारो
उबारतात
एकच
एरिक
ऑपरेटरां
ओडिशाचो
कंपाउंड
कर्नाटकाचो
कागाळीचो
कारणाच्या
कारप्ले
कृशन
खात्यांक
खात्यांचो
गर्भनिरोधक
गिलगित
गुंतयला
चेतन
जहानाबाद
टिपणी
ड्रायव्हरान
दिया
दुबावान
पगारांतल्यान
पीएमआय
पोप
प्रमाणीक
प्रवाशांच्या
फेरबदल
बुमरा
भोंवतणची
मान्यपणान
मार्गाक
मोटारसायकलींनी
येताना
राजवाड्यांत
वांटेड
वेवसायान
व्हेल्लो
शेतकारां
संघाच्या
संस्कारांत
सगळ्यांच्या
सलेम
सादतले
सादीं
साधू
सिंघवी
सीआरपीसीच्या
सुकण्यांच्या
सुपीरियर
सेवांचेर
सैनिकांच्या
हक्कांचे
हाताळप
हिमांशु
हुंडाची
२१९
२५८
३०१
##मल
##ांतय
##ाचोय
##ेक्स
अँग्लो
आयसीएमआर
आरआयएलान
आस्पावन
इव्हेंटांत
ऋणी
एसडीएम
कांसव
काडना
कामगाराच्या
कुड्डो
कुरूप
कॅट
केजरीवालाक
खंयचें
गंवाच्या
चळवळी
जलसंचय
जल्मदीस
जॅस्मीन
टच
टीआरएस
डिझेलाच्या
तथ्याचेर
दिवचीं
दिवस
दुबयः
दोळ्यांचे
नर्तक
निवृत्तीचो
नेमपाची
न्यायाधीशाचें
पावोवपाक
पी४०
प्रकोप
प्रतिज्ञापत्रांतल्यान
प्रार्थनेक
प्रीती
प्लॅना
बळीचें
बीजी
बेरीज
भागांक
भेसांत
मंदीचो
मांडयेर
मिस्क
मूर
लारा
वाटपाचो
वाडूं
वादविवादाचे
संविधानीक
सलाम
सवार
सोडयले
स्तूप
स्वीच
हक्कांचें
होप
१९४६
१⁄२
२५२
२७३
##पाचो
##िक्स
##ूल
##्सी
अद्वितीय
अल्पसंख्यांकांक
आश्रय
आस्पावला
इगर्जेच्या
इयरफोन
उपकरणांची
उपकर्णधार
उबारतले
कंत्राटाची
कुशळटायेन
कॉलांत
कोझीकोड
कोम
गूणांनी
जखमींची
जपानाक
जीपी
टाळपाखातीर
टीपी
तपासकांनी
तरणाट्यांनी
तापसी
थारावांतल्यान
निष्पादक
परवान्याचें
पाली
बिहाराक
मथळेंत
महाराष्ट्राचो
मानपा
मोदीय
म्हयन्यांतलो
येय
राश्ट्रपती
रीना
लाहोरः
लुटपाचो
वास्तवताय
विमानाच्या
विस्ताराची
श्लोक
संख्ये
संवादात्मक
संस्थांचे
सांगलीं
सादरीकरणाचेर
सुरक्षेचेर
सुलभताय
स्टंपांचेर
स्पार्क
स्पीकर
२४६
##तेचो
##र्ड
अटेंडंट
अब्दुल्लान
अभ्यासक्रमां
अल्पकाळांतल्या
असमानताय
आंशिकपणान
आरओ
आवरण
इंजिनांतल्यान
इंटेल
इमान्युएल
ईव्हीएम
उलयना
एएआय
एकांतांत
ऑफरा
कराराचे
कलेक्टराक
कामगिरीच्या
किआड
गवायाच्या
गायकवाड
ग्रँड
छायाप्रत
जुळोवणी
डाबर
डेरी
डॉक्युमेंटरी
तरणाट्यान
तरांचीं
दमो
धार्मीक
निकालाची
नियंत्रका
न्हंयेचे
पंगडांच्या
पुनर्विलोकनाची
पुर्विल्लीं
प्रवेशाच्या
प्रसारक
फायद्याखातीर
फ्रांसिस्को
बँकेचेर
बळग्याचेर
बीकानेर
बोलेरो
मंत्रमुग्ध
मंत्रीन
मालकाची
यत्नांची
युनिटाचो
योर
रेखांकन
लिंबू
लोकांकय
वसुलीच्या
वांटपाच्या
विचारलो
शब्दकोश
संघराज्याच्या
संदर्भाक
सरपाच्या
सिनेमांतय
सुधाकर
सोंपयतले
सोंपयलो
स्कोअर
स्वान
हप्ते
हरियाणांतल्या
हुंपल्या
२३९
२४१
##â€
##णा
##बाग
##मदलो
##्साची
अंतरंग
अखेरेक
अणभवाक
अनादर
अनुदानाची
आक्रमकपणान
आशयांतल्यान
आशादायक
उपभाडें
एएन
कव्हरिंग
किरणां
केंद्रस्थानी
कोठारी
गव्हर्नन्स
गांवकार
गायत्री
गुंतवणुकीं
जन्मभूमि
जालसाजी
झावेरी
डेप्थ
दुयेंसांक
दोगांयचोय
धाडपाचें
नक्सली
न्यायालयांचे
न्यूजच्या
पं
पत्रांतल्या
परिक्षेचेर
पाविल्ल्या
पिरायेंत
प्रस्तावांत
फटोवपाची
फातिमा
फायद्याचे
बॅनर
बेली
भारतीयाक
मदुराय
महाभियोग
माहिरा
मुंबयची
मॅरिन
मेरिल
म्होंव
राजधानीच्या
लक्ष्या
लीक्विडेटेड
वांगड्याचें
शिक्षकाक
संविधानाक
साहेब
सुचोवण्यांक
सुदारूं
हातपांय
हेगडे
हेडफोन
२१८
अणुऊर्जा
अदमासीत
अधीक्षकान
आंकड्यांनी
आकारा
आयपीएलाचे
उक्तायिल्ले
उत्पादना
एजन्सीचो
एसएन
एसएलआर
एसएसपी
कम्पास
कम्युनिटी
काफयेचेर
कामगिरींत
कुलगाम
कॉलेजींतल्या
कोकिंग
खावप
गुन्यांवकारांनी
ग्रांट
चलनवाडीच्या
चलनाची
चलून
जैता
जैवतंत्रज्ञान
जोंग
टायटल
ट्रिगर
तत्वाच्या
थांबली
धर्मांतर
नॉकआउट
पुस्तकांनी
फाटीच्या
बांदपाचे
भियेवन
मनयतना
माननात
मुल्यांकनांत
मोडटा
रजनीकांत
रावल्यार
रिचर्डसन
रिसोर्सेस
रुप्याचें
लग्ना
वकिलां
वळेरेच्या
विरक्त
वेळाचो
व्यायामांत
शारांतलो
समन्वयात्मक
सादता
सारकिलीं
साव
सुरवातीचे
सुरवातीचें
हागवण
हाडटना
११व्या
१९३९
२६४
३६४
##नय
अटीचेर
अन
अयन
अरुंधती
आयजी
आर१
इन्व्हेस्टिगेशन
एससीन
कंपनींतल्यान
करुणा
कव्हरांत
कार्टून
कॅथेड्रल
कोळशाची
क्रिकेटचो
क्लिनीक
खरेदीदाराच्या
खाटी
खाटीं
गिरणींनी
घालतलो
चुकीक
जिवें
टर्बोचार्ज
टायम
ट्रस्टाची
तंबू
थारचो
दर्जाचें
दिवपाचीय
दुर्मीळ
धमकावपी
धोक्यांक
ध्वनीक्षेपक
निदर्शक
नोकरशाही
पुजारान
पूरन
प्रत्यारोपण
प्रमाणपत्राचेर
प्रार्थने
फर्मांच्या
फलंदाजान
बियां
बीआर
बेनेली
मक्का
रामपाल
रीवा
लॉरेन्स
वयल्यानय
वाडोवचो
वापरलें
व्हायर
शिकतात
सघन
समाधानकारकपणान
सीआयआय
सीआरपीएफच्या
हेता
हेमा
२६३
२६९
५२०
##अप
##वप
##िल्ल्यान
आत्मो
आयएस
आवयचें
आवास
इंडस्ट्रींत
इंडोनेशियांत
उद्यानाक
एकमतीन
एकल्यान
ओडिया
कार्डांचेर
क्या
खेळांचो
गुन्यांवकारपणाक
जिल्ह्यांक
जॅक्सन
तथ्याची
नियंत्रकाक
निर्धारक
निर्याती
निळें
निवेदनाची
नोटीसा
न्यायालयांची
परिसमापक
परिसर
परिस्थितींतल्या
पांडा
प्रदेशांतली
प्रीतम
प्लेऑफ
फूल
बदलला
बांगलादेशी
बान
बोर
ब्रँडाची
भरतले
भाकरी
मसालो
महाभारत
मारतना
मोसम
म्यूट
युगांत
रामाची
लावपाखातीर
लुकसाणाची
वकिलींतल्यान
वादळाक
वादां
वाऱ्याचो
विजिलेंस
विभागांतली
विश्लेशकांचें
वुमेन
वेवस्थापकाक
शाळेन
शिवाय
शुल्काचेर
शेजारांत
श्रीधर
सप्तकांतल्यान
सवी
सांगलो
साखळींत
सादेपणान
सायमन
सुदारपाचो
सुपरहीरो
सुरिंदर
१४व्या
##पती
##ल्यार
##ेला
##ोट
अगुस्तावेस्टलँड
आदेशांचें
आयपीएलांतल्या
इश्टाक
उंचाये
उपरांतय
एड्स
एनएचएआय
एमके
कळावाच्या
कांड
कुराण
खरेदीचेर
खलाशी
खेद
गांवाच्या
गेट्स
गैरहाजेरी
गौर
घटस्फोटाची
जनमत
जनावरांची
जमातीच्या
जाळ
जोशीन
डीआयजी
तैमूर
दर्जाची
दुर्भावनायुक्त
नागरिकांची
नाटकां
निवडीची
निवडीच्या
परताव्याचो
पराक्रमी
पार्टनर
पिळगेचो
पीठ
पेन्शनाच्या
पेशावर
प्रतिरोधक
प्रवाशी
प्रोंत
फोटोग्राफर
फ्रीस्टाइल
बरींच
बशींच्या
बहुउद्देशीय
बेग
बोटांचो
मुखेल्यां
मोडप
युनिटांचो
राजस्थानाचो
रियान
रेखीव
रोहतक
लायब्ररी
लिन
लोकसंख्येक
वस्तूच्या
वागतात
वाचवंक
वादळी
वायूचें
विंडोज
शक्तीच्या
शाकाहारी
समाजाचे
सादिक
सान
सीव्हीटी
सुब्बाराव
हुजाच्या
हॉस्पिटॅलिटी
िाां
२६१
३२२
४०९
५८०
६१०
##ओन
##खा
##धी
##स्वामी
##ाथ
##१०
अकबरुद्दीन
अभिनयाची
इतिहाद
इतिहासाचो
उर्जेच्या
एक्सप्रेसवे
एप्रीलाच्या
एफएसएलाक
ओडटा
कांद्याचे
कारकिर्दीच्या
कुंज
क्रायम
खाज
गॅरी
चळवळीचो
जमातीचो
जर्मनींतल्या
जाण्ट्या
जाल्ल्यांक
जुगार
जुळटात
टाळटात
टीआयपी
तज्ञाच्या
तितलें
दुदाक
नोंदींची
नौदलान
न्हंयेक
पख्तुनख्वा
परवानगे
पातळटा
पार्श्वभूंय
फॉर्मा
फोटोंनी
ब्राहमानंद
ब्लॉकांतल्या
मशिदीच्या
महा
मानलो
रचलो
रेहमान
वाहनाचो
विगुंतवणूक
विभेदक
विमानांनी
शर्माच्या
शुद्ध
संज्ञानात्मक
साधनांत
सीमर
सुटसुटीतपणान
सुदीप
सेवांची
स्पेनांत
हुंपला
६२५
##5
##कोट
##नंद
##िमा
##ीचे
##ोड
##्झ
इतिहासांतल्या
उद्देगाचेर
कक्कर
कमांडिंग
करदात्यांक
काउन्सिलाची
कार्यक्षमतेन
केएन
क्षय
गुंतागुंतीचे
गुंथिल्लो
छत्तीसगडांतल्या
जगनमोहन
जस्टीन
जाणीव
टोपी
ट्रेडमार्क
तिबेट
तुषार
दासान
निमाणीपण
पडचे
पर्रीकारान
पातळ्ळां
पुनरावृत्तीच्या
पुस्तकांचो
पैकी
प्रतिवादींचें
फटीचे
बदलले
बळग्याचो
बालासोर
बीएसईचो
भूंयमध्य
मनाचे
मार्गार
माळयेच्या
मुख्यमंत्र्याक
मेली
मोगींक
लात
वंगण
विश्वनाथन
व्यक्तीमत्व
व्हायरसाची
शुबमन
सलवार
सारकेपणांत
सिध्दांताच्या
सिने
सुरक्षेचीं
सेकंदांत
सोनोवाल
स्टुडिओंत
२६६
२७४
२८१
३३४
४७५
##गो
##नाच्या
##बारी
50
असले
अॅप्लिकेशनां
आंजेलो
आदेशांचेर
आनंदान
आयसीसीचे
आयुर्वेदीक
इटावा
इमारतीत
इस्लामाबादांत
उपविजेतो
उरतलीं
कागाळदाराचेर
काणयेक
कॅटरिंग
केंद्रांचेर
क्रूरपणाच्या
गिटार
गीतांत
घराचेर
चक
चरा
चर्चेचो
चलयांची
जिविताक
जुंव्यावयल्या
जूनाच्या
णवव्या
तपासक
दर्ज्यांत
दुखता
देंवतली
देशांचे
ध्वनीमुद्रण
नागेंद्र
नासिर
निरिक्षणांचेर
नोव्हो
पळयताले
पायल
पूर्वावलोकनात्मक
पोस्टाचेर
प्रोफॉर्मा
बलिदान
बसूंक
बीके
ब्रेंट
मंजू
माची
मुतवल्ली
राज्यपालाच्या
लोकसभेच्या
वताली
वापरपाचें
विद्युत्दाब
विनाशकारी
विमानान
विश्रांती
व्हेल्यात
समस्यांचेर
सरमा
सुपौल
स्थितीक
स्पायडर
स्लॅब
हामिद
५०४
##धा
##ल्ल्या
##शिल्ल्या
##ीचेर
अनुसंधान
आडनांव
आडनांवान
आवडलो
उल्लंघनान
एडमिरल
एनिमेशन
कबलातीच्या
कळप
कसल्याय
कुशवाहा
खाटा
गेलान
झारखंडाच्या
तपासपाचो
तिख्याच्या
थारायल्ले
दीप्ती
दुयेंसांनी
देंवपाचो
नकली
नेपाळाचे
न्यायालयांतय
न्यायालयाचीं
पटेलान
पीडब्ल्यू१च्या
पूर्वग्रहीत
प्रक्रियेन
प्रथिनां
बदलांचो
बिल्डर
भ्रश्टाचाराचेर
मध्यान्ह
मुनसिफ
मुरादाबाद
मॅचींतल्यान
मेहुल
राकुल
राजकारणा
रामसिंह
लादूंक
लायफस्टायल
लॉकडावनाक
वक्र
वगडावंक
वाचला
शाहरुखखानाची
सातत्य
सिंधिया
सीएसआर
सुदारत
सॅक्स
सोडोवप
स्टेटस
हाजीरा
हायलाइट
हैदराबाडाक
२९६
३१९
३४५
३६३
६३०
##्सा
अडकून
अपरूप
अर्जांची
इंदर
उपकलमांत
उप्रासिल्लो
उमाळ्यांत
एजंटान
एडलवेस
कंपन्यां
कामना
काळजाचे
कुमाराचेर
कॉमन
कॉम्प्लेक्स
कोहलीची
खेळटली
गणितांत
गांवगिरे
घेवप्यांनी
चळवळीच्या
जेडएस
टोला
डब्ल्यूपीआय
तंबाखूच्या
तस्करी
तांचेमदीं
थारलां
दाखोवचो
देशाचेर
निरक्षर
पंचायतींत
परम
पिकाचें
पिळगी
पेज
प्रचाराच्या
प्रतिपिंड
प्रदेशाचेर
प्रेरणादायक
फार्मसी
फॅक्स
फॉरेस्ट
फॉर्च्यूनर
बंदीच्या
बझ
बांगलादेशाची
बिल्डिंग
बीडी
भुट्टो
मतपत्रिका
महाल
मानला
मिथुन
मुठ
मेकअप
यंत्रणेंत
युनिव्हर्सल
यूसीओ
येणावळीची
राष्ट्रविरोधी
वकफ
वकिलांक
वाक्यांचो
विमानांचो
विवेकबुद्दीचें
विश्लेशणांत
व्हीव्हीएस
शस्त्राक
संन्यासी
सहकाऱ्यां
सांबाळपासारकी
सीडीएमए
सुबोध
सुरक्षेचे
सुसंस्कृत
सेटांनी
हारयले
हृदयविकार
२२९
३१६
३८९
##कच
##िश
##्रो
आयएएफच्या
इतिहासांतली
इश्टांनी
उगडटा
एमपीआयडी
कर्मचाऱ्यांचे
कायदा
कॅपिटलाचे
खाल्ल्यान
गीताक
गुन्यांवकाराचेर
घेवपासारक्या
चुकीचीं
जेएमएफसी
जोफ्रा
टर्बाइन
टीडीपी
तकले
तोंडातल्यान
दस्तावेजांच्या
दाखोवची
देशद्रोह
दोतोराची
दोनांय
धरना
धातूचो
निशाणें
न्यूजचो
पदार्थाचो
पार्टीन
पाळीव
पुर्विल्ली
पोस्को
प्रवर्तक
प्रवेशदाराचेर
फावनाशिल्ली
बळग्याच्या
बांदकामांत
बियाण
बीट
बौद्ध
मंडळाचेर
महंत
मालकांच्या
मिशनाच्या
मॅचीची
मेळयल्लीं
म्हणिल्ल्या
रिकामो
रिणाकारान
रेरा
रोखड्या
लादपाचो
वांटपाचो
वाळवंटी
विभागाचें
विश्वचषकाच्या
व्हीआयपी
शांततायेचो
शिंपडून
शिकवण
शिर्के
संबंदींचो
सकयलो
सरतलो
साडे
सूर्यकुमार
स्पश्टीकरणा
स्राव
हस्तांतरणीय
हुगली
१जीबी
१९४४
२४२
२४७
##डिया
##ल्यात
##ाद
अभियान
आउटलेट
आरा
उक्तायिल्लीं
उदास
एआर
एमबीपीएस
करप्या
कलात्मक
कुटुंबांतल्यान
कुडींतल्या
कुलभूषण
कृत्यांनी
गणपती
चडश्या
चाळीस
जाणात
जायरातीच्या
जिल्ह्यांच्या
जीपीएमसी
टक्क्यांमेरेन
तत्वाचें
तृतीयक
दिवपाचोय
दूषित
देखाव
देवघर
देशपांडे
दोळ्यांतल्यान
निर्मात्याच्या
निवळायली
नेमाळें
पंचवीस
पतंग
पयश
पाचवीं
पातळ्ळ्यात
पीएसआय
पुर्विल्लो
प्रतिनिधीत्वांत
फेलो
फ्रँकलिन
बँकांचो
बोगदो
मड्याची
मेजतले
म्हयन्याचो
येवजणेचे
राजकन्या
रोहनप्रीत
लग्नांतल्यान
लुकसाणाचो
वळखीच्या
विभागाची
वैचारीक
शॉपिंग
संबंदांक
समग्र
साडेतीन
सादरीकरणाची
साध्वी
साहित्यां
सीआरपीएफचे
सु
सुदारणांक
सोसायटीचे
स्टँडी
हरशीं
२८३
३८५
४६३
५१०
##ीज
##ील
अत्यावश्यक
अधिकारीय
अपीलदाराकडल्यान
आंबट
आचार
आतंकवादाची
आधुनिकीकरण
आयएएफान
आयएम
आयएमएफ
आर्म
इंग्लंडचो
उत्तराखंडाचे
एकाउंटंट
एक्सआर
एनझेड
एप्रिलिया
काणये
केजरीवालाच्या
खांद्यार
गर्भधारणा
गुन्यांवकाराच्या
गैरवेव्हाराचो
चांचण्यां
चिंतेचें
छावणी
जैसलमेर
तज्ञांचें
दराचे
दिग्दर्शनाच्या
दुस्मानपण
धाम
नाग
नाराजगी
निवाड्याचो
निशेधांत
नेहरा
न्याय्यपणान
न्हयकारपाचें
पत्रकांत
पद्दतींतल्यान
पद्म
फोर्क
बॉलीवूड
माला
मेळाव्याक
लागतलीं
लेखकान
लेलंड
लॉबी
वागणुकेचेर
वाणी
वायूच्या
विक्रिया
विज्ञप्ती
वेव्हाराचें
शिवसेनाचे
श्रध्दा
संचालकाची
सगळ्यांची
सहकार्या
सिग्नल
सिनेट
सीझनांत
स्टारर
हंस
हौशी
१९००
३३७
##दर
##बाय
##बीन
##ासयत
अध्यक्षपदा
अनियंत्रीत
अभिजीत
अभियोजका
अॅपा
आरोपपत्राची
इमारतीची
उत्तेजन
उप्रासल्यात
एग्रो
एनआयएच्या
एनए
एमसीआय
कंवचेच्या
कागदपत्रांनी
काडल्यार
कापपाचो
कास्टिंग
कुवेत
कुसल
कॅम्पसा
गंगोत्री
गिफ्ट
गुप्ततायेचो
गुळगुळीत
घटका
छत्रपती
जिणेचेर
जीवघेणी
ज्वेलर्स
टांक
टेक्सास
तपासली
तिख्याचे
धुवप
नजीब
नटराजन
नर्तकी
नाश्तो
निर्देशाक
पडटाले
परिणामां
पांडय
पीसीन
पुनेरी
पॅनेला
प्रोग्रामिंग
फॅक्टर
बरयले
बिक्रम
मतभेदी
मत्सर
महालेखा
मानचे
म्हयन्यांतली
युतीचो
येरादारीचेर
येवं
रामजी
रेल्वेची
लीटर
लोअर
वाटपांत
वावुरपाक
वेटिंग
शिक्षणाचेर
संचालकांच्या
स्पश्टीकरणाच्या
हालपी
५६२
##ंस
##देवी
##ाज
##ीचें
##ौ
अभियंत्याक
अर्थहीन
अॅट
आदरान
आदारिल्लीं
आरीफ
आर्चर
इंडीजांत
इशान
इष्टतम
उगडलो
उशीराक
कर्मचाऱ्याचेर
काडलीं
कानांत
कुटुंबासयत
कुलगुरून
कॅन्सराचो
खड्डो
खावपी
खेळांतल्या
खेळ्ळ्या
गोपीनाथ
ग्रंथी
घडोवपाक
चर्चे
जनरेटर
जांजगीर
डाउन
डिश
थराचेर
देंवतलो
देखावे
धबधबे
नात्यांतल्यांक
नियतीच्या
नॉच
पत्रांची
परिणामांचो
परिणामाचो
पाटणाचो
पातळेचे
पाळ्ळां
पिकयतात
पुतांक
पुश्टीक
पूज्य
पोक्सो
प्रवाशाक
फीडर
बाळगिता
बाहुबली
भेटेक
मनाचो
मेरेनचें
मेल्लीं
मोहालींत
याचिकांच्या
येणावळींतल्यान
रावतली
लावार्थ्यां
लूप
लोकशायेंत
ल्हारांचो
वाचचो
वाडी
विल्सन
विवेकबुद्दी
वेढा
शस्त्रांनी
शांततायेच्या
शेजाऱ्यां
संभावना
संस्थांचें
सत्तेचेर
सावित्री
सेटांत
स्टोराचेर
हस्तांतरणाची
हायस्कूल
२९३
३३३
३५६
८६०
##ंज
##जीन
##पेट
##बॅक
##वाड
##शील
अपीलदारांचें
अवमानना
आंगांनी
आख्यायिकेप्रमाण
इंजिनाची
इंटीरियर
उत्पन्नाक
उद्देशांखातीर
ऑर्गनायझेशन
कंत्राटदाराच्या
कंसांत
कपड्यांचेर
कर्तव्याक
कांद्याच्या
कागीसो
काळखांत
काश्मीरांतली
कोल्लम
ग्रीस
ग्लोब
चॅपल
डॉक
तपासणेच्या
ताळेबंदांत
दक्कन
दाटाय
दिवं
दुग्ध
धन
धांवड्यांचें
नदीम
नूतनीकरणा
ने
परिवर्तन
परिसमापकाक
पुण्य
पुरवणेक
पुर्विल्ले
पॉंटिंग
प्राधिकरणांक
फार्मास्युटिकल
फॉर्मेट
बँक्स
बब्बर
बेअरिंग
भक्तांची
भाड्याचो
भारतांतय
मंगलम
मनशाकडेन
मुक्तताय
मुख्यमंत्र्यां
मेरेनचे
मोडा
मोहपात्रा
रंजीत
रांदपाच्या
रेल्वेंतल्यान
रोंपे
वांगड्यां
वांटे
वाडयल्लो
वाडींत
वाहनांच्या
विधानसभेन
विसरून
वेपाराचें
शकील
शाळां
शिबिरांनी
शिवकुमार
शोभा
सत्तेखाला
सरिता
सिद्दारमैया
सिन्हुआन
सुवातांचेर
सोनवीर
सौभाग्य
स्टायलीश
०१६
##चेरूय
##शिल्ली
##्लो
अधिकाऱ्याचे
आस्थापनां
ईएमडी
उपासना
एमसीए
एयूएम
कवटी
कारकिर्दीची
केंद्रांक
गुन्यांवकारपणाचेर
घोवाचेर
जागा
झुजता
टॅब
टेली
ट्रान्स
ठाकुरान
डिझायनाच्या
डिपॉझिटरी
तंत्रज्ञ
तियात्रांत
दिसांचें
दोगांकय
नंबराचेर
नर
नागरीकांक
नाला
निरिक्षणाच्या
निशेधाक
पतपुरवठ्याच्या
पद्दतीं
पानांनी
पिकनिकेक
पीपीएफ
पूर्वगरज
पेप्सी
फ्लोटिंग
मगध
मिटराक
मिठाय
मिसरा
मोर्टार
याच्या
रायट
रॅकेट
लिंच
वापराच्या
वायुसेनेचो
वाहनांचेर
विजिलेन्स
व्यू
व्हेल्या
संसदेचे
समावेश
सर्वर
सहकार्याचो
सिल्वा
सोडूंक
स्टेशनांतल्या
स्तन
हमीच्या
हातबरपांत
३०८
३५५
३६६
४१७
७६५
##अर
##इन
##गान
##पट्टी
##्वर
अधिकारक्षेत्राबगर
अल्ट्राटेक
अहलुवालिया
आखाती
आबे
आवृत्त्यो
इंजिनियर्स
उन
एमबी
ओएमसी
कळसांत
कळोवची
कापलेले
केल्ल्याचेंय
कोटींचो
खाजगीकरण
ग्रेडेशन
जापसालदारकेच्या
जैताचो
ज्योतिरादित्य
टायटन्स
डब्ल्यूएचओ
तान
तिख्याची
थांबलो
धर्माची
नाचाच्या
निशा
निषाद
पशुवैजकी
पात्रा
पाळचो
पीडीएस
पूर्णिमा
फर्माचे
फांट्यांत
फारीकणीचो
बरयतना
बाजारपेठेचे
बिशप
बुध्दिबळ
भोगपी
मरणां
मलय
माफिया
मायनिंग
यंत्रणेच्या
युनिटांचेर
योगेंद्र
रशियेक
रशियेच्या
लखनौच्या
लायनअपांत
लिपी
वांटपाचे
विक्रीचे
वेळाच्या
वेवसायिकांक
व्हायरसाच्या
व्हिडियोक
व्हिलेज
श्वास
समर्थकांक
सासऱ्यांच्या
सुब्रत
सेन्सेक्साक
सोंपयिल्लें
सोबीतकायेक
हम
१९४५
२८९
२९४
३०९
##ंच
अणुशस्त्रां
अनूप
अवलंबन
आरुशी
आसल्यारूच
इटिओस
इमारतींनी
उगडटना
उद्देशपूर्ण
एक्सट्रीम
एफडी
कर्णधाराक
कळोवचें
काती
केनरा
जकार्ता
जिल्ह्यांतले
टीशर्ट
डोप
ड्रॉप
तरंग
तांदळाच्या
तांबडी
तालुक्यांत
दुरुस्तींत
देब
दोतोरां
दोशाक
नागराज
नुस्तेंमारी
पडपा
पद्दतीचें
पॅकेजी
प्रदर्शना
प्लांटांतल्यान
फाटलाव
फ्लाइट
बजरंग
बांदल्यांत
बेचारा
बेजबाबदार
बेशुध्द
भरपी
भुरग्यांनी
मानान
मुद्द्या
मॅरीन
मेंदवाक
यांचो
याचिकेचें
राघव
राष्ट्रांत
लवादांत
लुंगी
वर्तमान
वर्सांचेर
विरळ
वीरभद्र
व्यायामा
शिकलां
शिरोमणि
शुक्लान
शोशून
संशोधनाक
सद्भावनान
समर्थकां
सीएफओ
सेटअपांत
सेर्टिओरेरी
सेलान
सोंपतली
स्कॅनरा
स्टॉकाचेर
हस्तक्षेपाचो
हॉर्स
होळी
२८२
३१४
५०२
९६०
##गल
##्नी
##००
अधिकारांच्या
अपघाताची
अस्वीकार्य
उडयल्ले
उत्पादनांचे
एनएसईच्या
एफपीआय
ऑप्टिकल
कॅग
कॅटेना
कॅलरी
कोंकण
खेळपाचें
गगन
गडगड
गर्भाशय
गवायांनी
चंद्राचेर
जीब
टाउनशिप
ट्रिम
ट्रॅक्शन
डियरनेस
ताबू
तोंडपाठ
दरगाह
दिवपाचीं
दीक्षा
दीक्षांत
दुबावाची
देहरादूनः
धाकटी
धोरणाचें
नोटीसाच्या
न्यायाधिकरणाच्या
न्हिदपाच्या
पक्षांतलो
पर्यावरणाची
पावसाचे
पिकोवपी
पीसीबीन
पुनरावलोकनाचो
प्रक्रियेची
प्रमोट
बाजारपेठेंतल्या
बायोपिकांत
बुल्स
ब्रँडांचो
भोंवता
मलेशियाच्या
मालिकेंतल्या
मेळोवचो
मोबिलिटी
रांचींत
राजपूतान
लादपाची
लेस
लॉर्डशिप
वर्गांतली
वस्तूची
विजयान
व्हडलेंशें
श्रीसंत
संगीताचो
सगळेंच
सांगना
सुष्मिता
स्पश्टीकरणाची
हक्कानी
३१७
४०५
५५००
##कारान
अनियमितताये
आदाराचेरूय
आपणायलें
आमदारान
आहारांत
इराकी
उंचायेच्या
उखलप
उबेर
उमळशीक
ऊंसाच्या
एसओ
ओएम
कन्नूर
कागदपत्रांक
किलोवॅट
क्लबान
खूप
गलिच्छ
ग्राहकांच्या
घेवपाच्यो
घोशणापत्राच्या
जलाशय
जामनगर
जावपाखातीर
जिल्ह्यां
ताचेवयल्यान
त्रासा
नियमितीकरणाचो
पंजाबाक
पचन
परिपत्रकाच्या
पावतना
पिक्चर
पीस
पी५
प्रशासनाची
प्रॉक्सी
प्रॉपर्टीज
प्लाझ्मा
फायद्यान
फोर्ब्स
बीबीसी
बॅश
बोरा
भूपेंद्र
भ्रश्टाचाराक
मंचाच्या
मानसिंह
मारचो
मार्गां
मिडियाचो
मुठीभर
रामगढ
राष्ट्राच्यो
लखन
लखीमपूर
वगळून
वाडोवची
विव्होन
वेल्लोर
शिवा
शुल्कांत
संधू
संबंदाची
संस्थेचें
सरोवर
सांपडल्यात
सावनूच
सुखना
सुरत
सुवातींचो
सेकंदां
सोयीन
स्टॉकांनी
स्नो
हदीस
हवामानाच्या
हांतल्यान
हालचालीचेर
हालोवन
१९३२
२३१
२३६
९१०
##नांत
##ावन
##ौली
अँबॅसेडर
अंजली
अपीलदारचो
अरुणा
आपयल्ली
इगर्जेंत
इम्तियाज
उपदेश
एकसारकें
एफआयआरचो
एमईएन
एसबी
कंपनीनय
कक्षेंत
क्रिकेटांतल्या
खर्चाचे
खादी
ख्यास्ती
गजालींचें
गुंतागुंतीचें
ग्लेशियर
घरांचो
चलूंक
चेंबर्स
चौकटींत
चौधरीन
जौहराच्या
टाळपाची
डॅनीश
डेमोक्रेट
तली
तेलंगाना
दरय
देवीचो
दोळ्यां
धरणाक
धिटाय
नम्रताय
नाथू
निजामुद्दीन
नितीमत्व
नितेश
न्यायालयांचें
पडचें
परिपत्रकां
पळे
पीटरसन
प्रवाहाचेर
फजल
फायद्यांतल्यान
फोर्टिस
बदलतात
ब्रॅड
ब्लॉग
मंत्रालयांतले
माळेच्या
मेळपाचे
मोडपा
रजिस्टरांत
रायगड
लिमिटेडाक
लीड्स
वादींची
व्हरची
शिफारशींचेर
शॉक
श्रमीक
संकर
संख्येंत
संविधानांतल्यान
संहितेची
सना
सीआरपी
सीबीआयक
सुंदरम
सुको
सेबीक
सेवकांक
सोडना
सोदांतल्यान
सोदूंक
२६७
२६८
४५२
##â€Ÿ
##ग्राम
##विरोधी
अधिभार
असलम
अ५
आनुषंगिक
आरोपपत्रक
आल्बमांत
आशिल्ल्याचे
इंस्पेक्टर
उगडूंक
उडुपी
एडीडी
एव्हिएशन
ओबामाक
कलेचो
कालच्या
काळजाचें
कुंवर
कुलीन
केरळाच्या
कॉर्पोरेशनाच्या
कोरोनाच्या
क्रमांकीत
क्षणांत
क्षेत्रांक
खर्गे
गांधीनगरांत
गिरायकाच्या
घरांच्या
घालचें
चप्पल
चव्हाण
जाफ्री
झुजपाची
डेटाचेर
ताणेंय
तारखेची
तेज
दाखयल्लीं
दुख्खाचो
दुयेंसांतल्यान
दुयेंसाचेर
नगरपालिकेच्या
नाल्ल
पडनात
पांयाचेर
पूर्णताय
प्रकरणांतलें
प्रभुत्व
बँकेंतल्या
बंदरांत
बरीं
बर्फाच्या
बलरामपूर
बांदता
बेहेरा
भुवनेश्वरः
मंगेशकर
मिराज
मुनरो
मेकर्सांनी
मेळयल्ल्यान
मेसेज
युनिटांच्या
युव
लो
वर्माक
वहाब
वास्तुशिल्प
विशयांतल्या
विस्वासाची
व्हेल्ली
शेअराचें
समित्यांनी
साकारली
साठ्यांत
साल
सीजेएम
सोंपयलां
सोंपोवपाचो
हनीफ
हुसेनान
२७१
४३३
४६८
##कल
##पद
##सो
##्यांच्या
अखंडपणान
असिस्टंट
अ३
आझरबैजान
आडव्या
आसामाचे
इंडियाबुल्स
ईपीसी
एनआयसी
एनडीटीव्ही
ओळीं
कसोटीचो
कार्यपद्दत
केजरीवालान
कॉन्स्टेबल
कॉला
गढ
गुंतवपाची
गोएल
घंटी
घालूं
चिन्नाचें
जीवशास्त्र
जी७०
जोरहाट
टाइम्सान
टाळटा
डीके
डेन्मार्क
णव्वद
दिव्य
नवेंपण
नारंग
नियुक्ती
पुष्पा
पोस्टांचेर
प्लॉटाचेर
फंडाचे
फेम
बर्फान
बांदपी
बॉर्डर
भाशेचें
मंगळार
मतदारसंघांतले
मागणीचेर
मातयेंत
मान्यतायेची
मिलिंद
रिव्ह्यू
रुपयाची
रेमिटन्स
वसीयतकाराच्या
वसुलीची
विज्ञानीक
विलास
वेपाराचो
वॉशिंग्टनांत
संघटनांचो
सापळो
सिंधी
सिमेंट्स
सुकें
सॅप
सेगमेंट
सैनीक
सोम
हल्लेखोरांक
हांवूय
हॅरिस
२७६
२७७
३९५
४६७
##घर
##ट्टी
##तकच
##यता
##सारकें
##िता
##्न
अध्यापन
अपीलांचेर
आतंकवाद्यांची
उजवाडायली
ए३
ओव्हरींच्या
कराचेर
खातून
गंवाचे
गोरे
गौआहर
घटकांचें
घालतालो
चॅलेंज
जल्मल्ली
जेरी
टायल्स
ट्रॉमा
डेटाचो
त्रुटी
दिल्लींतली
दिसाळ्याक
देंवतले
धरणाच्या
धुकलली
नमुन्याची
निर्देशांकाचेर
पंचनाम
पदार्थांचो
परिशदेची
पिकअप
पुताची
प्रस्नाच्या
बिल्डअप
बीए
बीडीएस
भितरलें
भोगपाक
भोपाळांत
भ्रश्टाचाराचो
मजतीची
मतदानाचेर
मतदारसंघा
मालाचेर
मेक्सिकन
मॉडर्न
मॉर्टम
रायबरेली
रिद्धिमा
लायतले
वापरप्यांच्या
विद्यार्थ्यान
व्हायरसाक
शटल
शेतांनी
श्रीवास्तवान
संघटनांच्या
सदक
सभाघराच्या
समन्वयीत
सरताज
साउंड
सामना
सारकींच
सेवका
स्टील्स
स्टोरांतल्यान
स्थलांतरीतांक
स्पश्टीकरणात्मक
२८७
४३५
६९०
७९९
##फील्ड
##वत
अधीक्षकाक
अभिमानान
आयईडी
आराध्या
आसचीं
इंडीजान
उखल्लें
उजवाडाची
उडोवपी
उद्यानाचें
उबदार
उर्मिला
एम३०
ओळी
कन्याकुमारी
करूंया
काठमांडू
खंडाच्या
गिनी
गैरवेव्हाराच्या
जळपाची
जाग्याच्या
जियोन
जेकब
झारखंडाचे
टांकयो
डिझायनाचे
डीसीपी
तपासणेचो
थॉमसन
दक्षिणेकडेन
दराचें
दळाचो
दुरुस्तीची
दूरध्वनीचेर
दोगांयकय
दोगांयचेर
द्रविडान
द्रव्यमान
धाडिल्लें
धीरज
नाडी
निवडींत
प्रधानमंत्रीपदाच्या
प्रोजेक्टर
फीचर
फुलपी
फूटाक
बंदरा
बेसबॉल
बॉलांच्या
बॉलान
बॉसाचो
ब्रह्मपुत्र
भलायकेची
भस्म
भोला
मंडप
मलावरोध
मस्जिद
मिशनांत
मुल्ला
मूवी
रशिये
रांचीः
रेकॉर्डांतल्या
लोखणाचो
लोहिया
विनियोग
विभागल्यात
व्हरचे
व्हरतलो
शिथिल
शेफील्ड
संक्षेप
सरतले
सादून
सुटयो
सुपरवायझर
हातरस
२५३
२५९
३९८
५४०
##ंगी
अदमती
अपरिवर्तनीय
अभियंत्याच्या
अभिव्यक्तीच्या
अहवालांतल्या
आंगांची
आचरणांतल्यान
इराणाच्या
उद्देगधंदे
उधमपूर
एसीपी
कर्तव्याचेर
काणयेंत
किर्लोस्कर
कृतींक
कॉन्सेप्ट
खाशेलपणांचो
घोडे
चालीरिती
चोमो
चोय
टाळ्ळें
ट्रांझिट
डीएन
तत्वाचो
दाव्याचे
दिवपांत
दुस्मानपणाक
देसी
न्यायशास्त्रांत
न्हंयांनी
पांवड्याक
पॅड
फटोवपा
फुडाऱ्यांचेर
फुलांच्या
बस्ती
बांदकामाक
बाराच्या
बॉम्बस्फोटांत
भुरग्याचेर
मंचान
मिठी
मुंड्रा
यादवाची
येचुरी
योग्यतायेचो
रगतदाब
रातची
रेकॉर्डर
लागतली
वाठारांची
विश्वसनीयताय
व्याख्यान
शांतपणान
शारांतले
शिंझो
संकश्टां
संविधानाची
संसाधनां
सप्तकभर
समित्यो
सामाजीक
सीपीयू
सीबीएसईन
सीसीआय
सेरेना
स्टँडाक
स्थगितीचो
हनुमा
हिसार
३५७
४१४
७८७
##ॅम
अचूकपणान
अभियोजकाचो
अमेरिकेंतलो
अर्जा
अर्दें
आंतराळ
आगळीच
आवाजाच्या
इसरोन
एक्स्ट
एजंटांक
एडिलेड
कच्ची
कलमाची
कापसाचे
कार्यपद्दतीच्या
कोसळ्ळी
खरेदीदारांनी
गादयेर
गिन्यानाचो
गिरिराज
ग्रॅमाक
घडपाची
घडामोडीं
चलयल्ली
चौहानान
जामीनाचो
जिल्ल्यांत
दिकांनी
दुकानांनी
धोनीची
नाना
नेपाली
न्यायाधीशाची
न्हिदेंत
पंगडांतल्या
पातळ्ळी
पीओआय
पुताचो
पुरा
पुलिसांचेर
प्रकल्पांनी
प्रमोटरांनी
प्रयत्न
फिल्मांतल्या
फेडरेशनान
फ्लिपकार्टाचेर
बंधनकारकता
बल्लारी
बहुमुखी
भक्तांनी
मांडपाचो
मालिनी
मासिक
म्हयन्याचें
म्हायतीची
युनानी
रजनी
राजवट
लायक
लिंगीक
विभागां
वेंचपाक
शकनाशिल्लो
शक्तीचो
शाळेचे
शिक्षणाचो
शिमेचो
सपना
सर्विसेसचे
सामकोच
सासाराम
सुचयल्ले
सेटांचेर
सोया
स्वायत्तताय
हल्ल्यांक
१९२५
३१२
३४३
३६७
४१०
५०५
५३७
##कू
##टर
##यना
##वली
##वानी
##सिंग
##ांमदीं
##ाबाद
##्यांचो
अभ्यासक्रमाक
अर्जांतल्या
अहमदनगर
आकाराचें
आयएएनएसाक
आयपीसींत
आयातीचेर
आश्वासनां
इंग्लंडाची
इरोड
उद्योग
एचएलईसी
एमटीपीए
ओईए
कंत्राटां
काडात
कॅज्युअल
क्रूरपणाची
क्षेपणास्त्राची
ख्यास्तीचो
गजालीचो
घडल्यात
चपरासी
चलयतले
चलली
चलोवपाचें
चवकशीचेर
चाइल्ड
जोनाथन
डावपेचाचो
ड्रॉ
दलाई
दुयेंसा
देशद्रोहाच्या
देशांची
नियत
नेमके
नेमणुकेचे
पदार्थाच्या
पर्यटकां
पातळ्ळो
पी१०
पॅनेलाक
प्रतिज्ञापत्राक
प्रशासनाचेर
प्लॅटिनम
बंगालाक
बरयलो
बीसी
ब्रिटनाचो
भागीदाराक
मंडेला
मंत्रालयांनी
मतदानाचो
मांडप
मीटरां
मेळिल्ल्याची
मैलांचेर
मोटारींच्या
रक्षक
लिमिटेडांत
वगडावपाची
वजा
वसुलींत
वापराची
विभागांतलो
विमल
विहारी
वीरप्पा
व्यायामाक
संदर्भाचेर
सर्किटांत
सहकार्याच्या
सहमालकीदार
सीएसटी
सुसज्ज
सोडा
स्टडीज
हफीज
हाऊसाच्या
हिमखंड
हुक
१२व्या
१९२०
२२००
६७०
७०५
##फा
##बरी
##सिस
##ूक
##ोला
अठरा
अनुचित
अल्ला
अॅव्हेन्यू
अॅसेसी
आंकड्यांचो
आपणायिल्लो
आरटी
ऋचा
एडीएम
कलेंत
खाँ
गूणांची
चलयांनी
चार्जर
चैतन्य
जिका
जिणेक
जेफ
दवरचीं
दवरल्यो
दहशतवाद्यां
दांव
दिवो
धाडलीं
नागरिकाच्या
निमाणोपण
न्यायालयांचेर
प्रवक्ती
प्रिक्स
प्लेस
फटींगपणाची
भुरग्यांचे
मणि
मारल्यात
मुल्यांकनाचेर
मॅन्युफॅक्चरिंग
मोडपी
मोहिमेंत
मौनी
रहिवाशांनी
रोम
लिबरेशन
लॅम्प
लेआउट
वकिलाची
वकीलांनी
वळखपी
वाइल्ड
वाडपाचेर
वारसदारांनी
वारो
विनायक
विवा
शकताली
शारदुल
सक्रियपणान
सदस्य
सीएल
स्टीन
स्पेक्ट्रम
स्मिथाक
स्वीडन
हजरत
०२७
९८०
##मुखार
##्साक
25
अन्यायपूर्वक
अयोग्यताय
आंगण
आयचे
आरए
इंटरसेप्टर
इस्मायल
ईशान
उद्देशाची
उद्यानाच्या
उबारले
कल्पनेन
कागदपत्रांचें
कार्यकाळा
कूपर
कोणाचीच
कोणाच्या
कोलार
क्युरिया
गतिशील
गिरायका
गुप्टिल
गुरदासपूर
ग्रोवर
चित्रपटांक
छोटा
जखमेचो
डायल
डीपी
तळ्याक
तारन
दरांतल्यान
दस्तावेजांचेर
दावेदारांच्या
दिसचें
देवाचें
दोगांयची
नगण्य
निमणे
निवळावप
नोवाक
परवानगेन
पावपाखातीर
पीडी
प्रतिज्ञापत्राचो
प्रवाशांचें
प्रसिद्ध
फोकस
फ्लायिंग
बँकान
बर्ड
बशीच्या
बांदपाखातीर
बुलंदशहर
मड्याच्या
मध्यांतराक
मनप्रीत
मरे
मागणीक
मार्गदर्शीत
मिलान
मुखारय
मुजफ्फरनगरांतल्या
मूळचो
मोलां
योनींतल्यान
रणनितीचेर
लुकसाणाचें
वाडल्यार
वारसो
विकपाचें
विक्रीचें
विरोधकां
विवरणांत
वोहरा
व्याजाचेर
व्हायरसाचो
शाल
संचार
संवादाचेर
साधनाची
सेवकाच्या
स्तनाच्या
हवेची
२७८
३१८
३३१
३५२
३७१
३७९
४९५
५४३
##फोर्ड
##वाक
##शें
##िझम
##्सांत
अखंडताय
अदृश्य
उतरांत
उदेतात
उपकप्तान
एक्सेस
एडी
एनडीएमसी
ऑर्थोडॉक्स
कॅथरीन
क्रीजचेर
खलनायक
गजालीची
गिरायकांचो
गुणात्मक
गुन्यांवकारांची
घडोवंक
घुंवळे
घेतलों
घेवच्यो
जेएसपीएल
जैतांत
टक्क्यांवयर
डझना
डब्ल्यूपीसी
दंगलींत
दळांत
दादल्यांनी
धांवड्यांचेर
नागेश्वर
पातळिल्ले
पीएलए
पेंट
प्रस्नय
बॅचलर
बेअर
बोबडे
भाताच्या
मंगेशी
मंदीच्या
महाविद्यालयांत
मातयेची
माळयेर
मुल्यांकनाक
मेळपाच्या
रत्नागिरी
रस्त्याचो
रांचीच्या
लावप्यांनी
लोकप्रीय
लोकहिताच्या
वचनबद्ध
वळखना
वस्तूचेर
वेगळोच
वेपाराची
शांतानंद
शाहाच्या
शिल्प
संकश्टाचेर
संवसारभरांतले
संवादाक
सबस्क्राइब
सुर
सेमीफायनलांत
हुकुम
होम्स
३३८
४५५
७४७
##गन
##्हा
अदिती
आढावो
आयपी
इफेक्ट्स
ईपीएस
उदकापोंदा
उमेदवाराचेर
एसडीओ
एसडीजेएम
एसबीआयच्या
ओडब्ल्यूपी
कृष्णमूर्ती
कोरियाक
कोळशाचे
खटले
गांवा
गाडयेंतल्या
गाळ
ग्रह
घेताली
घेवप्यान
छापणावळ
जाग्यांच्या
झुजाचें
टप्प्यान
डेल्टा
तशे
तां
थारची
दरबारांत
दळांची
दवरपाचेर
दुदाचें
दुदाचो
नळयेंत
निर्णयांचें
निष्क्रियताय
नोटीचेर
न्हयकारल्यार
परवानोधारकान
पर्यटनाचे
पशुधन
पुरस्कृत
पेंडंट
प्रशिक्षणांत
प्रस्तावनांत
प्रस्तावांक
प्राधिकरणाचें
प्रायोगिक
फार्सा
बाजारपेठेचें
बाण
भरिल्लीं
भागीदारांच्या
भाड्या
भाशणां
भेटीच्या
भोंवतणचो
मंजीत
मताची
मसुद्याच्या
मिल्खा
मुंगेर
मेळनासतना
याचिकादारांचीं
युतींत
राजकारणाचेर
रामनगर
रॉजर
वगडावपा
वागपाचें
वादय
वापरतालो
वापराखातीर
विद्यापिठांतल्यान
शिंशें
शेतकारांकडल्यान
श्रीलंकेचेर
संकश्टाचो
संलग्नताये
सांबाळटले
सिंगाचे
सिरियांतल्या
सुखदेव
सुरक्षेक
सुरजीत
सेगमेंटांत
स्पेनीश
हेल्पलायन
हेल्मेट
३३२
३६२
८०००
##ानय
##्यांची
अंकीत
अकाउंटंट
असगर
अॅलॅस्टर
आडावपाचे
आयकता
आयकल्या
आवारांतल्यान
इराणाक
ईपी
उमेदवारांचेर
एजीएन
एनके
ऑरोरा
कायदेशीरपण
कारणांची
काळामेरेन
केबीसी
कोल्हापूर
क्रॉसओवर
खणींनी
खाता
गळती
गिरणीं
गुजरातचो
गुडगांवांत
चडपाक
चर्चेंत
टीआरपी
डिव्हायसाची
डीटीसी
दायित्व
दिसाळ्यांच्या
नेमपा
नेशन
पापुआ
पावयलो
पुस्तिका
पेट्रोलाचेर
प्रवेशद्वार
फतेहपूर
फ्रॅंक
बशींची
बसल्यात
बाटलेंत
बिमल
भरचें
भुमिकेचेर
भूपेश
मजीद
मातयेचो
मियामी
मुंशी
मेटालिक
मॉडेलिंग
याचिकादाराकडल्यान
रडार
रमण
राज्यवर्धन
रेशमी
लावप्यां
लीव्हर
वरांनी
वागणुकेचो
वाठाराचें
वारसाहक्क
विलीनीकरणाक
वैष्णव
वॉटरड्रॉप
शिकयतात
संघटनांचे
संपादकीय
सांबाळटलो
सिडनींत
सुर्यास्त
सोंपपाच्या
हमीरपूर
हवा
हायमन
हेरांचो
४३८
##4
##ंच्यो
##तायेचो
##पणाचेर
##राय
##शाह
##शे
##सांत
##्शन
अधिकारांचेर
अनामिक
आगळोच
आज्ञाभंग
आरएसएसचे
आर्मेनिया
इंटेलिजन्स
उजवाडायल्ल्या
उणावाची
ओरस
कपड्याचो
कॅमेऱ्या
कॅमेऱ्यांत
कोरम
कोलगेट
खड्ड्यांत
खणीं
गुंजन
गेमींग
गौहाटी
घडना
चहार
चौबे
जापसालदारकेचो
जिवितांतल्या
झरे
ट्रॅकिंग
डिबेंचर
दंडाधिकाऱ्याचो
दवरतां
दादा
दाह
दियात
दुयेंतींतले
दुर्बलताय
नळी
नारीवादी
नियोजनकार
पंचायतीचे
पतपुरवठ्याचो
पीएमएलएच्या
पीएसएलव्ही
पूर्वग्रही
प्राचार्यान
फूड्स
फ्रांसा
फ्रीडम
बरोवप
बशीचेर
मंगळ
मशरूम
महोत्सवाच्या
मागणे
मालाबार
मुख्यमंत्रीपदाचो
मॅकडोनाल्ड्स
मेंदवाचो
यादवी
रशियेंतल्या
लाहोरच्या
वर्सांचें
विशयाची
विस्ताराक
वेंकटेश्वर
व्यायामाचो
व्हिएन्ना
व्हेंचर
व्हेंटिलेटर
शंभू
शिकिल्ल्या
शैलीन
श्रम
सत्तर
सरतालो
सर्तीचे
सर्तीचें
सेवांक
सैनिकाची
स्वरूपाची
हुंडई
हुमा
१८९७
३७४
४५१
##इट
##पत्र
##ेम
##्ह
40
अंदमान
अलीच्या
अवतारांत
अश्या
आंकड्यांचेर
आमला
आरकॉम
इंडियांत
उतावळपणान
उपक्रमाचेर
उबारलो
एंगल
एमआर
ओमप्रकाश
कलेच्या
कुरकुरीत
कूंड
क्लियरिंग
क्वाडकोर
खंदक
खिशांतल्यान
गिमाळो
गोड्या
ग्रेग
चलताले
चांद
चिदंबराम
जनावरांचें
जुळोवंक
टाळपाच्या
टीआय
डबे
तेचेर
थीम
थोक
दवरिल्ल्यान
दितनाच
निरिक्षणांच्या
निवेदनाक
निश्कर्शात्मकपणान
पदार्थाक
पद्दतींक
पर्थ
पी९
फारीकणीची
फुडाऱ्यांची
बंगालाच्या
बट
बसना
बानू
भलायकेचो
भोंवपाची
मंसूर
मेघना
याचो
राजकारणाक
रिणकाराक
रेल्वेचो
लघु
लुपिन
वकिलांच्या
विमानांच्या
वेगळीच
वॉ
व्हर्जिन
व्हिक्टर
व्हेन्यू
शबाना
शर्मिला
शिस्तभंगाच्या
शेतवडी
संगीतांत
सर्टिओरेरी
सिनेमांतलो
सीव्ही
सुटे
स्टेशनांचेर
हंगामांतली
हॉस्पिटलान
१२५सीसी
२९१
३२८
४०३
४७६
##दीप
##मणी
##वूड
##१२
अंतराचे
अकुशळ
अत्याचाराची
अनपेक्षीत
अॅपांचेर
आंतरबँक
आदींच्या
आयआयपी
आयुक्ताची
आसपा
आस्पावल्या
इंटरमीडिएट
उप्रासल्ल्या
एकामेकांचेर
एलटी
एस्टोपेल
ओआय
कंबला
कातीचेर
कार्यालयांनी
काळांतरान
कॅल्शियम
कॉपर
कोठयेंत
खेळगड्याचो
खेळचो
गिरायकान
गॅंग
घटकाचो
घोशणापत्राची
चंदेल
चान
जमनीवयल्यान
जातीचे
जेणे
तरणाट्यांच्या
दाखयल्यांत
धुकलल्या
धूम
नगरांतल्या
नाताळाच्या
निगमन
निर्भया
नुस्तेकार
पद्दतींनी
पाळचे
पावलांचेर
पीएलसी
प्रतिस्पर्ध्यां
प्रवेशदार
फावंडेशनान
फिकट
फुडाऱ्यांचो
फॅन्टासी
फ्रांसांतल्या
बँकांचें
बँकांचेर
बरयलीं
बळग्या
बॉलांत
भट्टी
भागाचें
मंदताय
माजर
मानका
माही
मेहसाना
मॉडेलाक
युथ
रमजान
राज्यसभेच्या
रेमंड
रेल्वेंत
वस्तूचो
वांगड्याची
वांट्याच्या
वाचलें
वादांच्या
विचारल्यार
वेन
व्हिटॅमिन
व्हिडियोय
संरचने
सहारनपूर
सादरीकरणांची
सासऱ्यांनी
सिएरा
सिलिकॉन
सुखबीर
सुदारतली
सुमीत
सोंपयतकच
सोसायटीची
हांच्यो
हुंडो
हुज
३८६
५८५
९११
##3
##िरा
##ुम
अप्रोत्साहन
अर्जदारांची
आपयतना
आवडीचे
इराणान
उडयल्लीं
उदकाचेर
उप्रासला
उलयिल्ल्या
एकसारके
एमआरटीपी
एलएस
ऑफिसाच्या
कबलातीचेर
काडल्यो
कूपन
कैद्यां
कोरांतिल्लीं
गल्फ
ग्रंथांचो
घोशणापत्राक
छप्परा
छाप्या
जाम
जिल्लोधिकारी
जिहाद
ज्युलियन
टी२०आय
टॉक
डिव्हायसा
तळमजल्यार
तेजी
त्रावणकोर
त्रिकोणी
थायरॉयड
दळांनी
दामोदर
नमुन्यांचे
नांवांचो
नियमांत
निर्णयाचेरूय
निवळावपाची
निविदां
पर्यटनाक
पातळिल्ली
पाळटले
पीसीबी
पूर्वजांची
प्रकाशनां
प्रभात
प्रवासाचेर
फर्मायल्ली
फोनांतल्यान
बांदूंक
बीन
बीरेंद्र
बॅंग
ब्लॅकमेल
भांडवलांत
मंत्र्याक
मताधिकार
मांडल्लो
मातयेचीं
माळयो
मुखेल्यांक
मुसलमानांच्या
मॉडेलां
युक्तीवाद
राजाचो
रोजगाराचो
लागल्यो
लिपोवपा
लोकप्रियपणान
वागपी
वाडो
विचलन
विदर्भ
विद्युतीकरण
वैष्णो
शिमोगा
शिवलिंग
शिवसेनाचो
शिवाची
शोवीक
समन
समाधानाचेर
सांतनर
सांबाळपाखातीर
सिग्नेचर
सीएजी
सीएमपी
सैनिकाक
सोमार
हबीब
हल्ल्याचेर
हस्तांतरणाक
हावसिंग
हिरे
हॅपी
३४७
४१८
५९०
##आयएल
##वंक
##शास्त्रज्ञ
##साचो
##सीच्या
##्सन
अंतरिक्षयात्री
अंतर्दृष्टी
अंबुजा
असोसिएटेड
आंजेला
आयएलआर
आयटीएटी
आरोग्य
आरोपीनी
इतिहासाची
उपायांची
उलटलो
उलोवपाचेर
एआयसीटीईन
एसआरओ
कंत्राटाचेर
कर्नाटकाक
कालावधी
कॅमेऱ्याच्या
कॅम्पिंग
केप
कोठी
कोरियांतल्या
ग्राहकान
ग्रीनफील्ड
घटकांच्या
चडप
चपक्यांतल्यान
चांदनी
जखमींचें
जिल्ह्या
जोगिंदर
झुजबंदीचें
डीप
तथ्याचे
तमिळनाडूक
तिकीटां
तुजेर
तुमचेर
दागिन्यांच्या
निधीचें
निलंबनाचो
निवळसाण
निश्कर्शा
नोकरीच्या
पंगडांतल्यान
पार्श्विका
पीडब्ल्यू२०
पॅटर्न
पोरण्यो
प्रकल्पांच्या
प्रिन्सिपल
प्रोच्या
फंडा
फावंडेशनाच्या
फेड
फेरारी
फोरम
बदनामीचो
बरुआ
बॅज
बेकायदेशीरपणान
ब्रॅथवेट
भायलें
मक्याच्या
मनशाचीं
मलेरिया
महासमुंद
मांडपी
मानसशास्त्र
मिसबाह
मेळचीं
यजमानांक
यूपीचे
येवजण्यांचो
रांदपी
राजस्थानी
रिव्हॉल्वर
लव्ह
लेखापरीक्षक
लोधी
वळखपत्र
वाचली
वापरप्यांचो
वाराणसीच्या
विधीमंडळांत
वेंडिंग
वेल्थ
वॉक
व्हीके
शेअरांचें
समस्यांचो
सर्तीक
सवलतीची
सहिश्णुताय
सांगतालो
सांगिल्ल्याची
सुदारूंक
सोंपोवप
स्व
१९३०
३२१
४३४
##2
##गम
##डन
अणभवाचेर
अध्यादेशा
असत्य
अॅलॉय
आयकुपाचो
आयसी
आशिल्ल्याचेंय
आस्पावले
इम्पेरियल
उणावाचो
उत्प्रेरक
एनएसईचेर
कँडी
कपड्यांची
कागाळदारा
कॅपेक्स
केपें
कोरियाची
खटल्यांतल्या
गेटा
चॅनलांतल्यान
चॅनलान
जर्मनीची
जातीची
जिल्ह्याचे
जिहादी
जुनैद
डाकू
ड्रामा
तातूंतय
तिकाय
तूप
थकवा
दर्ज्याचें
नारायणन
नासाच्या
निजाम
निरपराधीपणाचे
परंपरेंत
पांचवें
पीडब्ल्यू२च्या
पुला
प्रतिश्ठेक
प्रवेशाचो
प्रस्नांतले
प्रामाणीकपणाचेर
फर्नांडो
फॅकल्टी
बंगालचो
बर्गर
बोटीचेर
ब्रिगेड
भरपाच्या
भांगराचीं
मणी
मताच्या
मनशांनी
मनाचेर
महाराणा
मागण्यांक
मॅक्सिस
मोगाचो
रणनितीच्या
रिकामी
लिनो
लॉर्ड्स
लोन
वाक्यां
विद्यापिठाचें
शिकता
शिकली
संबंदींच्या
संस्कृतायेक
सतर्कताय
समितीचेर
सरकाराचीं
सादपाची
सीआयएसएफ
सुधा
सोंसता
स्मारकां
हज
हलक्या
हारोवपा
हैदराबादचो
ह्यूमन
१४वो
२७९
२८६
३८३
५०१
५३०
५६३
७६०
##तेची
##िकल
##ुंग
14
अटींत
अर्थवेवस्थेंतल्या
असमाधानकारक
आंगा
आऊटलेट
आकारान
आडायलें
आवडटली
आव्हानाचो
आशिकुशीक
आश्चर्यकारक
इन्शुरन्साचे
इलेक्ट्रिकल
उद्देगांची
उद्देगांच्या
उद्यानाची
उपकलमा
उपकाराक
उपेगांत
उलयली
एसएक्स
एसीआर
ओरिसाच्या
करप्यांच्या
कळयला
काडटाले
कार्यवाहीचें
किरोन
कॅनडाच्या
कैद्याक
कॉमिक्स
कोरोनाचे
क्लिंटनान
गज
गोनी
ग्लुकोज
घटस्फोटाचो
घेवया
चर्चेच्या
चलप
चवक
जाग्यांतल्या
जैताच्या
जोडये
झगडपाक
टीना
ट्रिब्युनल
डिएगो
डिझेलाचो
डीडा
तंत्रांत
तज्ञान
तांब्याच्या
तिगां
थांबता
दिवान
दुबावितांक
दुयेंसांचो
दोहा
धर्तरे
धातुकाच्या
निरिक्षका
नेटफ्लिक्स
नेमणुकेक
नेस्ले
नोंदींतली
न्हिदिल्ली
पंचायतीचो
पदांक
परिधीय
पळोवपाचे
पा
पियेल्ल्यान
पॅरिसांत
प्रस्तावाचो
फातरांतल्यान
फुसफुस
फेयर
भोंवप
मागोवपाक
मिलिलीटर
मेट्रोच्या
मैदानांतल्यान
मॉडेलांची
रिसीव्हर
लवादाचें
लायिल्लीं
लेजर
वारसी
विद्यार्थ्यांचेर
शक्तिकांत
शेट्टीच्या
संकल्पनात्मक
संरचीत
सामुदायीक
सीई
सुमित्रा
सेनव्हॅट
सोनाली
स्टुडंट
हाडल्यो
हासन
हास्यपूर्ण
हिरो
िी
४४५
##टीन
##डीह
##नर
##येचो
##लाच्या
##शास्त्रीय
##ांग
##ोंग
##ौल
##्याचेर
##्वा
अनटोल्ड
अव्यवस्थित
अॅश्युरन्स
आडवादांत
आदेशांतल्या
आफ्रिकेची
आलिंगन
इट
उक्तायिल्ल्यान
उरचें
एक्सायनोस
कंत्राटदारांक
कनेक्शन
कर्ण
कळनासतना
काणयेचेर
कोरबा
कोश्टकीय
क्राफ्ट
गर्भाशयाच्या
गुरूच्या
गोलंदाजांच्या
घटकांत
घाटी
घातकी
घालात
चंद्रकांत
जायतें
जावपाचेर
जोडप्यां
डिव्हायसाचेर
तज्ञांक
नेमको
नेमणुकेचेर
नेमाळ्याच्या
न्युमोनिया
न्हंयची
पदांतल्यान
पनामा
परिणामांची
पावोवपाचो
प्रतिवादींचे
प्रफुल्ल
फलंदाजां
फलंदाजाक
फाऊल
फारीकणीच्या
फिक्स्ड
फुडारपणाक
फॅक्टो
फॅन्टास्टीक
भयणीं
भागीदारांनी
भेटयले
भ्रश्टाचाराचे
मतदानांतल्यान
माकेन
मानपाचें
मित्रा
मुद्रण
मेयप्पन
यी
रक्कमेंतल्यान
रेडीज
लंडनाक
लढोवपाची
लेटर्स
लॉकडावनांत
वकिलींचो
वळखल्या
वाजिद
वापरपाचेर
वाराणसींतल्या
विकलें
विडंबन
विहंगम
वॅगन
वेंचणूकः
वेड
वैधते
शिक्षकांनी
संघराज्यांतल्या
संजना
संतुळीत
समीक्षा
सहकाऱ्यांक
सासऱ्याच्या
सॅनन
सोंपतात
सोदांक
हॉकिंग
हॉटेला
२३८
४२६
४८८
##बो
##यला
##युक्त
##वयल्या
##वल
##सागर
##ालागीं
##िव्ह
##्थ
##्साचे
अतिशय
अधिकारीच्या
अनिर्धारीत
अशांतताय
आदेशूय
आरोपींचे
आशिल्ल्याचेर
आसतालें
आस्पावपाक
इक्विटीच्या
इबाडली
इराणा
उंचेले
एरोनॉटिक्स
ऑक्सायड
ओएएनओ
कटरा
कळ्ळ्या
काउन्सिलाक
कागाळीक
काडटली
कारी
काश्मीरांतल्यान
किडे
किलोग्राम
कोट्टायम
क्रियाशीलताय
क्रिस्टोफर
क्रेडिट
खेळाचें
गुरुत्वाकर्शण
गोपुरां
ग्रेडिंग
चेंबरांत
जाणूनबुजून
जाहीरपणान
जुंव्याचे
टीएन
टोकन
डीआरएस
तमीम
तेलंगणात
तैनाती
थंयय
थांबवपाचो
दस्तावेजांतल्यान
दाव्यां
दुमका
देवळांतल्या
दोतोराचें
धवनाच्या
नखेत्रांच्या
नमुन्याचेर
नीतीशास्त्र
नॉर्वे
न्हंयचो
परिसमापकान
पाचवें
पात्राक
पितृसत्ताक
पॅकांत
प्रधानमंत्रीच्या
प्रस्नांच्या
प्लेसिस
फायलींचेर
बंदखणी
बाजूचेर
बीआयएफआर
ब्रिटनान
ब्लेड
भुज
भेटीचो
मल्टीपल
मापांत
मूळच्या
मेट्रोपोलिटन
मोटर्साच्या
मोडले
मोनू
मोसंबी
म्हाविद्यालयांच्या
राज्यकर्त्यांनी
रामप्रसाद
रेसिडेन्ट
लांस
लिलावाची
वर्णनात्मक
वळवळपी
वाडयतली
वास्तवांत
वेंचणुकेच्यो
व्याख्याता
शैलेश
सत्यनारायण
समजदार
सरपटपी
सर्वानंद
साथीदार
सुर्वेच्या
सोंपसर
सोडपी
स्पश्टीकरणां
हायड्रोकार्बन
होटॅलां
होल
१९४१
३४६
३५१
३६००
५११
##1
##पाच्या
##लेस
##वाडा
##वू
##स्टर
100
अंजू
अभियोजकान
अभिव्यक्तीची
अमान्य
अर्जदारां
अर्थसंकल्पांतल्या
अश्वशक्ती
आपणायता
आफ्रिकेचे
आरोपांचो
इंधनाची
ईसीन
उखलता
उखलपाचो
उप्रासचो
एए
एनडीएच्या
एनपीएस
एपीजे
एमआरएफ
ऑफरां
ओव्हरीच्या
कफ
कापाडिया
कीपर
कृत्य
कॅडराच्या
कॅडेट
कॅन्सराच्या
कैमूर
कोकेन
कोणाची
कोसळिल्ल्यान
क्लबाचो
गांवांतलो
गुंतवणुकीच्या
गोदींत
गोळीबाराची
घडल्यो
घोटाळ्याक
जीपीएफ
जोनासा
झाडाक
तलवारीन
तेलाचेर
तैबा
थंयचे
दर्यांतले
दहेज
दाखोवपाचें
दिल्यारच
देशम
दोतोरांचो
निर्भय
नेपाळाच्या
परंपरे
पातळिल्लें
पॅकेजीचेर
प्रयोगशाळेच्या
प्रशासनाचो
फातराची
फुडाऱ्याच्या
फोटोशूटांत
बीएसएफच्या
बुद्धीमान
बुध्दी
भुरग्यांचेर
मनशांचो
मर्चंट
मायक्रोफोन
यंत्रणां
यात्री
रिले
लाड
लावप्यान
लोडिंग
वाक्याच्या
वाचले
विजया
विद्यापिठांक
विरोधकाक
वीक
वेवस्थापकांक
शिफारशींक
शॉर्टलिस्ट
संपा
संपादनाच्या
सीपीआय
सोळावो
स्क्वाड्रन
स्पेंसर
स्पेक
स्लाइड
हंगामांतलो
हंसदा
हास्यास्पद
हुंपल्यात
हेराल्ड
००२
१९२३
१९३४
३२९
३३९
३४८
४१६
४२१
##तेक
##त्व
##ियान
##ेबल
##्ले
अंतरिक्षांत
अकादेमींत
अती
अध्यक्षपदाच्या
अन्नधान्याचे
अमरावती
अर्जय
अल्पकाळांत
अॅप्लिकेशन
आझमी
आदाराचेरच
आपोवपी
आमदारांची
आयदनांत
आयुष
इंधनाच्या
इन्फिनिटी
उथळ
उद्दीन
एज्युकेशनल
एनसीपी
कंप्रता
कट्टरपंथी
कनिमोझी
कर्तव्यांचो
कार्यवाहीचे
काळजां
कुर्नूल
कुऱ्हाडीन
कॅपेसिटी
क्रिकेटाचेर
क्लबाच्या
क्षेत्राचें
खात्यांनी
खाना
खावंक
खूनाक
खैतान
गुंतवणूकदारांकडल्यान
गुंतवपाक
गुल
गेलीं
ग्रेनाइट
चंडीला
चोपड़ा
जळिल्ल्यान
टोरोंटो
डिटेल्स
डीआर
डीएस
ड्रायव्हराच्या
तरेचीं
तशेच
दोंगुल्ल्यांचेर
नाशिक
नासतात
निश्चीतताय
नोटीसाक
पठार
परताव्याची
पात्रते
पाळ्ळ्यात
पिडेस्ताक
प्रकारांक
फडणवीसान
फराह
फ्लू
बर्मन
बलवंत
बिल्ड
बोनी
भरची
भ्रश्टाचारा
मार्केट्स
मिथक
मुताच्या
मेजूंक
मोटारसायकलाची
रग्बी
रस्त्याक
रावतलो
रिणकाराच्या
रिसर्चचे
रूढ
रोलर
लढयतले
लावचें
लोकांपरस
वंशाचो
विकल्यो
विकेटीचेर
विचारांच्या
विजेत
विश्लेशकान
वेळरेखा
शकचो
शिक्षणाचे
शिश्टमंडळान
श्रीनिवासनान
श्रीलंकेचे
संबंदाच्या
सतरा
समर
सर्तींतलो
सवंग
सायफन
सासरो
साहित्याक
सुचोवण्यांनी
सुतारिया
सुलतानपूर
सेकंडरी
सेवांचें
सोयीस्करपणान
सोऱ्याचेर
स्टायलिंग
स्नॅपडील
स्वीकारपाक
हाउसान
हाऊसा
होंवरी
होंवर्
३९१
४०००एमएएच
४२७
४८५
५२१
६८०
९९५
##जू
##डीए
##ल्लो
##सेन
##्याचे
अझीम
अधिकाऱ्यांचे
अरशद
अवस्थी
असाइनमेंट
आयएनजी
आरोपदारान
आसामी
इंडियाचें
उपवेंचणुके
उलटपाक
एजन्सीचे
एनक्रिप्टेड
करुर
कलर्स
कापसाचें
किण्वन
केवायसी
कोलफील्ड्स
क्रू
खटल्यांतलो
खोशीन
गरुड
गुजरातांतल्यान
गुवाहाटींत
घट्टपणान
चंद्रचूड
चरस
चलयेचे
चवकशेंतल्या
चीनाचेर
चेका
जंगल
जहांगीर
जिन्ना
जीपांतल्यान
जेएलआर
टिप्पणीक
टीए
ठाकुराक
तिकेटाचेर
थ्री
दक्षिणेकडल्या
दुयेंसाचे
दुष्यंत
देंवतना
देवळांमदीं
धर्माक
नरीन
निवळायतात
नोंदणीक
परिशिष्ट
पाळचीं
पावटीं
पावोवपाची
पिकाची
पीपल
प्रकरणः
प्रकारांचो
प्रभावाक
बथिंडा
बद्री
बांदावळी
बेनी
भरल्या
भाशेचेर
भैया
भोपाळांतल्या
मांजरेकर
माध्यमांत
मारपाचें
म्हाकाय
यंत्रणेची
याचिकेंतल्यान
रांक
राजेश्वरी
राणे
रॉयल्साक
लश्कराक
वंदना
वाटपाची
वाडयल्यार
वाहनाच्या
विदर्भा
वेबसायट
व्याप्तीचेर
व्हिस्की
शिफारशींच्या
शिबिरा
शिरो
संघराज्यांत
समकक्षां
समाजांक
सिगार
सीपीएफ
सेवेक
सोंपयल्या
स्टॉल
स्वातंत्र्याक
हल्दिया
४८९
९६११
##कान
##सारकी
##से
##ॉ
##ॉट
##्बा
अंतरिक्षयान
अमेररकाां
अशेय
अॅवॉर्ड्स
आनंदीबेन
आसल्यो
आहूजा
इनोव्हेशन
ईएमएमसी
एरो
ए४
ऑनर
ओव्हरांत
कड्डण
करपासारके
कार्यकर्त्याक
कॅडिला
खांबो
गंगे
गंजाम
गुलाटी
गेल्लीं
घनताय
घराण्यांत
च्याय
जमून
जातीं
जिल्होधिकाऱ्या
झामुमो
टीव्हीच्या
ट्यूब
ट्रॅफिक
डबल्सांत
डॅनी
तज्ञां
ताच्याच
तियागो
त्रिनिदाद
दंतवैज
दारा
दुहेरी
धवल
धातूची
नागरिकांनी
नागार्जुन
निंदनीय
निबंधकाच्या
पंतप्रधानपदाचो
पब्लीक
पार्टीक
पीडब्ल्यू२१
पी८
पुनरावलोकना
पुस्तकाचो
पॅकेजीं
पोलियो
प्रकाशीय
प्राणीसंग्रहालय
प्लांटाची
फकीर
फांतोडेर
बँडाच्या
बफर
बोटींतल्यान
ब्रेंडन
भयणींक
मतांक
मदरसा
मल्लिका
मापदंडांचेर
मुंबयचे
मुख्याध्यापक
मूळचे
मेस्ने
रडटा
राइट
लागींची
लिपोवप
विष्णू
व्हेंटो
व्होल्टे
संचालनालयाच्या
संरक्षणान
सगलीं
सादरीकरणाचो
सिंधूक
सेवाय
सैनिकांची
सोदाचेर
स्टोइनिस
हयात
हस्तांतरणाचेर
हाताखाल
हुतात्म्यांक
होबली
होमांत
३४४
४५७
५२५
५९५
##पूर्ण
##शान
##स्की
##हाउस
##ाव
##ॅल
अश्विनाक
आंदोलनाक
आंबाला
आदिलाबाद
आपणायले
आयशा
आरसीबीन
आरोपदारांनी
आवाजाचो
आसियान
इंदौरांतल्या
इत्सेआड
इबाडत
उक्तायल्यात
उडयल्यो
उद्देशाच्या
उपक्रमां
उपचाराचो
उशीरा
एफएमसी
एमएल
कब्जो
कातीची
कारणांच्या
कार्टर
कार्यावळीचे
कॉस्ट
कोरी
खेळांनी
गंतव्यांचेर
गांधीनगरांतल्या
गूणांत
चक्रांत
चक्रीय
चिरकालीन
टिक
टीएमसीचे
ट्रस्टांत
डब्ल्यूके
डेव्हलपर
डोगरा
तोंडाच्या
दिल्लीचें
दिवाकर
दुकानाच्या
दुडवांचो
देवगनान
देशभरांतले
धाडूं
धातुकाचे
नागरिकांचो
निकालाच्या
नितीमान
निर्णयाचोय
नैतिकता
पदार्थांच्या
पुतां
पुस्तकांतल्या
पुस्तकाचेर
पॅकेटांत
प्रकाशना
प्रतिध्वनी
प्रसारणा
प्राण
प्लेटी
फखर
फिल्टर
फैसल
बारी
बोलीदारांक
मतदारसंघांची
मदती
मुजीब
मेल्ल्यान
मेळयतना
यमी
याचिकेचे
योग्यतेचेर
राठी
लढत
लॅबांत
वर्णपट
वस्तूचें
विकेटींचेर
विरयत
व्हांवपाक
शास्त्रज्ञांक
शिमेवयल्यान
शेतकाराक
श्रावण
संगीताची
संदर्भाचो
सरकारानय
सरासरीन
सादपा
सिलिंडराक
सीओ
सोदपाच्या
स्नॅप
स्मार्टफोना
स्वरूपाचे
हंगेरी
हिंसा
हिप
३२७
५४५
##चर
##ठी
##पोरा
##र्ट
##्ज
##्ती
अभ्यासाच्या
अर्थवेवस्थेचे
अहवालांचो
आज्ञापत्राक
आवडीची
इराणांतल्या
उजवाडावप
उत्सवाचो
उपअधीक्षक
उपनिरिक्षकान
एपीआय
एमसीसी
एलडी
ऑडिशन
ओतून
कंडक्टर
कझाकस्तान
करडो
कागाळांत
कारणांत
काळांतलीं
कृष्णान
कोनशांनी
क्रिकेटांतलो
खजिनो
गुडघ्याक
गुड्डू
गॉर्डन
गोंयका
घुंवडावंक
चालकान
चित्रकार
जगमोहन
जनरलाक
जॉन्स
डब्ल्यूडब्ल्यूई
ड्रग
तिमाहीचे
तोखणायेची
थारावाची
दलालांनी
दिसलीं
देशांकडेन
दोगांक
दोगांयचीय
दोवाल
पटवारी
पदार्थाचें
परसय
पर्यायाचो
पाळपाचें
पावोवपा
पिळग्यांनी
पोरणीं
प्यार
प्रवाहीत
प्रावधानाच्या
प्रियंकान
फावनाशिल्लें
बिहाराची
बेत
बोलीदाराक
भजन
मंत्रीमंडळांतल्या
मणिपूरांत
मतदारांच्या
मागणीची
मानना
मार्की
मुंडे
मेज
मेजवानी
मेमोचेर
म्हत्वपूर्ण
यंत्रणेक
युवराजान
येमेरेन
राजकारणाचो
राजशाही
लांग
लावप्याक
लेण्यांत
लेदर
वर्गाचें
वळेरेची
वश
वसणुको
वाडिल्ले
वोक्स
व्हिया
शक्
शरीयत
शिकोवपाचो
शेअरधारकांनी
संप्रदाय
सफरचंद
समाजांतलो
समाजांतल्यान
सारक्यो
सेमीफायनल
सौम्या
स्टायल
स्रोतां
हमीचो
हांणीच
हिमालय
हॉप
१७००
२८४
४२३
४३७
५२२
७०००
८४५
९३०
##दीन
##यान
##वचे
##वीर
##ोरी
अधिकाराची
अॅडव्हान्सड
इंजिनाच्या
इश्टान
उखललो
उपचाराची
उपनगर
एहसान
ओक
कणो
कमर
कसोटींतल्यान
काणयो
किरॉन
कीर्ती
केशीचेर
कोमुनिदादीचो
खाट
खात्रीचें
गणितज्ञ
गुरूद्वारा
गॅप
ग्लॅमरस
घराचे
घोशणापत्रा
चाक
जमिल्ले
जळिल्ले
जामीनाची
ठेवींचेर
डिंपल
तांबोली
दस्तावेजांतल्या
निदर्शनां
निधनाची
परिमाणात्मक
परीन
पाकिस्तानांतले
पातळेची
पावयली
पीएसबी
पी२२
पुण्यतिथी
पुलाचेर
पॉलीथीन
प्रकारा
प्रमाणाच्या
प्रस्तावांचेर
प्रोची
फाटीक
फाल्के
फेसबूकान
फ्रँकफर्ट
बंदा
बिल्डर्स
बॉण्डांत
ब्रिगेडियर
मळबांत
मिकी
मिण्टांनी
मिण्टाक
मुंडकाराच्या
मोतिहारी
रिणाक
रेजिमेंट
रोमिंग
लवादाचो
लांबायेन
लिंकन
वकिलीची
वचतलों
वादीचे
विज
विधानांच्या
शिकोवप
संग्रहांत
सांबाळपासारको
साथ
सादरीकरणांतल्यान
सुरेंडर
सेलांत
सोडपाच्या
सोनेट
स्पेक्स
स्पेनाच्या
स्वित्झर्लंडाच्या
हसनान
हाचेवांगडा
हाताची
हातूंतली
हेटमायर
३७८
४१२
४५९
४९७
५७५
##एच्या
##कांत
##चक
##डीसी
##व्हर
##ियाक
##ेना
अज्ञानी
अधीक्षका
अनवळखी
अपंगत्वाच्या
अर्दा
अशुध्द
आपोवचे
इबाडटा
उबारलां
एसयूव्हीच्या
ऑस्ट्रिया
ऑस्ट्रेलियेचे
करूर
कलमाचें
केंद्रशासीत
खात्यांतले
गोंयचो
छायाचित्रण
जमनींतल्या
जाग्यांनी
जिल्ह्याक
जेवपाक
झगड्याक
ठाकोर
डब
तकलेचे
तथ्याक
तहसीलदाराच्या
थांबवपाक
दासाक
दीप
दुबळेपणाक
दूतावासांत
नर्सी
नाचाचो
नेमांतल्यान
न्हंयचें
न्हयकारिल्ली
पयलोच
परिणामाची
पायरेट्स
पारिख
पेरियार
प्रकटीकरण
प्रतिनिधीत्वाची
प्रदेशांक
प्रसन्न
प्रूफ
प्रोसेसरय
फतेही
फिनिशिंग
फेसबूकार
बसल्या
बेला
बॉसाच्या
भंयाक
भगतसिंह
भोंवडेंतल्यान
मंत्र्यांचे
महाराष्ट्रा
मिनटांच्या
मिशनाचेर
मॅडम
मेळिल्ल्याचें
मॉडेलांचे
यांग
रजा
रणनितीकार
रसूल
राइस
राजपत्र
रेल्वेमार्गाचेर
रेव्ह
विभागांक
वेपाऱ्यां
शिक्षकाची
शिल्पकार
शेल्डन
शैलीच्या
शोकांतिका
संपादनाचो
संबंदांची
साकेत
सेनान
सोंपे
सोयऱ्यांक
स्टँडबाय
हुआ
हेडली
हॉटेलांनी
०३५एमएएच
१६५३
१९३६
५५१
५७१
५८६
७७०
##मार
##ाली
##िनो
##११
##२१
अंकांची
अत
अपुरबायेची
अभिनयाक
अभियंत्यांक
असंतुलन
असंतोश
अस्पृश्य
अहमदाक
आडावपाचें
आभास
आयोगांत
आयोगाचें
इकरावी
इरा
उडयना
उत्पन्नाचे
उमेदवारांतल्यान
एक्सचेंजांतल्या
एन्ड
एफआयआरच्या
एसयूव्हींत
एसीबी
ऑक्सिजनओएस
कराक
करिनाशिल्ल्या
कसली
कातीचो
कापपा
कारवार
कॅम्पसांतल्या
केट
खंडांतल्या
खासदारान
गुंतयले
गुवाहाटीः
घरांतले
घोटाळ्यांतल्या
चलपाची
चालका
चॉकलेट
जग
जयदीप
जाणवलो
जिनीव्हा
टायटॅनियम
तितल्या
दरांतलो
दिवप्यांचो
दिसाळ्यांतल्या
नात्यांत
निफ्टीचो
निराकरण
निर्बंधांक
निश्कर्शांक
नेमाप्रमाण
न्हयकारना
पळयना
पुरवणदाराक
पुरस्काराचेर
पुरून
पुलीसांनी
पूर्वजांच्या
पॅच
पॉवेल
प्रकोपाक
प्रक्रियाचो
प्रतिसादा
प्रसाधनां
प्रेक्षकांची
फंडांनी
फर्टिलायझर्स
फॅन्टम
फेडरेशनाचे
फ्रॅंचायजीचो
बापू
बाळकाक
बुद्ध
बॅनर्जीच्या
ब्रिज
भूगोल
भूतकाळ
भ्रश्टाचारांत
मणिकर्णिका
मर्यादेक
मळा
मातयेचे
मार्गाची
मुख्यमंत्र्याच्या
मुहंमदाच्या
मॅचींचो
युतीच्या
योगेश्वर
योनींत
राजवंश
रैनान
लोकसभेंतल्या
वकीलाचो
वखार
वर्साचीं
वळखुप
वाडपाच्या
विधेयकाची
वेश्या
व्होडाफोन
शाओमीचो
शारांचो
शाराचेर
शिफारशींचो
शुक्रार
सन्मान
सांडपाणी
सारांत
सुटल्या
सेन्सेक्साच्या
सोलन
स्कॉर्पियो
हांचेय
ह्यूज
६०५
##ंखातीर
##ंव
##कारी
##लांत
##श्री
##ष
##्रम
11
अभियोजकाचें
अभ्यासक्रमाची
अमजद
अमूल
अर्चना
अहवालाचें
अॅप्रोच
आंदोलनांत
आयएएफचो
आयओए
आरोपपत्रां
इगर्जी
इराकांत
इलॅक्ट्रॉन
ईजाज
उंचायेक
उखलपाची
उजवाडावपाची
उण्यो
उलयतले
उस्ताद
ऑडिओ
ओंठ
ओव्हरड्राफ्ट
ओहायो
कथांनी
करतकच
कलमांचो
कारवाये
कॉलर
क्लार्कान
खगड़िया
खावपा
खेळपाचे
गीतांजली
गुंतवपा
गुंथला
गोंड
ग्राफिक्स
घोशणापत्रां
चलयली
चवकशीचें
चश्मे
चार्टर
चिंतेची
चॅनलांनी
चौकांचेर
जिविताची
जैताचेर
डीजे
डीडीए
डेव्ह
तज्ञांचो
तपासणेचेर
तिख्याचो
दर्यादेगेवयल्या
दूरदर्शन
धावो
नंदी
नाकाबंदी
नारो
नाशिल्ल्याचेंय
नेपाळाक
पंचायतीक
पत्रकारिता
पदार्थांची
परिमाण
पांयांत
पाचवीचार
पिंकी
पिकाक
पिलियन
पेट्रोलाच्या
प्रकरणा
प्रगतीचो
प्रवाशांचे
प्रवेशाक
फ्रँक
फ्रॅंचायजीच्या
बंधक
बाइडन
बाइडेन
भौस
मल्टिप्लेक्स
मसुद्याचेर
महाराष्ट्रांतले
मुर्मू
म्हासागरांत
यादवाचो
रफीक
रवींद्रनाथ
रावतान
रिसेप्शन
लक्ष्मीकांत
वनस्पतींनी
वागूंक
वायूचो
विक्रींतल्या
विमानतळांचेर
वॅगनआर
वेळारच
वेवसायांतलो
शरीफा
शीतल
शेअरिंग
संख्यात्मक
संबंदांच्या
संविधानाचेर
सामान्यताय
सावळे
सीएनएन
सुचना
सुसान
सूटांत
स्कीइंग
स्पॉटेड
स्वार्थी
हल्ल्याचें
हाऊसफुल
होटॅल
११वे
२९७
३३६
४७७
##ट्टा
##ण्ट
##यस
##विशींचो
##१५
अध्यादेशांत
अनिर्बान
अपमानीत
अभियांत्रिकींत
आंकड्या
आंगनबाडी
आयएमएफान
आयओसीन
आयुक्ताचो
आयोजकांनी
आरएफपी
उथप्पा
उर्जीत
एटीपी
एफएओ
एमसीडी
कबलातीचो
कमांडंट
करांक
कायाकल्प
कार्यपद्दतींत
किल्ल्याक
कुमाराचें
कृत्यांचो
कॅप्स
केंद्राचें
कोसळ्ळ्या
क्रमवारीत
क्षरण
गटांची
गुंतवणुकांचेर
गैरहजेरेंत
घुस्मटून
घेवप्याक
चव
चवकशींतल्यान
जदयूचो
जदयून
जोहरी
टेरेस
टोमॅटो
डिझायनाक
डिस्टिलरी
डेथ
डोकोमो
तमिळनाडूची
ताब्यांतल्यान
दरांची
दिसाळ्याचो
दुआ
दो
धरचो
धर्माचे
धाडपी
धाबी
धुकलपाचो
धुवांक
नाकाच्या
नाझुल
नाशिल्ल्याचीं
नॉर्ड
नोंदणीच्या
न्यायवेवस्थेच्या
पखवाडांत
पत्रांच्या
परवेझ
परिसरांतल्यान
पॉलिसींत
प्रवक्तो
प्रवचन
प्राधान्याच्या
प्रायोजकता
फॅन्सांचो
फॉन
बशीं
बसकेचें
बांदकामां
बांदकामाची
बार्कलेज
बिनोद
बीसीसीआयची
ब्राझीलांत
भुरग्याचे
मगर
मनशांच्या
मांडूंक
माउंटेन
मानसोपचारीक
मापदंडा
मिडियान
मिशनाक
मुदत
मूक
मेजूं
मेयर
मेळावो
मेळोवपाचेर
मोडपाच्या
मोनजात
यां
यांत
राघवेंद्र
रामदास
रायपूरः
रिसॉर्टांत
रुपयांतल्यान
लक्ष्याचो
लढयली
वजनाची
वस्तूकडेन
वाजोवपी
विचारांची
वॉल्ट
व्यसन
शमीम
शांतिनगर
शान
शिवपुरी
शेडांत
शैलेंद्र
संपीडन
समजावपा
सल्लागारान
सांबाळ्ळ्या
सीओओ
सुखान
सोंसची
स्मार्टफोनाक
हवामानांतल्या
हवेक
हुंपली
३८२
४०८
४८१
९२०
##8
##ंती
##जान
##ताये
##बे
##मांत
##यतात
##यले
##शिप
##िरी
##िशन
18
अलौकिक
अश्यो
आपणायल्यात
आयकूं
इंद्रजीत
इन्फोटेक
एक्यूआय
एनएव्ही
एसएसआर
कंपनीय
कटकार
कराचींत
करुणानिधी
कापता
कायद्याकडेन
कॅडरांतल्या
कॉन्सुलर
क्वालिफायर
खरेपणान
खर्चान
खूनाचे
खेळटां
खेळपाच्या
गरमी
गू
गोठयल्ल्या
गोपालगंज
गोपी
चोरपाच्या
जातींत
जानी
जायरातीं
जीपीए
जुहू
टकराव
थांबवपा
थायलंडांत
थेंबे
दरगा
दर्ज्याक
दर्यादेगे
दाखयल्यार
निश्र्चितीकरण
न्यायवेवस्थेक
पाठ
पी९५
पॅन्थर्स
पॉवरट्रेन
प्रकल्पांतल्या
प्रबंध
प्रवाहाच्या
प्रस्तावाच्या
प्राधान्यां
फॅन्सां
फॉर्माचेर
बाउन्स
बाजवा
बाजे
बॉयज
भदौरिया
मंत्रीमंडळाचे
मनयपाक
मानाच्या
मोजो
यत्नाक
यूटीव्ही
रवीना
रावतां
राश्ट्रविरोधी
रिपब्लीक
लेणी
लोकहिताची
वण्टीक
वरवींय
वांगडीपणाची
वाडदिसाची
वितरणांत
व्हरना
शेखपुरा
संरक्षणाचेर
सप्तकाचो
सफळ
सरपाचें
सातवी
साबा
सिकल
सुरजेवाला
सेक
सेबीच्या
हाताळ्ळो
हॉस्पिटलांक
३५९
४१३
##ंय
##डर
##नेट
अंजनी
अफगाणिस्तानाक
अब्जांनी
अभियंत्या
अर्जदारांचेर
अर्जदाराचे
अॅश्टन
आदेशांनी
आमदारांच्या
आयबीसी
इंसाफ
इंस्टंट
ईडब्ल्यूएस
उद्देगांनी
उमेदवारांत
एअरटेलान
एनएस
एसएससी
ओपेरासांव
कंपनींतली
कर्मकार
कल्टर
कल्पनाशक्त
कळोवप
काउंटरांत
कामगारांचे
किटींत
कॅल
क्रिस
खटल्यांतल्यान
खरेदींत
खूबशे
खेळाचेर
गतीशील
गुंतवणुकींनी
गुडगांवांतल्या
गृहमंत्र्यान
गेटवे
गेम्स
गौरवशाली
घोंट्याक
चलनवाडीचेर
चार्टाचेर
चित्तूर
चुकी
चोरप
जीच्या
जेसी
झिलमिलपी
टुडे
ट्यून
डीटीएए
डीडीसीए
डीव्हॅट
ढोल
तुमकुर
त्रिशूर
दुयेंतीची
धमकायली
धरणाचेर
नमुन्यांत
नसीम
नसीरुद्दीन
नामनेचीं
निधीक
नियमनांत
निर्दयपणान
नी
नोकरशाय
नौदलाचो
परदेशांतली
पळयनासतना
पातळूंक
पानांचेर
पीव्हीआर
पुणें
पॉटर
पॉयंटाचेर
प्रस्तावक
बळकट
बसयल्लो
बाश्पनशील
बेईमानपणान
भुरगे
मंत्र्यांची
मळमळीत
महिन्दा
मांधना
मुखामळाच्या
युनिटी
येणावळीक
येरादारीचें
रघुवीर
रथयात्रा
रिक्टर
रुपरेखा
रेटिंग्स
लाहोरांतल्या
लिथियम
लिलावाच्या
वगडावपाच्या
वचात
वटेनचे
वलसाण
वस्तुनिश्ठपणान
वाधवा
विंड
विंबल्डन
वेस्टमिंस्टर
व्याख्यानां
शार्दूल
शाहा
शाहानय
शेंकड्याचे
शोकोज
संगीताच्या
संध्या
सगल्यो
सगळ्यांचेर
समन्वयान
समरसताय
समाविष्ट
साक्षीदारांचेर
साम्राज्याचो
सीओए
सुनामी
सुवेवस्थेची
सॉकर
स्टँडर्डान
स्पायस
हंगामाक
हरकतींक
हायड्रो
हायब्रिड
हितेश
हॉवर्ड
४३१
६७३
९४०
##जीच्या
##तेचें
##पणांत
##पूरच्या
##मो
##यट
##यां
##यात
##ल्ला
##सिया
##्कर
##४०
अकरम
अनन्य
अनुवंशीक
अस्तित्वाचो
आच्छादन
आतंकवाद्यांच्या
आयएनंबर
आश्रित
इंटरस्टेलर
इन्फॉर्मेशन
ईसीबी
उखलपी
उरप
एकाग्रताय
एचएमएसआय
एजंटाक
एनसी
एफबीआय
एसटीडी
ओपेरा
ओलसाण
कलर
काउन्सिलांत
कान्ति
कार्यकर्त्यान
कुलगुरूक
केशींचो
केसांत
कोसी
क्वेरी
गर्दीच्या
गवायांक
गारो
गिन्यानाच्या
गुंतवणुकीचेर
चालकाक
चित्रा
जयंतीचेर
जाणांचें
जातींनी
जावडेकारान
टक्क्यांपरस
तिगांयनी
थारायना
दरांतली
दिलैक
दिसपाची
दिसाय
दुश्परिणाम
धर्मगुरू
नाम
नायजेरिया
नासल्यार
निजामाबाद
निरस्त
नैनीताल
पयल्यांत
पळयतली
पुजारी
पुरस्कारान
पुष्टीकरण
प्रतिभेक
प्रेक्षकांचो
प्रेक्षकांच्या
फर्ग्युसन
फिल्माचेर
बंदराच्या
बदलांत
बसतात
बसप
बाजारपेठांनी
बिपाशा
बॉलाक
बोमन
ब्रँडाचो
ब्रह्मास्त्र
भाड्याचें
मरणामेरेन
मलंग
मलेशियन
महामारीचो
मालवाहक
मिरर
मुख्यमंत्र्या
मॅनचेस्टर
मेसर्साच्या
मोदीस
मोनिका
म्हाझुजा
म्हैसूरू
राज्यकर्ते
रिणकारांनी
रुइया
लायात
लिमिटेडची
लिस
लॉयड
लोकशायेच्या
वकिलींच्या
वांटिल्ले
वापरना
वापरप्याच्या
वाहनाची
विशयांक
विश्लेशणाचेर
वेळारय
व्हिला
शिक्षणाचें
शिरडी
संघाचे
समजपी
सराय
सांगिल्लेप्रमाण
सीजी
सीडब्ल्यूजी
सीमेंस
सोन
स्टेप
स्रोताचेर
३९४
४८३
७८०
##6
##रन
##वंत
##वारी
##ानंद
असुरक्षीतताय
आंकड्यांची
आपयल्लें
आपलोच
आरोपपत्राचेर
इन्फोसिसचे
इस्टेट्स
उजवाडान
उतरांच्या
उत्कृश्टताय
एटीएस
एनडीएचे
ए३०
ऑटोमेशन
ओसामा
कमाईची
करारां
कळोवपाची
काजू
कामगारांचें
कॅंब्रिज
कॉन
खऱ्यापणा
खेळ्ळें
गुंटूर
गुरमीत
गॉल
चलतले
चलोवपाचे
चांचणेक
चार्ली
जयसवाल
झगडलें
डब्ल्यूआर
डिझायनान
तत्वगिन्यानाचो
तळी
तांत्रिक
ताचोय
दूतावासाच्या
धांवली
धाडिल्लीं
धारकाच्या
नांवांत
नाणें
निदर्शकांक
निधीचेर
नियाळा
निर्वहन
निवळावपाक
निवासस्थानांत
नोंदणीची
न्यूझीलंडांतल्या
पक्षांमदलो
परतता
परमळ
परिस्थितींक
पळोवपासारकें
पांचाल
पांयांच्या
पानीपत
पावसाळो
पिकांक
पोर्टेबल
प्रदेशांच्या
प्रभुन
प्रमाणांतल्यान
बरपावळ
बर्फाळ
बसयल्ले
बाजून
बिनविरोध
बिहारांतल्यान
बॅरी
ब्रँडाक
ब्लॅकबेरी
भवानी
भाशेक
भोंवतात
मनाक
महागठबंधन
मालकाचेर
मुबारक
मेळयतले
मोजां
मोटर्साचे
रंजी
रीड
रेस्क्यू
रॉम
लामा
लीज
लुकसाणांत
लॉजिंग
विकासाच्या
विक्रेत्याची
वेणुगोपाल
वेबसायटीचेर
वॉर्न
व्याकरण
शफीक
शाहनवाज
शाहपूर
शिलांग
संख्येचेर
संरक्षणाचे
संवसाराची
संस्थांचेर
समाधी
सांगत
सांबाळ्ळी
सातारा
सारकेपण
सारांशांत
सुटयेचेर
सुवातींच्या
स्टॉका
स्मारकांत
होमियोपॅथी
२६००
२९२
३७२
३८१
३९२
४३२
४४८
४६२
४९४
८२०
९०००
##झर
##बन
##येच्या
##रीन
##शिल्ल्यान
##ावरवीं
##िल्लीं
##ीम
##१३
13
अणभवाची
अधीक्षकाच्या
अभियोजकाचेर
आंतकड्यांच्या
आगमन
आडवाणीन
आदारांत
आपयल्लो
आयदन
आरबीआयचो
आलिस
इन्फ्राटेक
इबाड
इमारतींतल्यान
एचएचसी
एनडी
एन्डॉवमेंट
एमटीएनएलान
एमटीव्ही
एसबीआयचे
ऑस्ट्रेलियेचेर
ओळींत
करोड
कर्नाटकांतली
कलां
कांगडा
कार्यपद्दतीचो
किश्तवाड
कोणाचेर
कोरांतिल्ल्या
क्युरियान
क्वीन्स
क्वेटा
क्षेत्रांचेर
खणींतल्यान
गांवकारांक
गालिचे
गुजरातांतले
गुडगांवच्या
गुन्यांवांतल्या
गोठण
घडणुकांचेर
चलतलें
चिंतेचो
चिली
चौक्यो
जपानान
ज़मान
जायरातींच्या
जीवीके
जेफ्री
जैवविविधताय
डिलरशिपांत
डीडब्ल्यू३
ड्रॅगन
तंत्रांचो
तडजोडी
तपशीलांचेर
द्विवार्षिक
धांवप
निवडकांनी
निवळावणी
निवृत्तीच्या
नेल्लोर
न्यायालयांतली
पन्ना
पयलींय
परिक्षेचे
परिधि
परिसराच्या
पात्रांत
पायलटाक
पाळ्ळा
पियेवन
पुतळ्याचें
पॅनलाचे
पॅरोल
पेड
पॉलिसीच्या
प्रजापती
प्रवाहांतल्यान
प्रेमजी
प्रोफेशनल
बिष्ट
बोल्ड
ब्रुनाई
ब्रेड
ब्लॉकांतलो
भव्यताय
भागां
मथळो
मस्त
मांडल्यात
मिडियाच्या
मुन्नी
मूत
मेलबर्नांत
याचिकांचो
युद्धविरामाचे
युपीएच्या
योगगुरू
योग्यतायेच्या
रक्षात्मक
रणनितीचे
राजांनी
रामलिंग
रुची
रेन
रेस्टॉरंटांत
रोल्स
लश्कराचो
लांबोर्गिनी
लाहिरू
वकार
वाक्यांत
वाजोवंक
वायूची
विमानांतल्या
विवेकबुद्दीची
विश्लेशणात्मक
वेळाची
व्याप्तीचो
शुध्दतायेचें
सराफ
साद
सायकिया
सासणाचो
सुणो
सोडवपा
सोर्सिंग
स्काऊट
हर्षवर्धन
हाताळ्ळ्या
हार्मोन
हॅझलवूड
हेडलाइट
५३५
५४२
६५००
८७५
८९०
##क्यू
##पूरांत
##यल्लो
##लायन
##ेली
##१८
अँडरसनान
अंत
अंबाला
अपफ्रंट
आंतोनियो
आइसक्रीम
आदाराच्या
आयटीएटीच्या
आवयचे
आवाजाची
आश्रितांक
इंड
इझ्राएलाच्या
उडोवची
उतराच्या
उपनिमाण्या
उर्वशी
एक्सयूव्ही३००
एफ१७
एसएफ
ऑपरेटर्स
कानपूरच्या
कार्निवाल
केंद्रांची
कोणाचेरूय
कोणाच्याय
कोनशा
कौन
क्लबाक
खजुराहो
ग्राहकांची
घराचो
चलोवपाखातीर
चालकांक
जमिल्ल्या
जळ्ळें
जीओएमांत
जोडप्या
ट्रम्पाच्या
ट्रेजरी
डिस्पॅच
डूइंग
तंत्रगिन्यानाचेर
तपासतात
देशवासी
दोस्ताना
धरल्या
धोरणा
नंदलाल
निती
पंचनामांत
पत्रकां
पत्रकारांनी
परवान्याचो
परिबास
पूर्वनियोजीत
पेश
पोकळी
प्रणालीची
फ्रॉम
बरेपण
बर्फाचे
बांदकामाचेर
बुश
ब्राझीलांतल्या
भाशे
भोगचें
मंदिरा
मनरिजवणे
मामाच्या
मेघालयांत
यत्नांचेर
युरिया
राखपाक
रातयांत
राना
राश्ट्रांचो
लग्नसुवाळो
लग्नाचीं
लादपा
लावार्थ्याक
लोकसंख्येचे
ल्हानशें
वगळप
वर्कआउट
वळखतालो
वळखलो
वसीयतकारान
वाडोवचे
वावुरूंक
विकलेले
विदिशा
विल्यमसान
वेंकट
वेवस्थापकाच्या
वॉर्नरान
शतमानांत
शिकिल्ले
शीर्षकां
शेफ
संकेतां
संचांतल्या
सप्तकांतल्या
सांठोवपाची
सिंगापूराक
सुजीत
सुदर्शन
सुशेगाद
सोडपाचे
सोडयलो
स्कॅलेट
स्टेटमेंट
स्टोरांत
स्थापने
स्थितींतल्यान
स्फटिक
स्वरूपाचें
स्वीकारपी
हृदयविकाराक
४०२
४५४
४६६
५१६
##कॉम
##बू
##माक
##वपाक
##हरा
##िली
##ोम
##्यार
अगरतला
अतरंगी
अति
अपुरबायेचो
अफगाणिस्तानाचो
अफगाणिस्तानाच्या
अरहान
अव्यावहारीक
आउटिंग
आच्छादीत
आयचर
आरटीओ
आरबीआयची
आरोपींचें
आवयचेर
इंडियास
इस्लामाच्या
ईएएम
उरफाटी
उर्जे
एलपी
ऑपरेटरांनी
ऑफिसांतल्यान
ओडिशाक
ओडिशाचे
कलाकारांचो
कांगरा
कापसाची
कारणाची
किलोमिटरांचेर
कोरियांत
कोसळ्ळो
क्लायंट
खरबंदा
खुर्शीदान
ग्रंथालय
घोटाळ्याचो
चर्चेक
जळून
जस्टिस
टिक्ला
डीआरआय
डेरिव्हेटिव्ह्स
तज्ञाक
तिवारीक
दावोय
दिलीं
दुकर
दुसऱ्यान
दुस्मानपणान
दृश्टीन
देंवतात
देगणांतल्यान
दोंगराचेर
धांवपट्टी
धाडल्यो
निलेश
न्यायालयांतले
पदांचें
पदांत
पाटीलान
पात्रांक
पेमेंट्स
प्रतिसादाक
प्रसंगां
फेन्सिंग
बच्चना
बच्चनाक
बडटीचो
बडी
बदलां
बलबीर
बीडब्ल्यूएफ
बुल
बॅटा
बेसुद्ध
बॉण्डाचेर
भारतांतलीं
भारतीयांच्या
मरतात
मागणींत
मारतलो
मालवा
मुखेल्याच्या
मुठी
मुमताज
मेंडीस
युझवेंद्र
यूआयचेर
राजपाल
रामशरण
रायट्स
रायफल्स
लखनौक
लवादाचे
लवादाचेर
लाळ
लिगाचर
लिपोवपाचो
लोकशायेचो
वर्जन
वसला
वसुलीचेर
वस्त
वाजवीपण
वास्तुकलेची
विभव
शेतीच्या
श्रीलंकेंतल्या
श्रेणीच्या
संत्रे
संशोधनाचे
संसदेची
सगळ्यांचें
सर्वेक्षणान
सांत्रो
सिमन्स
सीबीएस
सुकीं
सोधी
स्पा
स्वभावाक
स्वामीन
हरियाणाक
हाडिल्लीं
२०५०
४४७
७४०
##जीक
##दाराक
##नेस
##यल्ली
##येक
##ल्ले
##वारा
##सीक
##िणी
##ोवा
##१४
अक्षम
अदमासाची
अर्थाचेर
आडायतले
आयकुपा
उगडपाच्या
उगडले
उडयतना
उतरांचें
एनडीआरएफचे
एसएडी
कंत्राटाचें
कृष्णप्पा
कोडियाक
कोमुनिदादीक
कोरांतिल्ली
कोरांतिल्ले
क्षेत्रांतलीं
खंडपिठांनी
खानय
खिणा
गतीची
गेल्यात
गोलंदाजीच्या
ग्रासिम
चॉकलेटी
चोपडाक
जखमींचेर
जल्मजात
जळपी
जाधवाक
जाफर
जीन्स
टांकयेंत
टीव्हीसी
टॅलेंट
टोयोटान
ट्रेडर्स
डंप
तपासल्या
दिसान
दुकळाक
दुग्गल
देशद्रोहाचो
धमनी
धरपाच्या
नाजाल्यारय
नाडियाडवाला
निवडपी
नेक्स्ट
पत्ते
पत्राचे
पालघर
पाल्मा
पिडिल्ल्या
पियेवप
पुणेः
पेडनेकर
पोलंड
प्रकरणांचें
प्राचार्याक
फाट
फेसबूकाचेर
फॉरेक्स
फ्रांसाक
फ्रेडरिक
फ्लाय
बँडाचो
बर्न्स
बर्बर
बिली
बिस्कुट
ब्रश
भाजपाचें
भालो
मंचाचे
मंत्र्या
मथळे
मध्यभागी
महाराजगंज
मायाराम
मुंबयच्यान
मेलबर्नः
मेहर
मॉस्कोः
येदियुरप्पान
येयात
रक्षा
रनिंग
राजवटी
लढोवपी
लसूण
लिक्विडेशनांत
लीअंडर
लेडीज
वगळिल्ल्या
वाचची
वायनाड
वाराणसीक
व्युत्पन्न
व्हायस
संगणकाच्या
संदर्भाच्या
सर्वव्यापी
सल्लामसलत
साउथी
सुचवपाक
सुदैवान
सेलेरियो
सैन्याचेर
सोडल्यात
हाडटाले
हाडिल्ल्यान
हायकोर्ट
१९४२
३६१
३७३
३९६
५२८
५७२
##काराक
##फी
##मे
##यलो
##यी
##हीन
##ॅन
##्व
##्सान
अंदाजे
अंबाती
अजमल
अप्रतिरोध्य
असंघटीत
आकर्शणाचें
आयएसएसएफ
आयटीबीपी
आवडली
इंदू
इतिहासाच्या
उत्सवाचें
उपनिबंधकान
उपायांत
एडीआर
ऑटोमन
करतलीं
कल्पिल्ली
काउन्सिलर
कागाळदाराचो
कागाळींतले
काबूल
कुंडली
कॅच
कॅन्सराचेर
केएसआरटीसी
केरळाचो
केल्ल्यांक
कोणाकय
क्रमांकांतल्यान
खाटून
खायात
गणनेंत
गवायांचेर
गाडयांच्या
गुवाहाटीच्या
चंडीगढांतल्या
चललो
जेजे
जोकर
झुजबंदी
डॅश
ताचीय
तिरपी
दत्तात्रेय
दर्ज्याचे
दळा
दुबावाभायर
देवळांच्या
नांवाचेर
निवाड्याचेर
निश्चल
परख
पराग
पाळचें
पीपीए
पुनरुत्पादीत
पोझिशनां
प्रकारांची
प्रवासाच्या
प्रसंगांत
फांट्यांनी
फायझर
फायनलिस्ट
फायनान्सिंग
फिक्स
फिल्मांतय
बरयल्ल्यान
बर्फाचेर
बाजारपेठेंतल्यान
बार्मेर
बिस्वास
ब्यास
ब्रूस
भट्टाचार्जी
मर्केल
मित्सुबिशी
मुंजल
मुकद्दमो
मूडांत
रतलाम
राजाची
रेकॉर्डाच्या
रेशम
लक्षद्वीप
लखनौंत
लायलां
लिंक्ड
लिमिटेडचो
लोभोवपा
वगळ्ळा
विमानतळां
वेंचणुकेंतल्या
वेपाऱ्यांच्या
वॉर्डांत
व्याख्येच्या
व्हॅम्पायर
शंकराचार्याच्या
शालिनी
शेअरांचेर
संख्येच्या
संदर्भांतल्या
सतर्क
समजलां
सायनायड
सिंडिया
सिआझ
सीपीसीचो
सीरम
सुज
सुयो
सैतान
स्क्रॅम्बलर
स्थळा
स्वीकार
हांगाचीं
हाता
हालचालीं
हिंदुत्व
हिब्रू
हिशेब
ह्युंडईन
३६८
३८८
४५६
५१५
८४०
##इड
##डाक
##रूप
##्सचो
अक्षरांनी
अधिसुचोवण्यां
अनंतपूर
अमृतसरांत
अरमान
अरोरान
अर्भक
अलाहाबादच्या
आयपीआर
आरोप्यां
आश्रयदातो
इटलींतल्या
इबाडिल्ल्या
इमारतीचेर
इशरत
इसुझू
उठून
एग्रीकल्चर
एनसीटीईन
एमसीआरसी
ए६
ऑफलोड
ऑर्बिटर
कमाईचेर
कर्नाटकांतले
कलेची
कागदाचो
काना
कुडींची
कॉर्पोरेशनाचे
क्यूआयपी
क्रियाकलाप
क्विक
क्षितीज
खजिन्याच्या
खटल्याचेर
खबरे
खावपाची
ख्यास्तीची
गवायांच्या
गिनीज
गूणधर्म
गेल्यार
ग्रहण
ग्रेश
चिकित्सा
चोवीस
जखमेची
जळोवन
जवानी
जा
जीआय
जोडटलो
टीन
टॉरेंट
ट्रस्टा
ट्रान्सफर
डीझायर
ड्रॉअर
तपासून
तरतुदींनी
तेंगशेर
थांबवंक
थारावाचेर
थेंब
दमट
दर्यादेगेवेलो
दही
दिग्दर्शनाचो
दिल्लींतलो
दुयेंसांचेर
दुर्बिणी
देवनागरी
देशांतलीं
धर्तरी
नरवाणे
निखट्या
निवळायले
नेमाळीं
नोकराक
न्यायवेवस्थेचेर
परमेश्वर
परशुराम
पार्थ
पिकांची
पीबी
पुनरावलोकनांत
पुरोगामी
प्रतिशपथपत्र
प्रदेशांतलें
प्रस्नांतलें
प्राण्यांच्या
प्लॉटाचो
फलंदाजांच्या
फवाद
फुफ्फुसाच्या
बँकॉक
बदलाची
बरोवपा
बळजबरीन
बळीचे
बाउंड
बायलेचे
बेडी
भावाचेर
भियेता
भौसान
मलेशियांत
माकड
मात्रा
मालमत्तां
मुगल
मैफल
मॉलांत
मोहसीन
म्हारग
याचिकादारांकडल्यान
युनिव्हर्स
राजनांदगांव
रामाचो
रायलासीमा
रावनात
राश्ट्रांत
रूपांत
रेग्युलेशन
रेल
रेशेच्या
लक्ष्मीनारायण
लीगचे
लोखणाची
वटेनचें
वाटपाचे
वापरनात
वापराचें
विलुप्त
शिकयता
शिखराचेर
शोंतल्यान
संकल्पनेचेर
संस्कृतायेची
समजा
सरूं
सादचो
सिंगला
सियाचेन
सेकंदांनी
स्टँडांत
स्थितीचें
हांचेभायर
हांचेमदलें
हेडन
हॉस्पिटलाचे
३८४
३८७
४२२
५७४
७३०जी
७७५
##ंकर
##टिक
##टीसी
##थान
##पार
##मर
##वची
##ाचेरूय
अदर
अमानवीय
अवध
अ४
आंकड्यांच्या
आदिम
आयआरसीटीसी
आयएमडी
आयपीएलचो
आवडलें
इंडिकेटर
इक्विटीचेर
ईआयए
ईशा
ईस्टर्न
उत्तरकाशी
उत्तरेकडेन
उद्देगाचें
उपक्रमाची
एएम
एन्डोर्समेंट
एफआयएच
एसटीपी
ऑलिंपियन
करुणानिधीन
किशोराक
कुर्ता
केटी
कॉलेजी
क्षेत्रान
खड़गपूर
गबन
गैरहाजर
गॉडमन
घरांतलो
चंद्राची
चलयांच्या
जवानांनी
जापसालदारकेची
जिब्राल्टर
जीएसके
जैनान
जॉय
जोकोविच
जोहान्सबर्ग
झरो
टायटन
डान्सर
डोमिनार
तीनूय
तेमकाचेर
थकबाकीच्या
थांबल्या
दावेदारांची
दुरुस्तीन
दूतावासान
देवदार
धाकली
धुकलपाची
धोरणांचेर
निरिक्षकाच्या
निरिक्षणाची
निर्यातदारांनी
न्यायाक
न्हवरो
पंतप्रधानान
पटनाः
परकीपण
परदेश
परवान्याची
पायलटांक
पायलटान
पी७
पूर्वग्रहा
प्रतिलिपी
प्रधानमंत्र्याक
प्रमाणूय
प्रशंसीत
फेरयेचे
फोर्ज
बंदराचेर
बदलतले
बांगलादेशाचे
बाजारांनी
बाळंटेर
बुडगाम
ब्युरोचे
ब्लॉगिंग
मनरेगा
मनांतल्यान
मनीषा
मांजरेकार
मारचे
माली
मॅन्डमस
मेंदवांत
मेघा
मॉडेलांचेर
येवजण्यांचेर
योगदानाची
रकमेंत
रागाच्या
राजकारण्यांक
राष्ट्रान
लश्करांत
लसीकरण
लांबा
लॅंडलायन
लोकसंख्ये
वकिलीचो
वर्गांच्या
वाटकुळ्या
वोरा
व्ही२०
श्रीहरिकोटा
संस्कृतायांनी
सक्तीचीं
समिट
सरकून
सरासरीच्या
सांठे
सादप
सानू
सिकंदराबाद
सिनेमांक
सिम्बा
सुखोई
सुदारपाखातीर
सुप्त
सुलूस
सुशांतान
सोंपवपाची
सोंपवपाचो
स्टीलचे
स्टुडिओन
हरिस
हॉटस्पॉट
हॉपकिन्स
हॉस्टेलांत
१८८१
६१४
८५१
९२५
##आन
##कारांनी
##व्हिल
##ाभशेन
##ायन
##ेन्स
अट्टरी
अधिकारांक
अनाथ
अनुयायांक
आंकडेवारींत
आपाचे
आयओक
आयसीसीक
आरडी
इदुक्की
इस्ट
उक्तावणांत
उपक्रमान
उल्लंघनांत
ऊम्मेन
एक्सेसरीज
एनसीआरांतल्या
एसेल
कंघी
करारांचो
कलाकारांच्या
कागाळीचें
कापपाच्या
किल्ले
किशोरान
कॅरोलिना
केरीन
कोबरा
क्युरी
क्वालिटी
खंजीर
खाल्यार
गुलशन
गूगलाच्या
गोएअर
गोमांस
गोरवांक
गोळीबाराच्या
ग्रान
ग्लेनमार्क
चंद्रान
चांडी
जखमेचें
जनसंपर्क
जमातीचे
जमुई
जयललितान
जलपाईगुरी
ज़ोया
जापाचेर
जूरी
जॅम
जैनाक
टप्प्यांच्या
टिकला
तंत्रज्ञानान
तमिळनाडूचो
तहसीलदाराक
त्रासाक
थायलंडाच्या
थारावपाचेर
थूक
थोडेच
दादरा
देवरिया
देशभक्त
दोडा
धन्यवाद
नाल्लाच्या
निसार
नेमून
न्यूजा
पगारदार
पटेलाची
परिणामकारक
पार्टीची
पिकांचें
पी११
पी१३
पुरवणदारांनी
पुराव्याचे
पोस्टान
प्रणालीचो
प्रदेशाचें
फटींगपणाच्या
फलंदाजीच्या
फळांच्या
फाळणे
फॉर्च्यून
फ्लोरिडा
बँडा
बदनामीच्या
बळवंत
बळींच्या
बाराबंकी
बॅटमन
भाशणा
मकर
मझुमदार
मरणांत
मळ
महाकाव्य
महाराष्ट्राक
माड
मानसशास्त्रज्ञ
मारताना
मिरांडा
मूर्ख
मॅग्नाइट
मेळयल्यार
मेहनतीन
मॉस्कोंत
मोरे
म्हणपाच्या
म्हयन्यांचें
यार्ड
येन
राजवंशाच्या
राश्ट्रांतल्या
रिचर्ड्स
रिजवान
रुपयाक
रेस्ट
लढोवपा
वाचपाचे
वाचवपी
वाडिया
वातावरणा
विंडो
विल्हेवाट
वीना
वेस्पा
व्हॅलेंटायन
शारांकडेन
संपत्तीच्या
साम्राज्याच्या
साल्वे
सासऱ्याक
सिया
सीटीसी
सीसीनंबर
सूप
सोलर
स्पार्टन
हिंसाचाराचे
२०आय
४०७
५६१
५६५
९१५
##9
##ईन
##काच्या
##गौडा
##मोर
##विज्ञान
##विरयत
##िल्ल्यो
##ेरिया
##्ल्या
अंबिका
अक्ष
अधिकृतताये
अप्रेंटिसशिप
अर्थांतल्यान
अवधेश
आंब्याच्या
आक्रमकता
आक्रमणाक
आद्यरूप
आरोपा
इतिहासांतल्यान
इत्यादी
इराकांतल्या
इशू
उपकलमाच्या
उपक्रमाचें
उपखंडांत
उशा
एआयसीसीचे
एचटी
एमोलेड
एससीडब्ल्यू
ऑक्टेव्हिया
ऑप्शन
ऑफसेट
ऑस्टीन
ओव्हरींतल्यान
करारांतलो
कळयलो
काँग
काळखांतल्या
किरेन
किलवॅट
खणींत
खरेदीची
खरेदीचो
खेळगड्याची
गटांचो
घोळोवन
चंद्रिका
चडपी
चर्चेंतल्यान
चुकांक
छातीच्या
जंतू
जाण्टी
जायरातींचो
जालन
जी९
जुंव्या
जेनिफर
झांपा
झुजतली
टर्नअराउंड
ट्रान्सपोर्ट
डेनिस
डेस्कटॉप
तन्हाजी
दर्याचेर
दवरतलें
दादल्याक
धडधड
धवनाक
धाडटाले
धातूचे
नक्सलांनी
नताशा
नांवाक
नाताळाक
नार्कोटिक्स
नित्यनेम
निर्वासितांक
न्हयकारचें
परिक्षांनी
परिणामकारकता
पाटन
पानी
पालिके
पिसो
पीएसएल
पुरस्काराचो
पुस्तकांतल्यान
पोद्दार
प्रलंबीतताय
प्रांताची
प्रोडक्शन्स
फायद्यांचो
बंधना
बलूच
बागी
बाप्तिस्म
बारावी
बिलांत
बेडा
बेल्लारी
बैजनाथ
बॉक्सर
बोरींग
ब्रिटनाची
ब्रॅडमन
ब्लॉकांतल्यान
भरण
भाजद
भूमिकेक
मसालेदार
महाजर
मार्व्हल
मिजोरम
मिर्जा
मुंबा
मेहनती
यंत्रणेचेर
युनिक
यूबीएचएल
रघु
रस्त्यां
रावण
रिंकू
रेफरल
रॉकी
रोजर
लायनेल
लॅथम
लेजेंड
ल्यूक
वकिलानय
वगळ्ळ्यात
वळींत
वाल्मीकी
विस्ताराच्या
वेवसायिकां
शरीफाच्या
श्रवण
संघर्शाच्या
सचिव
सत्तेंत
सनातन
सप्तकाक
सम्मान
सहकार्याचेर
सानुकूल
सास
सुदान
सुपारी
सुप्रीम
सुमो
सुशीला
सेकंदाक
स्वाब
हल्ल्यांतल्यान
हारता
हुर्रियात
२१व्या
४व्ही
४१९
४७३
७१५
७२५
७८५
##7
##तो
##येंत
##साइड
##ासन
##ीश
अंबर
अगणित
अॅबट
आंगाच्या
आउटसोर्स
आचारसंहितेचें
आचारसंहितेचो
आत्मविस्वासान
आपणावचो
आरोपपत्राच्या
आस्थापनाच्या
इंडोनेशियाच्या
इंद्रप्रस्थ
इओइन
उझबेकिस्तान
उद्देशाकडेन
उपकंपन्यांचे
उपसचिव
उबारल्या
एएफसी
एओक
कसलो
कासिम
कुटुंबाचें
कुतुब
कुर्सी
कूच
कृतींतल्यान
कैद्यांनी
कॉर्पोरेशनाक
क्लियरन्स
खजिन्यांत
खर्चूय
खानाचेर
गायब
गुलाबो
गॉड
घडयतात
घनश्याम
चक्रीवादळाच्या
चालन
चिरंजीवी
जदयूक
जनगणनाचें
जमानतदार
टीपीओ
डब्ल्यूडब्ल्यूएफ
डब्ल्यूबी
डस्टर
डि
डू
तख्त
तथ्याचें
तय
ताई
थापा
दशरथ
देशांनीय
दौलत
नमुन्याचो
नागपूरः
नायिका
नासा
निर्देशांकान
निवळटा
निशांत
पत्रांक
परततात
परफेक्ट
पाचवे
पारसी
पिकाचो
पिसां
पी३५
पुंज
पुराव्यांचोय
पूर्वग्रहाचो
प्रणालीं
प्रदुशणाच्या
प्रमोटरांक
प्रवाशां
प्रायोगीक
प्रोफायलाचेर
प्लान
फंक्शन
फर्दबेयन
फिक्सचर
बंदुकधारकांनी
बदाम
बीजू
भांगराचेर
भारतीयांची
भावांच्या
भूमिती
माध्यमांचो
मुद्द्यांक
मॅक्रॉन
मोटेपण
रिफंड
रोचक
लिली
वचची
वली
वळखुपा
वसुलीचें
वाठाराचे
वाडचे
वाडयतना
वारंवारता
विज्ञानांत
विटांच्या
विधानांतलो
विमुद्रीकरणा
विलीनीकरणाच्या
शिकपाचो
शिक्षकांचो
शिस्तभंग
शेअराचेर
संयोग
सजयतात
सनदी
सभेन
सहगल
साहो
सीएफएसएल
सीजेआय
सेलिब्रिटींनी
सैमाची
सॉल्ट
सोफिया
सोयीच्या
सोऱ्याचें
स्वरूपानंद
हवालदारान
४५३
५०७
५३१
५४१
६५१
८७०
##ंकडेन
##च्यान
##पति
##फर
##बीर
##राची
##लॉजी
##वचो
##वास
##सू
##ायझेशन
##ुनी
##्बी
अपंगत्वाची
अपीलांच्या
अर्जांच्या
आर्विल्ले
आल्फ्रेड
इजिप्तांत
उपजिल्होधिकारी
उपनगरांत
उपायुक्ताक
उर्बेभरीत
एग्जॉस्ट
एजीएम
एजीपी
ए३२०
ओशन
कन्नौज
कन्सल्टिंग
कसोटीचे
कार्यकर्त्याच्या
कार्यालयाची
कुड्डे
कॅन्सराची
कोडिसिल
खंडपिठानय
खगोलीय
गंवाचें
गांवां
गुलेरिया
गोपालकृष्णन
घडयल्या
घालतली
घोशीत
चक्रीवादळान
चमेली
चवकशीचे
चार्जाचेर
चित्रपटांतल्या
जयनगर
जर्जर
जिखपाच्या
जिणेचें
जेन
जोडपाचें
ज्वारी
झुजाचे
टिकटोक
टेल्को
ट्रॅव्हिस
ठेवीदारांक
डिब्रुगढ
डिव्हिडंड
तंत्रज्ञानाच्या
तीर्थयात्रा
थळा
दशलक्षां
देवाचे
दोषी
धर्मांतल्या
धुबरी
नंदिनी
नाईक
नितीमत्वाची
निर्वाह
नेपाळाचो
न्हयकारपाच्या
न्हयकारलीं
पट्टेंत
पर्यावरणाचेर
पांवड्यारच
पाकिस्तानांतलो
पीडब्ल्यू२३
पुजे
पुनर्विचार
प्रमाणाचें
प्रांतांतलो
प्लॉटा
फळांचो
फैजाबाद
बांदकामाचें
बायोकॉन
बीजिंगांत
बेंगळुरून
भागांचो
भागीदारीच्या
भाड्यांत
भार्गव
भावाचे
मरणान
मांडपा
मुजाहिदीनचो
मुदतीच्या
मोहनलाल
म्हामार्गाच्या
यूसुफ
योद्धा
रणनितींत
रेग्युलेटर
रोबॉट
रोहिताक
लर्निंग
लीव्हरेज
वर्माच्या
विचारूं
विभागांतले
विलीनीकरणाची
विशिश्टताय
व्हीलबेस
शिंपणी
शुल्काचें
शेजाऱ्यांक
संत्रो
संबंदाचेर
सजावट
समितीक
सायड
सीबीआर
सुक्षीम
सुद्दा
सुपरहिट
स्वरूपा
हरकतींत
हळद
हां
हांचेमदले
हिल्स
हुंवाराचे
३५८
३६९
४११
४६९
४९६
##ی
##ँ
##ंका
##पान
##ळी
##वाणी
##ेव
##्मी
200
अधिनियमाच्या
अनिश्र्चीत
अन्नधान्याचें
अभयारण्याक
अर्दन्यायिक
अर्नस्ट
अस्तित्वाक
अॅमिनो
आगार
आचारसंहिता
आणीबाणीची
आतंकवाद्यांचो
आदराची
आपणावपा
आपाक
आलें
आवृत्तीचो
इंडियाबल्स
उक्तावंक
उत्तरेकडल्यान
उत्तेजक
उपपुलीस
एचडीचेर
एन्डेव्हर
एमएम
ओपिनियन
कमेंट
कम्युनिकेशन
करपाविशीं
कस्तूरी
काउंटीचें
काडपाचेर
कॅलिस
क्षमतेच्या
खेळ्ळां
गंगुबाई
गरजांचें
गिरिडीह
गुंतयल्यात
गोड्यामुताच्या
घरांचें
घेवपांत
चंद्राक
चिक
चिकट
चित्रकला
चिप्स
चौकाचेर
जमातींच्या
जमुना
जयम
जहाजांचो
जीसी
झगडटाले
झाडाच्या
टाइम्साच्या
टिप्पण्यांचो
टीबी
टॉवर्स
ट्रंक
ट्रॅफर्डांत
डिम्ड
डीएमकेचो
डेमलर
डोमिनिक
थकवो
थिंक
दलसिंहसराय
दायजाचो
दिवप्यांची
दुखपाची
दुस्मानाक
देखिये
नांवांनी
नागपाल
निलगिरी
नेटवर्क्स
न्यायाधीशां
न्हयकारचे
न्हिदिल्ल्या
पलतान
पीटीसी
पी१४
पुजतात
पुडुचेरींत
पुलिसांचे
पुस्तकी
पोशाख
प्रक्रियांचो
प्राध्यापिका
फर्माचें
फळयो
फायलीक
फालो
फुडारपणाचेर
बंडखोरांक
बंध
बखरी
बराबर
बसपाचो
बांदलीं
बाराबरूच
बीसीसीआयक
बॅट्समन
बोर्डाच्या
ब्युटी
भुमिकेची
भुरग्यांमदीं
भेदभावाची
भोगपा
मदनलाल
मनीश
महासंघ
मानल्या
मिशिगन
मिश्रधातू
मुद्रांकीत
मुद्राकरण
मेळयल्ल्यो
रझा
राख
राजपूताक
राष्ट्राचें
रिगॉर
रियलमीच्या
रिसॉर्ट्स
रुच
रुपांनी
रूख
रोलांत
रौरकेला
लीक्विडेशनांत
लॅन्को
लोकशायेक
वगडावपी
वारंगल
विद्यार्थ्या
विमानवाहक
विशाखापट्टणम
वेल
व्याजदराचेर
शकनाशिल्ल्यान
शेफाली
संघाची
संचालनाक
संपादनांत
संस्कृताये
सचिवालयांत
सद्दां
सलमानाच्या
सांगचे
सांगताले
सार्वत्रिकपणान
सीडीएस
सुपरमॅन
सुपरसोनिक
सोंपिल्ले
सौतेली
स्कॉटिश
स्वातंत्र्याचें
हरिवंश
हायपर
हायवेचेर
१५२०
२४००
४३९
४४३
५८३
६०१
६६७
७४९
##ंतय
##ंब
##पर
##भा
##विन
##साची
##िन्स
##ियाच्या
##ौरा
अधिग्रहण
अयोध्याच्या
अरेबियांत
अर्थमंत्रीन
असली
आदेशाचे
आयकल्यात
आयडीआर
आयर्लंडाक
आर्सेलरमित्तल
आल्पायन
आवाजान
आशयाच्या
आशावाद
इराणांत
इलेक्ट्रिक
इस्टेटांत
ईमेलांत
उजवाडायलें
उपखंडांतल्या
उपनिबंधकाच्या
उबारली
एक्सएस
एनी
एमएमआरडीए
एमसीओसीए
एलर्जी
ए८०
ऑटोन
ओलांड
कंटेनमेंट
कठे
करतनाच
कर्मचाऱ्याचें
कलेक्टराच्या
कळोवचो
कायद्यांतली
काळांतल्यान
कॅम्पांत
क्रशिंग
क्रेग
खरेपणाची
गाझीपूर
गुंतवणुकीचो
गूंजपी
ग्राहम
ग्रॅ
ग्वार
चलयल्लो
छठ
जनावरांचे
जिखला
जिवितांतलो
जूम
जॅझी
टिप्पणीकार
टिवी
डिफॉल्टांत
डेज
ड्रग्साचो
तळ्यांतल्यान
तळ्याचो
तांदळाची
तोंडा
दलीप
दोगांयचें
धंदो
धीरूभाई
निफ्टी५०
नोकऱ्यांनी
पयलींची
परजीवी
परवडटा
पर्दाफाश
पर्यटकांनी
पर्स
पात्रतायेची
पिएरे
पियेवपाक
पुलिसांनीय
पॅरिसांतल्या
प्रकारांचेर
प्रणालीच्या
प्रदेशां
प्लॉटाच्या
फॉलोइंग
फोनिक्स
फ्रांसाच्या
बँडान
बंसला
बदलपाच्या
बरेच
बहल
बॉलांक
भाडेकाराच्या
भ्रमात्मक
मंजुरीची
मंत्रालया
मंत्रालयांच्या
मंत्रीमंडळांतल्यान
मंत्रीमंडळाक
मजुरांचो
माओवाद्यांनी
माझी
मालदीवांत
मालाचो
माळेचो
मिण्टां
मिनरल
मुनेत्र
मेजपाखातीर
मेजली
मोटारसायकलीक
म्हामंडळांनी
यूपीच्या
योग्यतेच्या
रक्कमेचें
रजनीश
राज्यांनीय
राश्ट्रांचे
राष्ट्रीयकृत
रुपां
रुपाणी
लतीफ
लवादांतल्यान
लॉन
वादविवादाक
वापरतलो
वायुसेनेचें
विभागून
विमोकृत
विश्
वेव्हारांतल्यान
शारजाह
शिकयलें
शिथीलतायेचो
शिवाच्या
शीं
संकश्टांक
संस
सद्याचीं
सलामी
सावनच
सिस्टमाचेर
सीबीडीटी
सुनंदा
सुशांताक
सोंसूंक
हजारी
हाचेभायर
हाताळचे
हुंपपाची
१९३७
४२४
४२९
४७२
५०९
६३७
६४२
६५५
६५७
##ي
##गढ़
##टे
##ठा
##ार्ड
##िफ
##्रिक
16
अंतरलो
अकमल
अकाउंट
अत्तर
अनुमानात्मक
अनुराधा
अन्नधान्याचो
अवामी
अॅप्लिकेशनांचो
आइस
आचरणाची
आफताब
आमंत्रणा
आरसीसी
आरोपांनी
इजिप्ताच्या
इन्व्हेस्टर्स
उडयल्ल्याचो
उतरांची
उत्पादकां
उपनियमां
एकाद्र्या
एक्सपार्ट
एक्सयूव्ही५००
एजीए
एनआयएम
एलएआर
ऑपरेटरांक
ओल्या
कनॅक्ट
कळचें
कस्टडीयन
कार्यपद्दतीचें
किंग्साक
कुटमाक
क्रॉसिंग
खजिनदार
गडद
गढ़वाल
गांवांतली
गायिल्लें
गुच्छ
गुरवारपणाची
गोखले
घटकाच्या
घेवपाचीं
घोडो
चलतालें
चलनाचो
जमाल
जमैका
जिल्ह्यांचो
जेटलीन
जॉर्जिया
टियागो
ट्रम्पाक
डीडांत
डीपीएस
देंवयलो
धाबींत
नशीबवान
निकिता
न्यायालयाकय
पटीन
पडल्यांत
पदार्थांचें
पयल्याक
परंपरेप्रमाण
पात्राची
पाम
पावोवप
पिवपाक
पीएमएस
पी१२
पेलोड
पॉलिटेक्निक
पोतीं
प्रकारां
प्रमाणाची
प्रसादाक
फिल्मांक
फॅग
फॉस्फरस
बंदीचो
बसपाचे
बार्सिलोना
बालाकोट
बीच्या
ब्रँडाचें
भिलाई
भेटयली
मंडळांक
मंडळांच्या
मतभेदांक
मांडना
मागपाच्या
मानस
मानेका
मालिकेचें
मुतांत
मेजून
मेट्स
म्हयनोभर
म्हामार्गांचेर
यादींत
यूजीसीन
राजभवनांत
रेकॉर्ड्स
रोमी
रोहतगी
लवादांनी
लॅबोरेटरी
लेनोवो
वापरचें
विचारून
विज्ञानाच्या
विद्यार्थ्यांचें
विधींत
विरोधाक
विलासी
वेंचपाचो
वेळापत्रकाच्या
वॉटसनान
शामली
शासनांत
शिपमेंट
शिफारशींची
शेंकडे
शोची
संकेतथळां
संघांतल्यान
सदांखातीर
सनरूफ
समजल्ल्या
समशीतोश्ण
सवलतीचेर
सांद्रताय
सांबाळपाचें
साकारल्या
सुवाळे
सोडल्यो
सोडोवपाचे
स्त्रोताचेर
स्वर्ग
स्वासांत
हवाला
हालोवपी
१९३८
२६०५
४ए
५०३
५२९
८८८
##गेट
##चल
##शिल्ले
##स्टार
##हॅम
##्ष
##१७
60
अणभवाच्या
अदालत
अध्यक्षपदाची
अपीलांतलो
अभिमानी
अलवर
आकृतीबंधांत
आज्ञापत्राचें
आयकप
इंजिनियर
इम्फाल
इस्लामाबादांतल्या
ईएम
उनाडकट
उपचारात्मक
उप्रासतलो
उमेदवारीपत्र
एनआयटीच्या
एनबीसीसीन
एफटीसी
एमएफआय
एलडब्ल्यू
एव्हरेस्ट
एसआरआय
ओपनाच्या
ओव्हरहेड
कमाईचो
कळयल्लो
काँग्रेसींतल्यान
कांद्याचो
कागाळींचेर
कापूंक
कारखान्यांक
कार्डिनल
कार्बोहायड्रेट
काळान
कीमो
कुराणांत
कुशन
केंद्राचे
केबी
कोली
कोसळपाक
क्रेन
खंयचींय
खंयच्यो
खटल्याचे
खडपां
खेडा
गटाचेर
गिमांत
ग्राहकाच्या
चंडी
चलनवाडीक
चलनाचें
चॅनलांक
जल्मस्थान
जियान
ज्यांत
टर्मिनस
टिपा
डिक्शनरी
डिव्हिजन
डेंट
डेरेक
ड्रीमी
तबलीगी
थिरावल्लो
दलबीर
दुयेंतीचो
दुर्गापूर
दोंगरांचेर
द्रवीकृत
धरल्यार
धरल्ल्या
धर्मशाला
धागो
धुकललो
धुकलून
नरवाल
नाकार
नियमितीकरणाच्या
निरुपयोगी
निर्देशांकाच्या
नेमणुकेंत
नोंदणीचेर
नौटंकी
पंथीय
पत्रांचेर
पल्प
पावसाचेर
पीटी
पीडब्ल्यू१९
पुस्तका
फानी
फिच
बंगालाचे
बाबलू
बायफ्रेंड
बिलियन
बीव्ही
बेलारी
ब्रिटानिया
ब्रीफ
भंडार
भावपण
भावार्थ
भुजां
मंत्रिमंडळ
मारपेटाक
मारी
मालिश
मिश्राक
मुरुगान
मॅन्युअलाच्या
मोगाक
मोडल्या
म्हयन्याची
येवकाराची
राज्यांमदीं
रानदुकर
रामगोपाल
रावलां
लार्जेस
लॅच
लोकसंख्येंतल्या
लोह
वाइज
वापरलीं
विसरूं
वेरिएंटाच्या
व्हीटो
व्हीलर
शटर
शालीमार
शिक्षणा
शैलीची
संगणकाचेर
संबंदाचें
संरचनेचेर
संरचनेचो
संहितेच्यो
समकक्षांक
समजुतीचेर
सातवें
सिटींत
सिपाही
सुचयल्लो
सेक्युरिटी
सोडटना
सोलापूर
स्टॅंडी
स्टॉकांचेर
स्तुती
हंसराज
हारला
हुंड्याची
हेतूय
हॉक
ह्यूस्टन
०८०
४५८
४८६
५६७
६३५
७टींत
७३३
८४९
९आर
##कला
##घ
##टिया
##डीन
##तू
##न्ना
##बुक
##यल्ले
##श्
##हरी
##ुडी
##ॅप
##ोय
##्ल
अंतरा
अंतराक
अभिनेत्याचे
अभौतिक
अमूल्य
अर्थशास्त्रांत
अॅपाचेर
अॅव्हरमेंटां
आपणायलां
आयताकृती
आरएसएसचो
आरटीजीएस
आरोपीचे
आर१५
इंग्लेज
इराणाचो
इव्हन
इस्पात
उत्खनन
उमेदी
उश्णतायेक
ऋतूंत
एंझायम
एरंड
एसएसआय
ऑर्डराची
ओएनजीसीन
कपड्याचेर
करपावांगडाच
करूनच
कलमांनी
कसोय
काउंटराचेर
कार्यावळीन
कुसकुसपाच्या
कृत्याक
कॅनबरा
केरळाचे
कॉमचे
कोना
क्षेत्रांतलो
खासी
गांधीचें
गियाना
गुमला
गूणांतल्यान
घटस्फोटाच्या
चेकाचो
चॉयस
चोल
चौकट
जतीन
जोडप्याचें
टेस्टिंग
टोपली
ठक्कर
डायोसेसन
डेलॉयट
डॉलराचे
ड्रॅग
तथाकथित
तळमळ
तेंदुलकराच्या
तोखणायेचो
दाबलो
दुदा
दुयेंतीचें
दोंगरांनी
निवडीचो
नेमाळ्यांनी
नेमिल्ली
नॉकांत
पक्षांतले
पद्मभूषण
परदेशांतले
परमळीत
पर्यटकांची
पांड्याक
पांवड्यावेलो
पाणबुडयो
पाळ्ळो
पिकांत
पीकेएल
पुतीनान
पॅकेजींत
पोलंडी
प्रकरणांतच
प्रदेशान
प्राधिकरणां
बटला
बदलाचेर
बनियान
बशीक
बहुगुणान
बादशाह
बियांचो
बॅचाचो
ब्रह्मदत्त
भद्रक
भागाचो
भागीदाराच्या
भागोवपाक
भिक्षू
भोंवपा
भोगल्या
मंजुरीचो
मंडळांतल्यान
मजतीच्या
मलाला
मांडटलो
मालकांची
मिझोरामांत
मीट
मुजफ्फरनगरांत
मॅग्नम
मेडिसीन
मेरुरज्जू
मोटोरोला
रचला
रडपाक
रामचंद्रन
राश्ट्रध्वज
रिमांडाच्या
लिपलां
लॉर्डशिपांक
वकिल
वस्त्र
वागाह
वाला
वासुदेव
विवेकबुद्दीचे
व्यक्तीचे
शीर्षकांत
शैलीचो
शौकत
संग्रहालयाक
संतती
संश्लेशण
समजावन
सायप्रस
सारकेपणाची
सिबालान
सेक्युलर
सेनगुप्ता
सोदाच्या
सोसायटींच्या
स्कूलांत
स्टेनलेस
स्नोडन
स्वार्थ
हाजिरे
हातूंतलें
हालचालींचो
हिंदुजा
हिचो
हॉर्नेट
०६०
१७व्या
१९१९
४०४
५०८
५३६
६२३
८८०
##ंदा
##तेंत
##य्या
##राचो
##ेय
##्ग
##्यांचेर
अक्षांश
अफेयर्स
अर्बुद
अवज्ञा
अॅडव्हान्स
आयसोफिक्स
आरोपांतल्या
इंधनाचेर
उद्देगांतले
उपप्रधानमंत्री
उरतल्यो
ऋण
एचएस
एजंटाच्या
एलजीएफ
एस्पायर
ए५०
ऑफिसरान
ओंकार
ओजेसी
ओडप
औंसाक
कटजू
कलिंग
कश्टान
काइल
कागाळदारांनी
कापसाचो
कार्ति
कार्यवाहींतलो
कार्या
किड्स
कृतींनी
कॅन्सराक
कॉन्फेडरेशन
कोठरी
कोमांत
कोरस
खडू
खाडींत
खैरा
गणनेच्या
गन
गमावपी
गाजर
गुजरातच्या
गेटीचेर
गैरवेव्हारा
ग्लोरिया
ग्लोस्टर
चंकी
चटर्जी
चिदंबरमाच्या
चेहरे
छपाक
जंता
जडेजाक
जातालीं
जातींक
जिल्ह्याची
जुळे
झेवियर
टाळून
टेरेसाचेर
ट्रांसजेंडर
डिजिटलीकरण
डिपार्टमेंट
डीलांत
डीवाय
तडजोडीचो
तरतुदीन
तालिबानान
दर्याचो
दशकांतल्या
दाखोवचे
दिवप्याचें
दीपिकान
दुद
दोतोराचो
नमुन्यांचेर
नळयो
नियमावली
नियमीत
निरोगीपण
निविदाकार
निशाण्याचेर
नेचर
न्हिदूंक
परदीप
पांडिचेरी
पातळेंत
पार्ट्स
पिझ्झा
पुराण
पूर्वस्थिती
पोतयेंतल्यान
पोर्तुगाल
प्रक्रियाच्या
प्रतिबद्ध
प्रमोटरां
प्रशिक्षणाच्या
फिल्मांचो
बंगालचे
बंडखोरी
बर्मिंघम
बसली
बिनी
बुकिंग
बेनिफिट
भरपाचे
भावनांचेर
भूपति
भेटयलो
भोगचो
महल
महालक्ष्मी
मास्टरो
मिशनाचे
म्हणटालो
युनिटाची
योगदानाचो
रस्त्यांची
राजभास
रावलपिंडी
रुढी
रॅपर
रोंपो
रोच
लंडनांतलो
लढोवंक
वतांत
वळी
वांगड्यांचीं
वागले
वाटावपाचो
विन
विशींचे
व्हेल्ल्या
शकतलें
शक्तींनी
शेअरधारकांची
शेओ
शैलीचे
श्रीनिवासनाक
संकल्पनेक
संदांचेर
संदेशन
संस्थाक
सट्टेबाजी
साक्षीदारांनीय
सासऱ्यां
सियाम
सिव्हीक
सीबीडीटीन
सुपरन्युएशनाच्या
सॅ
सोना
स्टॉकांचे
हरितगृह
हीरा
१९२१
१९३५
४३६
४९३
६४१
६६१
७६२
८१०
##काक
##काम
##तायेची
##द्री
##बरा
##लेट
##वणी
##वीन
##व्वा
##स्टोन
##ांखातीर
##ॅग
##४६
अंकुर
अंबती
अज्ञानाचें
अणुशक्ती
अपीलार्थी
अभ्यासाचेर
अवकाशीय
अशोभनीय
अहवालांक
आंगांक
आत्महत्याची
आपयल्यार
आपोल
आयांत
आरक्षणाक
इंडियाना
उंचायेवयल्यान
उतरांचेर
उमेदवारीची
उलाढाली
उल्लंघनाचेर
एकटीच
एजन्सींत
एनएचपीसी
एनसीबीच्या
एनिमस
ओलसाणीच्या
करप्याची
करीनाशिल्लो
कांशें
काउंट
काडी
कायद्यांच्या
कार्डाची
केएमसी
कोणाचें
क्वांटमाचेर
खुर्राणा
गुणवत्ते
गॅंगस्टर
ग्रेस
चल
चिन्नास्वामी
जिवीतभर
जेठमलानी
जेव्हीसालुंके
ज्ञानांतल्यान
टाटाक
टिकावूपण
टीएसआय
टीव्हीची
टेलिफोनी
डर
ड्रायव्हरांक
तंत्रज्ञानाक
तत्वाची
तळागाळांतल्या
तिनसुकिया
तुरी
तोंकदार
दस्तावेजां
दुबयच्या
दुविधा
देवास
दोतोरांची
धनादेशाच्या
धांवड्यांक
धूत
धोरणांतल्या
निप्पॉन
निशस्त्र
पद्दतीचे
पर्यावरणाच्या
पुस्तकांची
पॅट्रिक
पेप्सीको
प्रजासत्ताकाच्या
प्रतिश्ठेचेर
प्रशिक्षणाक
प्राणीसंग्रहालयांत
प्लीहा
फिंगर
बंगाला
बंडखोरांनी
बशीचो
बसकांक
बागांनी
बाजारपेठां
बानो
बिश्नोई
बीएन
बुकांत
बृहानमुंबय
बेळगांव
बॉलिवूडांतलो
भग्नावशेश
भागीरथी
भियेतात
मंचाचो
मंजूरी
मंत्रीमंडळांतले
मतदानाक
मदुरै
मरणाचेर
महामहिम
मार्टिना
मालवीय
मुजफ्फरनगरः
मेलानिया
मॉर्गनान
मोगाचें
मोडलें
म्हाझुजांत
याचिकादाराकय
युआन
रथिनाम
राजस्थानाक
राबरी
राहुलाच्या
रुपांतल्या
लंगर
लाँचिंगाच्या
लिफाफो
लिमखेडा
लीक्विडेशनांतल्या
लोकांनीय
लोटस
वर्गांची
वाठारांचेर
वातानुकूलित
वायुसेनेचे
वासीन
विकतली
विकला
विनाशिल
विलक्षण
विस्ताराचो
व्हॉल्यूम
शकताले
शहजाद
शारीकरण
संकल्पनेचो
संघटणे
संधिवात
संस्कृतायेच्या
सत्येंद्र
सभाघरांतल्या
समजावपाचो
समस्याक
सर्तीचेर
साइटचेर
सायकलीन
सिध्दांताची
सीएएस
सीतापूर
सीसीएस
सुनावणेक
सुरवेचे
सॅट
सेन्सिंग
सॉफ्ट
सोंपोवपाची
सोडयल्यात
सौंदर्य
स्पेसांत
स्वताच्याच
हंगामाची
हैदराबादान
०४०
१२वे
१८५७
५१७
५६४
५६८
५७३
५९१
६१२
८ए
##तायेक
##त्रा
##माच्या
##वपाची
##सीएल
##़
##ांकडेन
##ुई
##्डा
##२०
अपघाताचें
अम्मा
अलोन
अहमदान
आडायल्यात
आद्य
आमदाराच्या
आमूलाग्र
आयची
आवाहनांत
इंडीजाचेर
इफेक्ट
इम्पॅक्ट
ईश
उपक्रमांच्या
उपवेंचणुकेंत
उरपाचो
उलाढालीच्या
एएसजेन
एक्सचेंजांक
एफपीओ
एमएसके
एलआयसीन
एलओसीच्या
एसडीआरएफ
एसीड
ओझोन
ओपनर
ओसाका
काला
कितलोसोच
केंसांक
केशीं
कोलकाताचो
कोळशाचें
खणींच्या
गळ्याचेर
गुप्ताच्या
गॅझेट
गॅसाच्या
घडी
घुस्पलो
घोवाचें
चक्रीवादळाचो
छत्री
जयजयकार
जातींतल्या
जानैरु
जिज्ञासू
जिमनास्ट
जिल्ह्यांचेर
जीत
जेरोक्स
ज्योतिशपीठचो
ट्रकांत
ट्वीक
डायलिसीस
डिलक्स
डीपीसी
थायलंडांतल्या
दाओ
दासाच्या
दाहक
दिसला
दुदांत
दुशीत
दुस्मानपणाच्या
देवांक
धोक्याचेर
निर्धारणा
निलंबनाच्या
नेमणुकां
नैना
पयसुल्ली
पर्वतरांग
पळय
पांवड्याची
पार्कर
पुटांत
पुस्तकांचेर
पेन्सिल्वेनिया
प्रतिक
प्रथा
फिरोजपूर
फुलांचे
फेमा
फेरयो
फॉर्मेटांतल्यान
बंदराची
बंदूकझुजांत
बदलाच्या
बस्तार
बांगलादेशांतल्यान
बाजूचे
बाथ
भरतकाम
भरूं
भरूच
भोसले
मर्णाचे
मस्टर
महिपाल
मागणीचो
माचयेची
मुसलमानांचेर
मॅचीक
मेंढरां
याची
रंगपूर
रचलें
रणनितीची
रिसर्चाच्या
रेट्रो
लांकडाचो
वण्टीं
वाटावं
वाडयल्ल्यान
वायझेडएफ
विकपाचे
विल्यमसनान
विसंगतींक
वुहान
वेंट
वेनुगोपाल
व्हरताली
व्हांवतालें
शांतताये
शाखेच्या
शिवसेनेचे
शेंकड्यांतली
शेतवडींत
शॉप
सत
सरूप
सवलतीचे
सांगचो
सांगिल्ल्याचें
साइटांचेर
साबरीमाला
सिंधून
सीपीएम
सुरवातीचीं
सुर्याचीं
स्की
स्टेबिलिटी
स्ट्रेटजॅकेट
स्पश्टीकरणाचेर
स्वायत्तता
हाताळ्ळी
हॅमिल्टन
१२५०
४६४
५१९
६८५
७०४
७५व्या
८९९
##ंदर
##टांत
##नूर
##पणाचे
##फुल
##माल
##रम
##वपा
##वपी
##विशींची
##साई
##हाल
##ियार
##ृत
##२३
अंगद
अनुदानाचेर
अफगाणिस्तानांतल्यान
अमरसिंह
अम्ल
अर्नेस्ट
अवमानाचो
असस
अॅसेट्स
आगर
आचरणाच्या
आपसांत
आमंत्रित
आयसीएआर
आरोपपत्राक
आर्क
आर३
आवाजा
इत्सेप्रमाण
इमारतींतल्या
उक्तावणाचेर
उगडटात
उजवाडायलो
उदकांतले
उपनियमाच्या
उमेदवारांचे
एकरांनी
एक्टर
एमएसओ
ओपीडी
करपासारकीं
करीनान
कापस
कार्पेट
कु
केकेआरान
कोटाच्या
कोयराच्या
क्यू३
क्षेत्री
खरेदीदारांच्या
खाणा
गदा
गोलंदाजां
ग्रॅमी
ग्लॅमर
घर्शण
घुंवळ
घुमट
जपानाची
जयपूरांतल्या
जयसिंह
जावचीं
जीएल
जी८५
जुलया
जेलांतल्यान
टीटी
टीडी
तिरुवनंतपुरमः
तिसर्
तेलान
त्रासाच्या
थांबयल्या
दंतवैजकी
दशांश
दासी
दीनदयाल
दुबळेपणां
दुबळेपणाची
देगेवयल्या
देशभरांतल्यान
धाडटली
नियोक्त्याचो
नीशम
नेटवर्काचो
न्यायशास्त्राच्या
न्यूजचेर
पत्रांचो
पदार्थां
पायनियर
पुरस्कर्त्यांनी
पुरस्कर्त्यान
पॅरालिंपिक
पेरू
पोटॅशियम
पोस्टाक
प्रकारच्यो
प्रतिज्ञापत्रांतल्या
प्रदर्शनाक
प्रावधानांत
फटको
फितर
फुफ्फुसांचो
फॉल
बंगालांतले
बदलपाचें
बलिया
बाजरी
बाबती
बिलबोर्ड
बृजेश
बॅनर्जीक
बॅरोमीटर
बेकर
ब्रेकथ्रू
ब्लॉका
भागोवपाखातीर
मंत्रीपदाचो
मध्यभागांतल्या
मनन
मनू
महासंचालकाक
मांडिल्ली
मागतना
मारपाचे
माळेंतल्यान
मुद्द्यांचो
मॅक्सांत
मेणवाती
मेळयनासतना
मोटारसायकलींत
मोहिंदर
म्हशी
यजमानांनी
यासिर
यूटी
योगायोगान
रस्त्यावयल्या
रिणांक
रॉड
रोशनान
लश्कराचे
लायिल्ल्याचें
लेबलां
वखदाची
वगळ्ळ्या
वाचप्यांक
वाऱ्याची
विकसकां
विक्रांत
विखंडन
विचारवंत
विचारिल्लें
विजयाक
विपुल
विस्ताराचेर
वेंचप
वेवस्थापनांतल्या
वॉरेन
व्यक्तींमदीं
व्याकरणीक
व्याप्तींतल्यान
शकचे
शारापसून
शिक्षकान
शेअरहोल्डिंग
शेखावत
शेजाऱ्यांनी
श्रीनाथ
संकल्पनेंत
संपांत
संबंदांतल्यान
संस्कृतायेचें
सत्या
सर्वेश
सांगची
सावळेंत
सासणाचें
सिध्दांता
सिलचर
सिस्टेमा
सुचयल्ली
सुपरजायंट
सुशांताचो
सेनाचो
सोंसून
सोदांचेर
सोहराबुद्दीन
स्टॉकांच्या
स्प्लिट
स्लेट
स्वताच्यो
हल्लेखोरांची
हांसो
हायड्रोलिक
हिचें
हुस्क्या
हू
५५७
५६६
७२६
८२५
९७५
##आउट
##तेन
##थर
##पाचें
##पू
##बर्न
##यड
##यल्या
##येची
##वण
##वर्थ
##वाली
##वेअर
##ायल
##िडी
##ॉम
##६३
अंकगणितीय
अंडाकार
अबाधित
अभ्यासाक
अविकसीत
आदाराचे
आपोवपाचें
आयपीएलाची
आर्क्टिक
आर्टी
आर्शी
आशियांतलो
आस्थापनांतल्या
इंटरनॅटाक
इन्फिनिक्स
उग्रवादी
उजवाडाचे
उजवाडावपाचो
उपाध्यक्षान
ऋतू
एओच्या
एजन्सीचेर
एडब्ल्यू
एफडीए
एसयूव्हीचेर
एस्क्रॉ
ओआरव्हीएम
ओरांव
कंत्राटांचो
कंपन्याच्या
कर्तव्याची
कलमाचेर
कव्हरा
कश्यपान
कागाळींतल्यान
कातीचे
कापल्यात
कारखान्यांतल्यान
काळांतय
किंग्सान
किल्ल्याचो
कॅपिटल्साक
केल्ल्याक
कॉलेजीचो
कोइराला
कोनशांत
क्रॅक
खणीच्या
खा
खांदो
खाडीचेर
खालसा
खुबश्या
खेळिल्लो
गंगेच्या
गणिताच्या
गीताचें
गॅलरींत
गोरी
गोवर्धन
ग्रॉस
घटकांनी
घडयल्ले
घडोवपाचे
घालतकच
घोशणांचो
चलपा
चुकोवंक
जखमींचो
जल्माची
जी९५
टायअर
टीएमसीचो
ठेव
ठेवींत
डावाची
डुमरांव
ताचेपसून
तुजी
थांबयलो
दुयेंसाचीं
दुसऱ्याच
दुस्मानपणाचे
देना
धरतले
धांवतात
धुक्याक
नमुन्याचे
नाईट्स
नागौर
नाशिल्ल्यानय
निर्मीत
नोटींचें
न्यायाधीशानय
पंचम
पंचायतीची
पदार्थांनी
परिशिश्टांत
परिसंवाद
पातळेचो
पिनाराई
पिळगेक
पीआयएलांत
पीएमच्या
पुताचें
पोठिया
प्रकरणाकय
प्रतिबध्द
प्रशस्त
प्रशस्तीपत्र
फातरांच्या
फोगाट
फ्रांसान
बरयिल्ल्या
बलवान
बीएसएफान
बॉन
ब्राझीलाचो
भंडारा
भरली
भांडवलाचेर
भागांची
भावंडां
भुरगेपणांतल्या
मंगला
मजतीन
मतदारसंघाचें
मशिदीक
मारुतीन
मालदा
मेळोवप्यां
यशपाल
युजीसी
युनिव्हर्सिटीच्या
रचणुकेंत
रमाकांत
रशियेची
राजपूता
रामलाल
रेटिना
लांबायेच्या
वाचतना
वाचल्या
वाजवीपणाची
वाटोवंक
विश्वकोश
शारांच्या
शीर्षकाच्या
शुक्रवार
श्रीधरन
संघटनेंतल्या
संरेखण
संहितेचें
सांसद
सुदारला
सुधांशु
सुर्योदय
सुवीधा
सूत्रा
सॅमसंगान
स्टॅनफर्ड
स्तर
स्पेशलिस्ट
स्वाक्षरींत
हती
हुंवारा
हृदय
०चेर
६२२
६६६
६८१
७ए
७५५
८१८
९९८
##e
##ंजी
##ओएस
##नाम
##बोर्ड
##यली
##येन
##ळे
##वें
##िंदर
##िप
##्डी
##्लें
##३५
अधिकारक्षेत्रांतल्यान
अभेद्य
अवमूल्यन
अशफाक
आगा
आतंकवाद्याक
आपोवपाच्या
आबीद
आयकपी
आरएमसी
आर्द्रताय
आळस
इझ्राएलाचे
उडयतलो
उबारलें
उमेदवाराचें
उरिल्ल्यांक
उलयनात
एएए
एकात्मता
एजन्सीं
एसएआर
एसएचओन
एसपीव्ही
ओपल
कदम
कल्पनेचेर
कळयतात
कांचीपुरम
कादरी
कारकिर्दींतली
कारवायाच्या
कार्यवाहीक
कालव्यांत
काळाचे
किलर
किवी
कुंबलेन
केजरीवालाचेर
कॉक्स
कोरांतिल्लो
कौरान
क्लायमेट
खर्चांतल्यान
खाशेलपणाची
गांवाचे
गॅसाची
घरांतली
घालां
चाबूक
जनरलाच्या
जर्मनीच्या
जर्मनीन
जीएसएटी
जेएनयूचे
झुजतना
टायकून
टीएम
ट्रकाक
डीएल
डीएसजी
डेंग्यू
तज्ञा
तरंगपी
तळ्याचें
ताचीच
तेन्नाची
त्रिपुरांत
थांबले
दीर्घकाळाची
दुकानाचो
दुयेंसाचें
देगणां
देवयानी
धरणांतल्यान
धरम
धार्मिक
नवनिर्माणा
निकेल
निरिक्षकांनी
पदार्थांतल्यान
परिसरांतल्या
पाटीदार
पातळपाक
पावसाळ्याक
पित्त
पिलांक
पीसीच्या
पी१७
पॅरी
पोस्टरांत
प्रकाशान
प्रस्तावकान
फांट्या
फिन
फुडाऱ्याची
फोटों
फ्लिक
बलात्काराचे
बल्ब
बालासाहेब
बालोदा
बिलिंग
बीई
बेक
बेनझीर
बोनाफायड
बोम
ब्रजेश
भाडेकारांक
भुमिकेंतय
मंत्रालयांक
मधुसूदन
मम्मा
मरला
मराझो
महाराष्ट्रांतल्यान
मागणेक
मान्यतायेक
मार्गाचें
मालकां
मूळांत
मॅचीचे
मेटियोर
मॉब
मोबिलायझेशन
यात्रेकरु
यादीं
युनिटांतल्या
योग्यतायेबगर
राजवाड्याच्या
रायडर्साक
राहुला
रिपब्लिक
रेल्वेचेर
रेसलिंग
लागसारचो
लिबर्टी
लेक्सस
लेहमन
लोकयुक्त
लोकशाये
लोकसंख्येचेर
वळेरेचो
वागयतले
वावरांतल्यान
वावुरतले
विक्की
विरेंद्र
विस्तारांत
विस्वासांतल्यान
वेताच्या
वेरिएंटा
व्यंग्य
व्हरपाचे
शक्तीचें
शील्ड
शेण
शेवरलेट
श्रेणींतल्या
संकुलांतल्या
संकुलाच्या
संघर्शाक
संपूर्ण
संभाव्यतायेच्या
संभाव्यतेच्या
संवसारांतलीं
संवसाराच्या
संस्कृतायेचे
सचदेव
सट्टेच्या
सद्गुण
सर्तींतली
सा
सांबाळ्ळे
सासऱ्या
सासऱ्यान
सीएसआय
सैमांत
स्क्वास
स्टालिन
स्टॉकाचो
स्ट्रायकर
हार्डी
हुंपतलो
०३०
१९४३
५२७
५५८
५९२
७०८
८०२
##ंदन
##डीच्या
##प्रसाद
##मती
##मिया
##हारा
##ुली
##ॉक्स
##्षी
##५०
अचूकता
अध्यायाच्या
अर्थाक
आपोवचो
आयसीयूंत
आल्गोरिदम
इंग्लंडाचेर
इलेव्हनांत
उजवाडावपा
उत्तराखंडाच्या
उपविभागांत
उलयतां
एलसीआर
एस्कॉर्ट
ऑलिंपिकांतल्या
ओतलें
ओबामाच्या
कनिका
कपलाचेर
कमिशनर
कळावाचें
कामगारांचेर
कामाचें
कार्यालयाचेर
काळजान
काळजीदार
कृष्णाक
कॅरियर
केडिया
केव्हॅट
कोणेच
कोरोनरी
कोहिमा
[...]
